#version: 0.2
Ġ t
Ġ a
h e
i n
Ġ ì
r e
Ġt he
o n
e r
Ġ o
a t
Ġ s
e n
Ġ c
Ġ w
e s
i s
Ġ ë
ì Ŀ
n d
i t
o r
Ġ p
a l
e d
a n
Ġ b
Ġo f
Ġ f
in g
Ġ in
a r
o u
Ġ m
Ġa nd
Ġt o
i c
i on
Ġ d
í ķ
l e
r o
a s
Ġ ê
ë ĭ
Ġ h
Ġt h
en t
c t
Ġ e
i l
Ġ re
â Ģ
o m
v e
Ġ l
s t
Ġ n
ì Ĺ
l y
Ġb e
Ġ is
Ġ T
s e
ìĿ ´
o l
ëĭ ¤
Ġ g
Ġ í
ë Ĭ
at ion
i m
i d
e t
ê ³
u t
o t
u r
c e
ëĬ Ķ
o w
c h
r a
Ġ A
Ġ S
Ġf or
i g
ì Ħ
Ġ u
Ġth at
Ġ on
ìĹ Ĳ
Ġ C
Ġs t
v er
Ġ I
ê °
i r
Ġ y
ì ł
ìĿ ĺ
íķ ĺ
u l
a m
a y
ìĿ Ħ
ì ŀ
e l
Ġa s
it h
Ġ 1
Ġì ŀ
ì §
ë ¡
a d
he r
Ġp ro
Ġa re
Ġì Ŀ
Ġc on
Ġa n
Ġw ith
Ġ (
i f
ì ļ
Ġw h
ì ĭ
Ġy ou
Ġ it
Ġo r
Ġ M
Ġa l
t er
o d
ë ¥
Ī ëĭ¤
íķ ľ
ë¡ ľ
ĠT he
Ġ P
m ent
g e
ê³ ł
t h
Ġì ł
ì Ĭ
âĢ Ļ
o p
at e
¸ °
is t
er s
Ġ B
Ġd e
il l
a b
Ġ he
i es
es s
ë ¦
u s
Ġe x
ë ı
ì§ Ģ
o re
Ĥ ¬
Ġw e
e ct
ê° Ģ
ì ľ
Ġs u
Ġ 2
Ġc om
it y
ì ķ
es t
Ġ H
re s
ìĦ ľ
a c
i ve
Ġh a
u m
l d
o s
ro m
Ġ v
ë ĵ
Ġ âĢ
ìĿ Ģ
k e
Ġ W
Ġê °
e m
ê ²
Ġb y
ë¥ ¼
an t
i v
q u
a in
n t
Ġ D
Ġa t
p p
Ġ E
ig h
Ġë °
Ġì ķ
Ġw as
Ġ R
u d
a nd
Ġc an
Ġf rom
o c
Ġ r
Ġc h
Ġ F
or t
ì ĸ
ëĭ Īëĭ¤
Ġn e
ĠìĿ ´
Ġs e
i al
ê ¸°
0 0
ë Ĥ
Ġê ²
Į Ģ
u re
Ī ĺ
ëı Ħ
ë¦ ¬
u n
Ġ N
Ġ G
Ġn ot
ar t
Ġ le
ic al
íķ ´
Ġ L
Ġì ĭ
r i
ë §
Ġha ve
o g
Ġs h
ê µ
Ġë §
Ġì Ĺ
Ġ en
ìĿ ¸
Ġth is
Ġs p
ë ł
ìĸ ´
Ġìŀ Ī
ìĬ ¤
³ ´
ìľ ¼
igh t
p t
ë ©
r ou
ic h
Ġa b
al l
re d
Ġw or
ìĭ ľ
Ġì Ħ
t her
ou ld
g h
T he
ion s
ou r
o st
om e
ë Ŀ
d u
Ġ im
ë °
at ed
· ¸
in e
Ġu s
p er
ar d
ì Ľ
ou t
âĢ Ŀ
Ġp l
a g
Ġ O
ëĿ ¼
el l
Ġthe ir
id e
f f
a ct
as t
an s
ìŀ Ĳ
Ġin t
p l
Ġì Īĺ
e ar
Ġê ³
Ġ J
a ge
u st
a k
ë ¬
Ġ U
Ġì §
Ġ k
Ġwh ich
ë ¶
Ġw he
ì ĥ
e c
Ġyou r
ou s
ì Ĥ¬
Ġì Ĥ¬
i z
Ġthe y
ìĹĲ ìĦľ
ë ŀ
Ġë ĭ
ëĵ ¤
Ġë Ĥ
£ ¼
o od
Ġal l
i b
ê³ ¼
ĠI n
ë Ĳ
i a
ul t
Ġa d
ìľ¼ ë¡ľ
Ġcon t
ì ĺ
Ġw ill
en d
Ġin c
c c
r u
Ġì ĺ
a p
Ġd is
on g
Ġm ore
i p
ĠâĢ ľ
Ġcom p
e w
ìļ ©
ation s
Ġre s
ve l
Ġh as
s o
e re
ìĬ µ
ê² Į
Ġd o
or m
ar y
ëĤ ĺ
at er
í ĸ
ĠT h
Ġê ·¸
a re
í Ļ
en ce
ab le
ë Ł
Ġo ther
il d
u al
Ġë ¶
Ġm an
Ġc l
ìł ģ
Ġb ut
ì ¹
k s
Ġ1 9
Ġwe re
r y
in d
ì ²
ì Ļ
ìļ Ķ
Ġ íķ
ìł ķ
ìĬµ ëĭĪëĭ¤
Ġë ª
. .
e p
Ġm e
an ce
a ch
Ġp er
Ġì ľ
Ġon e
¹ Ħ
ë į
Ġal so
Ġt e
Ġë ĮĢ
Ġim p
ë© ´
o se
ìŀ ¥
Ġê° Ģ
ent s
í Ĭ
' s
re at
as s
a ke
res s
ig n
ìķ Ħ
as e
í ĺ
Ġë ¬
a v
a u
ë ²
Ġ 3
Ġìĭ ľ
Ġì ĥ
it ion
ë ĮĢ
Ġ j
0 1
ic e
Ġs o
ì Ĩ
Ġ "
ct ion
Ġo ut
Ġê µ
b er
ver y
am e
ë ³´
Ġu n
im e
Ġa r
Ġê ¸°
Ġp art
Ġa pp
on e
Ġ íķĺ
o k
Ġ K
or d
) .
ĠS t
en s
a ce
íĬ ¸
is h
Ġab out
Ġë ĵ
Ġe v
i re
or y
ìł ľ
ou nt
Ġwh o
ac k
ë ª
ìĿ ¼
Ġst ud
Ġê² ĥ
Ġìķ Ħ
Ġp e
u b
Ġin f
Ġh is
ê ¸
Ġë ı
Ġs y
or s
ìĦ ±
u e
it e
Ġthe m
Ġcom m
an g
Ġs c
ë ħ
ìĽ Ĳ
c es
i ke
ë§ Į
re e
ou nd
ĠI t
n ow
l ow
ol og
Ġì ļ
Ġu p
Ġbe c
Ġp re
í ĥ
ĠC h
ìĥ ģ
Ġìł ķ
Ġì§ Ģ
ë¶ Ģ
Ġth an
i le
i e
Ġm ay
r ic
ìĻ Ģ
Ġ qu
a il
´ Ģ
if f
i an
Ġë ³´
Ġs ome
op le
í Ħ
Ġìł Ħ
Ġy ear
Ġre c
ļ Į
Ġì ĸ
ay s
ë £
at es
Ġìł ľ
Ġ V
ë ³
nd er
Ġthe re
Ġbe en
Ġwhe n
ing s
m er
ou gh
Ġa g
p h
Ġit s
ëĵ ľ
Ġint o
Ġg o
¯ ¸
íķĺ ëĬĶ
Ġt ime
¡ °
re n
¤ ĳ
r it
Ġí ĺ
Ġwor k
Ġt ra
t e
Ġo ver
er v
Ġthe se
on s
Ġìŀ Ĳ
ĠTh is
íĦ °
ver s
êµ Ń
al ly
Ġëĭ ¤
rou gh
Ġpe ople
ìĹ ¬
on d
Ġd iff
Ġh ow
íĻ Ķ
l l
ì £¼
l ud
Ġh ad
Ġ íķľ
ter n
o ve
au se
Ġt r
m s
Ġo ur
Ġcon s
Ġ ro
Ġc ol
Ġ ra
± °
Ġu se
ir st
in t
ì °
Ġa ct
if ic
w e
Ġbe t
ëĭ Ī
o ok
Ġm ost
le ct
l ic
Ġu nder
Ġ -
Ġk now
ment s
y s
n ing
Ġl ike
Ġb l
Ġ Y
Ġw ould
Ġs a
Ġí Ļ
) ,
ë ¹Ħ
Ġ 4
ìł Ħ
Ġd es
it ies
ëĲ ĺ
i ous
Ġa cc
l es
j ect
al th
ê³ µ
ì¹ ĺ
ëı Ļ
ro w
ì Īĺ
vel op
ìļ °
Ġì £¼
st em
êµ ¬
p le
ë¬ ¸
Ġì Ĩ
Ġt w
Ġre l
Ġne w
Ġ2 01
Ġsu ch
Ġ if
Ġne ed
o b
Ġ 5
ation al
ff ect
Ġre p
íķ ł
Ġan y
i ent
íķĺ ê³ł
Ġinc lud
Ġch ild
í Ķ
ê° Ħ
Ġhe l
Ġg en
at ive
he d
Ġì °
c ess
ul ar
Ġwh at
o v
Ġon ly
y p
Ġp r
Ġhel p
Ġus ed
ëŁ ¬
at ing
Ġpro v
c ed
Ġn o
Ġf irst
Ġp h
o ol
Ġpro du
Ġìľ Ħ
ĠU n
Ġ2 00
ìĭ ł
Ġth rough
Ĩ µ
Ġin d
Ġa m
Ġman y
Ġê² ½
Ġof f
Ġë Ĳ
i et
Ġde velop
Ġe m
ĠìĿ ¸
Ġë ³
f ter
os s
u c
at h
í ļĮ
Ġf e
ar k
is e
ic s
Ġa c
Ġp o
n e
er m
© ëĭĪëĭ¤
rou nd
t s
ìĭ ¤
Ġsp ec
Ġex p
ĠìŀĪ ìĬµëĭĪëĭ¤
Ġre g
ìĦ ¸
ur ing
ìĨ Į
in k
ë© °
ri b
Ġtw o
Ġëª ¨
ĠâĢ ĺ
he n
f ul
Ġsy stem
et h
ot h
is s
ol d
i ed
Ġdiff ere
il ity
Ġëĵ ±
ëħ Ħ
ib le
ĠëĤ ĺ
Ġo b
Ġde c
ĠâĢ ĵ
Ġat t
Ġas s
í Į
ê ¹
í İ
al s
as ed
Ġad d
ro p
Ġs ur
if e
t en
Ġì ¶
ëį °
ë£ Į
er t
ê³ Ħ
n g
í ģ
ĠH e
an ge
I n
í ħ
a w
ow er
Ġf l
Ġsh ould
f ore
ra m
ìķ ¼
Ġsu pp
u res
ar ch
Ġw ell
ìŀ ħ
we en
ĠìĿ ¼
Ġì ¤ĳ
ĠìŀĪ ëĬĶ
Ġre m
ra ct
Ġë ²
íĸ ī
b le
se l
Ġw ater
ìĹ ħ
Ġyear s
ow n
Ġë¬ ´
Ġin v
ì ¶
Ġì ²
Ġsu b
ì§ Ħ
Ġë¶ Ģ
Ġc o
ad e
Ġìŀ Īëĭ¤
ut ion
it s
g an
Ġs m
Ġbet ween
Ġc ould
Ġê³ µ
Ġì Ĭ
he s
Ġwhe re
ĠëĤ ´
Ġp res
c y
Ġh igh
Ġhe alth
Ġ 6
ic k
il y
Ġë į
ĠìĹ ¬
l and
Ġìķ Ĭ
u ch
w n
Ġtr ans
x t
ĠA s
Ġm ake
ì² ´
Ġê³ ł
f t
Ġ her
Ġë° ı
ë Ħ
Ġg et
ìĿ´ ëĭ¤
e ver
ìļ ´
Ġí Ķ
í ı
Ġp ers
Ġe ar
Ġí Į
ê¸ Ī
ëł ¤
ant s
f orm
it ed
id ent
ìĿ Į
íķ Ļ
Ĥ °
Ġb u
Ġìĸ ´
Ġ1 8
ëª ħ
ĠìĦ ľ
Ġimp ort
ê ±°
Ġin ter
olog y
ìĭ Ŀ
ch n
Ġre se
i ence
ëĲ ľ
ur al
on t
mer ic
Ġm od
Ġ íķ´
Ġìĥ ģ
ķ Į
Ġp ol
i vers
Ġin st
ch ool
Ġn um
Ġfor m
ic t
ìľ Ħ
Ġê ´Ģ
Ġë§ Ī
Ġdis c
ê ·¸
in es
| |
Ġex am
Ġí ı
í ŀ
Ġf ound
ë ¯¸
at a
Ġm ed
is m
in s
Ġle ar
ist s
t ing
g y
h at
ĠìĹ Ĩ
ual ly
o y
e f
ê¹ Į
Ġbec ause
ur n
Ġë ¹Ħ
Ġl ar
Ġa fter
. âĢĿ
Ġev en
Ġthe n
ë¥ ´
Ġë° Ķ
Ġs im
Ġl ong
Ġ very
Ġj ust
Ġdiffere nt
Ġc ent
Ġwor ld
ìĺ ¤
Ġìľ ł
Ġex per
n ess
í Ĵ
Ġinf orm
Ġe ffect
at ure
Ġê° ľ
ë§ Ī
Ġinc re
Ġh um
ì ¡°
ĠìĨ Į
Ġc ar
Ġw ay
ot her
Ġd et
ce pt
Ġc ount
ë¶ Ħ
g et
Ġì ¹
ĠA meric
ë¬ ´
Ġse e
Ġt yp
ì ¦
Ġ ed
ak ing
ical ly
Ľ Ħ
ëĤ ´
v ent
Ġ ke
Ġre f
Ġ1 0
ê ´Ģ
Ġì Ļ
i ew
Ġì Ľ
ol low
íŀ Ī
Ġth ose
ë¬ ¼
iv es
ê² ½
Ġêµ ¬
Ġì ¢
Ġres p
íģ ¬
Ġìĺ ¤
Ġv ar
ëĭ ¨
c er
Ġc all
Ġs ign
or k
Ġe very
ìŀ ĳ
Ġpro g
ëł ¥
Ġgen er
p s
Ġë Ķ
Ġs oc
Ġ 7
ëĬ ¥
Ġse c
om m
ro s
ar m
Ġp ub
Ġë° ľ
Ġex t
Ġchild ren
c k
ìŀ ¬
Ġsa id
t le
Ġl oc
u es
ìĦ ł
Ġpro cess
Ġbe ing
ê° ľ
1 9
Ġí ĸ
d s
ìĦ ¤
ĠìĬ ¤
Ġf act
Ġres ult
ĠìĿ ĺ
Ġe ach
Ġë§ Į
as es
l ed
Ġl ife
Ġpart ic
Ġìĥ Ŀ
Ġp at
ĠA l
Ġs et
ì Ī
ru ct
ì ħ
T h
Ġc a
Ġm y
êµ Ĳ
Ġë ķĮ
ir on
íĴ Ī
¶ Į
00 0
i o
ëŀ ĺ
od y
Ġ 8
ĠW e
Ġimport ant
ĠP ro
ìĺ ģ
ê ·
Ġm on
Ġs he
Ġg ra
ìľ ł
íķĺ ìĹ¬
Ġd ist
Ġê ¸
Ġm uch
ver n
ag es
v ed
íĺ ¸
µ ľ
Ġte chn
Ġre qu
Ġì ¡°
Ġc re
at her
ëĭ ¹
Ġëı Ħ
Ġde f
Ġr ight
ĺ Ĳ
ìĹ Ī
Ġf am
Ġinform ation
Ġd uring
Ġcomm un
w ard
Ġde p
Ġre ad
Ġf ollow
iz ed
Ġë¬ ¸
c ent
Ġo wn
im es
Ġ ent
Ġìĭ ł
Ġar t
ìĥ Ŀ
ĠR e
ìķ Ī
Ġf ood
± ´
ĠìĹ °
Ġs ame
Ġle ad
g g
¯ ¼
ì ¡
ect ion
ĳ Ĳ
h ip
ĠThe y
Ġle vel
ic es
Ġë ¯¸
ì Ĥ°
e x
Ġdo es
.. .
Ġm ade
an y
c om
Ġs k
Ġa ut
Ġìł Ģ
Ġpers on
Ġstud ents
Ġin s
iz e
ì° ¨
Ġst r
Ġstud y
Ġd ata
Ġen d
Ġìļ °
Ġìĺ Ī
c on
Ġc ur
íĥ Ģ
Ġf ind
ĠI f
Ġm in
Ġg row
t he
ĠA n
ĳ ľ
ĠìĦ ¸
Ġg ood
t ed
ĠF or
íĸ Īëĭ¤
u nd
Ġ 9
Ġp op
Ġb oth
Ġb ack
Ġí Ĩµ
ì§Ģ ë§Į
Ġí ĥ
Ġa v
al e
ë¡ Ŀ
Ġpro ble
ĠA r
Ġc he
ar s
Ġg rou
Ġbe fore
Ġë§ Ĳ
Ġ2 0
. ,
ìĹ °
Ġëı Ļ
Ġë° ©
Ġsm all
ĠëĲ ĺ
ìłģ ìĿ¸
v iron
Ġsh ow
Ġag ain
Ġus ing
ë Ķ
ëĵ¤ ìĿ´
Ġex pl
in al
Ġcomp le
ë² ķ
in ce
Ġh ist
Ġpro t
ivers ity
Ġs chool
ĠìĦ ł
st and
Ġìķ Ī
Ġg l
al ity
r on
ial ly
t y
Ġd i
Ġ '
om en
Ġë ĺĲ
Ġb o
Ġí İ
Ġí Ĭ
iv id
Ġm ain
d er
íķ ©ëĭĪëĭ¤
n ce
in ed
a x
re ad
i el
Ġc or
ĠìĤ¬ ìļ©
ìŀħ ëĭĪëĭ¤
Ġt est
ro l
Ġof ten
ĠH ow
Ġt reat
ĠN ew
âĢ ľ
ĠS p
Ġë¶ Ħ
Ġst ate
Ġs ol
ut e
o h
oc k
Ġp oss
Ġwh ile
i x
Ġl it
ĠìĿ´ ìļ©
Ġv al
is hed
íĶ Ħ
Ġl ess
im ate
r an
ĠI nd
ìŀ Ħ
er gy
Ġìĭ ¤
Ġë ħ
ire ct
ìĹ Ń
Ġd ay
Ġdis e
i en
ìĹĲ ëĬĶ
ëŀ Į
Ġr is
Ġt ake
u p
ê° ģ
r al
Ġn ow
Ġh im
ak es
ul ation
Ġo cc
ê ¶Į
Ġnum ber
ur y
Ġc ell
Ġp ower
i er
Ġs erv
Ġm em
Ġhum an
d ition
Ġprov id
í ĭ
ìĹĲ ê²Į
ĠìĦ ±
viron ment
ìĹ Īëĭ¤
iet y
Ġor gan
Ġ .
Ġf un
Ġv is
Ġìĺ ģ
Ġê° Ļ
ëł Ī
iv ing
ìĽ Ķ
Ġë Ħ
Ġrese arch
e red
Ġì µľ
a ir
Ġsupp ort
Ġb ody
Ġact iv
ĠS c
Ġm ust
ter s
Ġch ar
ëį ĺ
i qu
Ġêµ Ń
1 0
Ġ est
Ġdes ign
Ġd own
ë° ©
Ġê ·
v es
it al
us s
í Ĥ
v en
Ġth ree
Ġa round
t t
ë¥ ¸
Ġha nd
a h
âĢ Ķ
c l
Ġl ook
Ġbe l
ìķ ½
i um
Ġe lect
her s
Ġcl ass
ìĸ ĳ
Ġst art
d ay
Ġí ģ
Ġcon f
g er
Ġcomm on
Ġpo int
Ġpl an
Ġre du
ĠB ut
Ġg reat
Ġgo vern
re nt
a ve
a j
Ġd id
sel f
ìĿ´ ëĿ¼
ĠëĮĢ íķľ
ìĭ ¬
ou se
Ġë ©
ain s
íķĺ ê²Į
- -
Ġë¶ Ī
Ġê²½ ìļ°
ë¹Ħ ìĬ¤
Th is
Ġl and
ë° ľ
Ġs er
Ġcont in
Ġlar ge
¤ Ģ
Ġc le
v ing
ros s
e g
í Ĩµ
Ġexam ple
Ġê ±°
r ing
ĺ ìĿ´
as h
Ĩ ł
ĠI s
e e
íİ ¸
Ġìļ Ķ
it ions
Ġre t
a red
. "
ë ¯¼
Ġth ough
, âĢĿ
íĸ Ī
act er
Ġc our
ra in
ì ¤ĳ
Ġo p
Ġìŀ ¥
ëĵ ł
Ġinclud ing
ion al
ëª ¨
g en
âĢ ĵ
Ġrep ort
Ġcon st
n er
Ġall ow
ul l
ou th
Ġ19 9
Ġc are
Ġs om
Ġ [
Ġcall ed
w ay
el s
Ġì Ĥ
or n
Ġunder stand
ĠA nd
ĠThe re
íķľ ëĭ¤
ĠìĦ ¤
Ġë§ İ
± ħ
Ġe qu
Ġw rit
ë³ ¸
Ġbu ild
i ver
Ġst ill
ìł Ĳ
Ġm et
Ġëį Ķ
í Ĺ
Ġad v
ĠY ou
ìłģ ìľ¼ë¡ľ
es p
Ġed uc
iv en
Ġíĺ ¸
Ġêµ Ĳ
Ġpub lic
Ġbe h
Ġth ink
Ġknow n
2 0
Ġp ract
ivid ual
ìĨ į
Ġ &
ìł Ģ
Ġ ide
ater ial
ìĺ Ģ
ê »
in c
ect ed
om s
Ġ :
Ġì ´
re en
Ġ1 5
l ish
Ġg u
i red
i od
Ġapp ro
Ġd r
Ġqu est
os ed
ere st
íı ¬
d e
Ġf ew
íħ Ķ
oc i
Ġe as
con om
it ive
Ġpl ace
in ation
id s
ent ial
Ġst and
en se
ĠíĶ Ħ
Ġí ļĮ
Ġm ight
w w
iz ation
Ġm at
r ies
b ers
Ġê² °
m e
iv ed
ĠE ng
Ġwith out
Ġt em
ĠW h
Ġìķ Į
as on
r ation
Ġch ang
ĠëĶ °
i or
ra ph
2 01
Ġprodu ct
ou n
ĠThe se
ëĶ Ķ
Ġde m
er al
½ Ķ
Ġw ant
Ġwith in
our ces
Ġíĺ Ħ
Ġen vironment
ë° Ķ
eth od
Ġca us
en g
Ġsy m
Ġind ividual
ë¡ ł
Ġis s
ord ing
ert ain
ĠUn iversity
er ing
Ġpres ent
Ġpl ay
m an
l ine
pt ion
Ġen ergy
ë° ĺ
Ġp ur
ĠD e
Ġc ap
Ġì§ Ħ
Ġch ange
ĠíĮ Į
ë§ ¤
ë¦ ½
i ans
Ġph ys
Ġsoc ial
al k
Ġìłľ ê³µ
Ġë Ĩ
Ġd irect
Ġlear n
ff ic
Ġim m
ĠC on
l ess
in ess
Ġ1 2
t on
ĠAmeric an
Ġa ir
Ġp ot
Ġ ident
Ġd on
ê¹Į ì§Ģ
Ġdise ase
Ġl aw
ĠìĤ¬ ëŀĮ
Ġì ¦
Ġm aterial
Ġb re
Ġan other
u g
ang u
or th
Ġp os
Ġì Ī
Ġdevelop ment
ill ion
Ġp ass
Â ·
ĠìĽ Ĳ
_ _
ëĤ ľ
Ġare a
Ġìłķ ë³´
Ġs l
ìĪ ł
ab ility
Ġimp ro
Ġb en
Ġpro f
et s
Ġw omen
ëł ¨
are nt
ì² ĺ
ë¦ °
Ġ ve
Ġm us
Ġs it
ê° Ŀ
ê² ©
Ġpro ject
ag n
ã ħ
Ġh ome
Ġì¶ Ķ
Ġl ight
Ġìŀ ĳ
r ist
ê» ĺ
Ġê³ Ħ
b s
Ġre st
olog ical
aj or
I t
if ied
cc ess
Ġe t
Ġíķ ł
r is
i k
Ġris k
Ġan t
ĠìĦľ ë¹ĦìĬ¤
Ġinclud e
Ġb as
Ġ 0
Ġíı ¬
ĠP h
at s
Ġê ¹
Ġdes c
Ġint erest
er c
Ġcont rol
Ġëĵ ¤
Ġc ult
ent al
Ġë§ ¤
ro du
ĠS h
Ġbel ie
ë ¸
ĠA d
Ġb est
Ġen g
ain ed
Ġbl ood
a z
Ġme as
ë² Ī
í ĳľ
ìķ ĺ
if y
' t
Ġìł ģ
iel d
at ic
ë² Ħ
ĠE x
Ġo pp
íķĺ ê¸°
Ġagain st
w ays
ëŁ °
Ġê°Ģ ëĬ¥
ë° ķ
Ġm ark
Ġí ĽĦ
Ġbec ome
ê¸ ī
Ġo ld
ent ly
Ġprog ram
er n
Ġm ove
Ġm il
t o
Ġgovern ment
Ġle g
Ġm ethod
at ural
g in
íĤ ¤
Ġl ow
Ġse ver
c ing
Ġe conom
Ġp ar
ĠíĬ ¹
Ġan al
Ġê² Į
he re
l ished
Ġìŀ ħ
Ġan im
Ġear ly
is ion
ê ±´
e ad
Ġhe re
Ġe le
Ġor der
Ġë Ĭ
Ġ Z
Ġp ain
Ġì »
ĠC l
ar c
Ġíķ Ń
Ġbet ter
ì¶ ľ
Ġpro per
ĠHow ever
h or
ĠíĻ ķ
Ġw ar
íķ ¨
ë£ ¨
Ġ1 7
Ġke ep
Ġre al
our ce
Ġme ans
Ġsec ond
í Ĩł
ĠâĢ Ķ
Ġìŀ ¬
iss ion
u se
in ing
am p
Ġto o
w are
Ġl ast
ì ¢
Ġìĭľ ìĦ¤
Ġëħ ¸
ĠR es
Ġì¢ ĭ
Ġgrou p
ì² Ń
Ġo per
Ġëĭ ¨
Ġprov ide
Ġde v
Ġt er
ì§ ģ
Ġê° ķ
Ġfam ily
íķ Ń
an k
ì ¼
at or
ard s
id er
ìĦ Ŀ
ĠUn ited
Ġc ause
ic le
ra p
í ĽĦ
v iew
Ġf ore
e ed
ë ĳĲ
Ġë° ĺ
ill s
íĭ °
Ġhist ory
pl es
íĮ Į
Ġm ajor
Ġocc ur
íĺ ķ
ot e
Ġs ay
Ġë° Ľ
Ġpartic ular
ent ion
Ġf in
Ġposs ible
Ġto p
ë©´ ìĦľ
Ġu nt
1 2
ir c
Ġt re
Ġcur rent
Ġav ail
Ġíİ ¸
in a
ë¶Ģ íĦ°
ëĭ ĺ
re t
ì ¸
ĠC ol
Ġsa f
ĠP l
ê² °
p ar
Ġin du
Ġsever al
ëĵ¤ ìĿĢ
Ġper iod
Ġlear ning
ĠìľĦ íķ´
Ġëĭ ¹
o id
Ġne ar
ĠW hen
Ġadd ition
Ġor ig
p ect
Ġab le
ì§ Ī
Ġ1 6
Ġper cent
id ence
ëĲĺ ìĸ´
ëĬĶ ëį°
Ġh ig
l u
Ġinv ol
og raph
Ġha pp
Ġme an
ì§ ĳ
Ġ Q
Ġìļ° ë¦¬
i ents
Ġë ¹
Ġm ar
Ġper form
Ġs ince
og n
Ġm en
Ġb us
Ġe l
ì ¤Ģ
Ġop en
ëį Ķ
Ġl angu
Ġben ef
Ġth ings
1 8
ĠC an
Ġì¶ ľ
s y
Ġë° °
or ies
ĠS e
Ġc al
Ġspec ies
am es
p ort
Ġpro m
th ough
Ġfe el
Ġare as
Ġsc ient
Ġë¬´ ë£Į
u rop
Ġf re
Ġn on
ĠG od
ĠC omm
Ġíķ Ħ
Ġn ame
W hat
Ġother s
Ġì° ¨
Ġl im
Ġa ffect
Ġb ased
ĠT o
ĠA t
om p
Ġam ong
o le
ëŀ ĳ
ĠSt ates
ëĭ¤ ëĬĶ
il ar
Ġtreat ment
/ /
s c
pl oy
ìĽ Į
Ġfollow ing
ëĵ¤ ìĿĺ
Ġcount ry
Ġs ays
el f
Ġpl ant
ë¥ ĺ
Ġë Ī
Ġacc ess
end s
Ġc ertain
o f
l ing
5 0
Ġsign ific
Ġob ject
b e
r id
íĶ ¼
Ġt imes
ëŀ Ģ
íĺ Ħ
un e
end ed
ë¦¬ ê³ł
Ġê° Ĳ
Ġcon d
Ġf ac
ê² ł
Ġ1 1
os p
ì ´
Ġa ge
Ġf our
Ġpre vent
Ġavail able
, "
ì¡ ±
Ġwe e
Ġr un
ë³ µ
ĠëĤ ¨
ĠU S
ì¹ ´
ë¦ Ħ
Ġd el
íĥ ľ
Ġc ost
Ġc ase
Ġcon n
Ġf ree
ur ther
ì¦ Ī
ab ly
´ ĳ
Ġhe ad
Ġv iew
ot s
oc us
ã Ģ
ĠCh rist
2 00
Ġst ruct
Ī ¬
ĠC ent
Ġl o
st it
ĠE n
Ġp ost
W e
Ġcell s
w ork
Ġcom e
eth ing
Ġp ress
3 0
Ġre ce
1 1
o int
Ġloc al
Ġlit tle
is ed
Ġmon th
Ġsu ccess
ìħ ĺ
Ġl ab
op e
urop e
íķĺ ì§Ģ
Ġb ro
ìļ ¸
ì² ľ
Ġ3 0
Ģ ìĿ´
h y
Ġb ir
: //
íķ ©
res ent
Ġê³ ¼
Ġtyp e
Ġl ist
Ġl ater
ĠìĹ Ń
ress ion
Ġp ut
ìľ¼ ë©°
ol ution
Ġlevel s
Ġproble m
Ġc reat
Ġf ar
ĠìķĦ ëĭĪ
Ġle t
gg est
Ġë¬ ¼
Ġf low
ë ĸ
Ġv ol
Ġin tern
ìľ ¡
Ġyou ng
Ġh ard
st r
ĠB e
ê² ĥ
ic ult
ĠT e
Ġn atural
Ġb i
ëĦ ¤
ĠN ational
ê° Ĳ
Ġass oci
Ġunt il
g ed
I f
Ġam ount
p or
A s
c o
ê· ¼
Ġì° ¸
Ġproble ms
it her
ë° °
on es
an ces
âĢ ¦
Ġse em
a per
Ġcomp ut
ĠO r
Ġê²ĥ ìĿ´
n ot
Ġt urn
Ġs w
ate ly
Ġm ult
ì »
o ks
ĠA ll
ĠA f
ort un
Ġíķ ¨
Ġsu ggest
ìĦ¸ ìļĶ
Ġm aking
Ġsom ething
Ġg iven
ì¦ Ŀ
ure d
Ġëª ħ
Ġsh ort
Ġpol it
he m
ì Ķ
Ġhe art
ĠìĥĿ ê°ģ
Ġch o
Ġimp act
led ge
c le
Ġb ook
ic ro
ut ure
Ġc irc
ĠE urope
Ġ ess
or ld
Ġ1 4
Ġdet erm
Ġbeh av
Ġ $
p r
ĠëķĮ ë¬¸
Ġë ¨
y m
Ġíĸ ī
ic ation
ìĥ ī
Ġf ocus
ak en
Ġfun ction
ĠO n
age ment
Ġd ue
Ġcour se
íĹ ĺ
ap s
id es
f ace
Ġlike ly
oh n
at ory
Ġsignific ant
Ġal ways
Ġv ir
ì¢ ħ
Ġal ong
our s
an c
l er
Ġinv est
ĠM ed
Ġë ¦
s p
ĠíĨµ íķ´
ìĹĲìĦľ ëĬĶ
Ġíķĺ ëĤĺ
Ġf il
Ġd ra
Ġra d
Ġë ĳĲ
Ġ â
Ġíĺ¸ íħĶ
as ter
v ious
Ġde ath
Ġeduc ation
Ġcom b
Ġincre ase
Ġus ually
a pp
Ġd ays
Ġapp ear
Ġs ing
Ġcle ar
S t
Ġwor ds
n ed
ĠW hat
ri ed
Ġë³ Ģ
Ġpop ulation
Ġsystem s
em ber
Ġg r
ec ially
Ġte ac
Ġëį °
ã ģ
end ing
Ġg ive
ëĵ¤ ìĿĦ
Ġ er
Ġíķĺ ëĬĶ
Ġlangu age
Ġcent ury
Ġb rain
m in
ëıĦ ë¡Ŀ
ìĿ´ íĬ¸
Ġre le
Ġê ±´
Ġcre ate
ì¹ ¨
et ic
Ġto day
Ġcan cer
Ġtem per
m it
Ġcond itions
Ġresult s
Ġob s
Ġm illion
ĠíĶ ¼
Ġí Ŀ
ë³ Ħ
Ġcommun ity
Ġexper ience
Ġê°Ļ ìĿĢ
Ġex ist
Ġdiff icult
Ġp ast
Ġsp ace
Ġíķ Ļ
ob al
as ing
ëĭ¤ ê³ł
Ġspec ific
ap e
ĠB l
Ġm ov
pt oms
Ġdesc rib
Ġh y
Ġab ove
ĠS o
The re
Ġsim ilar
Ġwh y
ore d
Ġneed s
Ġne xt
íĮ Ĳ
a f
i ation
Ġen c
Ġì§ ģ
Ġaut hor
ive ly
Ġtechn ology
b y
Ġest ab
Ġcons um
ĺìĿ´ ì§Ģ
Ġrec ord
Ġë ¡
id d
ru ction
1 5
esp ecially
ĠíķŃ ê³µ
Ġp arent
Ġl ine
ìĻ ¸
Ġ19 8
Ġm ot
Ġg re
ĠìĹ Ĳ
ëª ©
at ors
Ġê¸ Ī
sel ves
Ġd am
rib ut
Ġchar acter
m ost
H ow
Ġchang es
Ġíķľ êµŃ
Ġìļ ´
Ġbe gin
Ġëª ©
at ch
Ġe y
Ġapp lic
o ver
Ġ ill
ìĺ Ī
ain ing
Ġf uture
Ġdisc uss
Ġk ind
n al
ĠB rit
ĠE ar
Ġhig her
Ġê° Ħ
Ġìĥ Ī
Ġne cess
Ġac ross
Ġc rit
Ġpro p
Ġle ast
Ġspec ial
Ġstr ong
Ġìĸ´ ëĸ
Ġas k
Ġne ver
N A
ort s
ì ½Ķ
Ġvar ious
ate g
iqu e
ë ¨
Ġt ry
Ġí Ĺ
Ġbus iness
od e
ĠAf ric
o x
ĠëĶ° ëĿ¼
ëł ¹
Ġs ide
Ġresp ons
Ġn et
an e
Ġto get
Ġtoget her
Ġ1 3
ëħ ¸
il ities
ì ±ħ
Ġhow ever
Ġcomple te
ê° ķ
om an
Ġë¦ ¬
f or
ĠG erm
Ġcount ries
íĸ ¥
ìĨ ¡
Ġle ft
om es
ru g
one y
ra y
le t
ĠìĹ ´
Ġt erm
Ġa way
ê±° ëĤĺ
ĠíĶĦ ë¡ľ
Ġc y
du ct
Ġprof ess
Ġwork ing
Ġen ough
Ġìĺ ¬
Ġë³ ¸
Ġcol le
Ġrese arc
Ġt ru
th ing
o ot
Ġë¬¸ ìłľ
ĠëĺĲ ëĬĶ
a im
ac es
Ġëĵ ľ
Ġëĭ¤ ë¥¸
or g
ëĲĺ ëĬĶ
ac y
Ġto ol
Ġke y
al f
Ġ especially
íĻ ĺ
Ġha ving
i res
av es
u ment
Ġwor ks
Ġte am
Ġimpro ve
ìĬ¤ íĬ¸
íĥ Ŀ
Ġrequ ire
il t
ĠL e
ĠJ ohn
Ġche m
E R
am m
ys is
u ed
Ġ z
ìł ¸
Ġs ens
Ġf ull
) :
Ġpl ants
un g
Ġëª »
Ġrel ations
Ġíı ī
Ġê² Ģ
le ment
Ġn orm
Ġpr im
s w
a e
Ġë© Ķ
ĠëĤ´ ìļ©
ach ing
1 6
ìĿ´ ëĤĺ
Ġw ays
Ġeffect s
1 7
Ġacc ount
ëĭ ¬
l o
Ġc r
Ġc ases
ĠEng lish
Ġgener al
Ġ /
Ġtyp es
it or
Ġstud ies
ar ing
ist ic
Ġbec ame
a ut
Ġíķľ ëĭ¤
i pp
ĠG o
Ġst ep
al es
± ¸
us h
Ġëĭ ¬
ĠìĤ ´
ĠW ar
a pt
it ing
ur ity
Ġcons ider
ĠìĻ ¸
s ide
íķ´ ìĦľ
í Ŀ
Ġsub ject
Ġre ason
Ġrep resent
Ġh ouse
en cy
Ġprot ect
ìĭľ ê°Ħ
ĠíķĦ ìļĶ
Ġs elf
Ġf und
Ġgo ing
A n
ĠíĻ ľ
ëĵ ±
Ġm akes
Ġ1 00
Ġsym ptoms
Ġ |
ot t
Ġm ind
i ol
ere nce
Ġì² ´
êµ °
ĠW orld
ific ation
Ġknow ledge
read y
Ġpol ic
Ġwhe ther
ĠIn tern
Ġphys ical
ĠS ome
Ġf urther
r ight
Ġsu m
le y
Ġl ower
ch ie
ë¸ Į
Ġìĭ Ŀ
ìł Ī
ìŀ Ī
Ġg round
1 4
g es
Ġcon cer
F or
ĠO ne
m ber
Ġë ł
Ġro le
Ġc ity
ĠM ar
Ġinf lu
u nt
Ġìŀ ĺ
ed i
er y
ĠìĿ Į
an n
ir d
Ġë Ŀ
Ġen s
Ġch all
Ġquest ion
Ġsu re
Ġst at
Ġem ploy
Ġgrou ps
at ures
Ġb ig
tt p
Ġval ue
Ġëª¨ ëĵł
· ¨
Ġe ff
Ġo pt
ib ility
Ġn ut
ë ĥ
ĠW ith
ĠA m
Ġê³ł ê°Ŀ
ëŁ ¼
Ġst ory
ê¸° ë¥¼
ĠG en
. )
ëŁ ī
Ġ X
Ġsc ience
Ġcl ose
ĠTh at
ur ch
Ġl ive
am in
au gh
Ġíķ¨ ê»ĺ
Ġë ¸
Ġpat ients
ë§ Ĳ
it es
c ul
Ġfl u
Ġd ig
Ġp red
ìĺĢ ëĭ¤
Ġl oss
sy ch
re am
ĠëĲ ľ
et imes
ab les
re l
ĠC ar
Ġì° ¾
Ġse en
Ġr ather
1 3
Ġpartic ip
y n
Ġbe low
Ġproduct s
p ut
Ġactiv ity
Ġto ward
ëł ĩ
Ġind ic
Ġal ready
¼ íĦ°
Ġne g
Ġwor d
ĠíĻ ĺ
Ġpot ential
and s
Ġ ur
Ġìĭľ ê°Ħ
Ġpro b
Ġì´ Ī
Ġw r
Ġte xt
í ļ
Ġoff ic
Ġd iet
Ġ19 7
Ġí ĳľ
Ġmod el
Ġ =
Ġsu n
Ġre ally
ĠC al
Ġr ange
Ġactiv ities
ra ms
Ł ģ
ver age
b on
Ġë§Į ëĵ¤
ĠíĻ Ķ
Ġì¢ ħ
Ġl ot
Ġs ite
Ġê²ĥ ìĿ´ëĭ¤
Ġret urn
Ġev idence
Ġd one
Ġë ģ
Ġ5 0
ou ra
Ġìĭľ ìŀĳ
e b
Ġde g
Ġe ither
ĠB y
Ġgrow th
Ġw ind
am ple
Ġart icle
ĠHe alth
u ation
ear ch
Ġtra dition
Ġrec ogn
ip le
Ġsing le
iv al
Ġres ources
ëĿ¼ ê³ł
Ġr ate
Ġph ot
Ġprodu ction
os is
Ġê° ģ
u le
Ġdevelop ed
Ġacc ording
ove red
i am
ĠD r
Ġcol lect
Ġb at
Ġqu ality
ow s
ĠI m
Ġìł Ĳ
Ġf all
Ġ ...
Ġì¹ ´
Ġf ive
ĠG e
es c
Ġon ce
Ġev ent
Ġm ass
v al
Ġn ational
ĠT r
Ġbuild ing
ub lic
Ġa chie
íħ Į
Ġmed ical
Ġindu st
iv il
¤ Ħ
Ġ2 5
ip s
W hen
f act
ì§Ģ ëĬĶ
ë ģ
Ġo il
Ġdo ct
c hes
ì Łģ
Ġmem bers
ide red
Ġiss ues
Ġwho le
ĠN orth
ë© Ķ
ĠS oc
ro ll
Ġup on
ìķ ł
ric t
Ġrel ig
ĠS he
± Ħ
į ¼
as k
Ġme et
Ġthem selves
le ep
ëĿ¼ ëĬĶ
our nal
S A
Ġt aken
f er
Ġ2 4
Ġcl imate
Ġin it
Ġs ource
Ġs ent
ĠìķĦ ìĿ´
ëĿ ½
Ġdet ail
Ġëĵ¤ ìĸ´
Ġl iving
Ġresearc hers
Ġre d
et er
Ġadd ress
íİ ĺìĿ´ì§Ģ
ĠëĶ Ķ
r ont
Ġredu ce
Ġd om
Ġn ature
Ġsur face
is on
Ġê°Ģ ìŀ¥
Ġwh ite
s h
Ġp aper
Ġë¡ ľ
ĠM ay
Ġd est
Ġfre qu
ĠS y
Ġan n
ĠSt ud
Ġab s
Ġf ield
et y
Ġh old
C h
Ġc ame
ĠAmeric a
ĠA ust
Ġê¹ Ģ
Ġquest ions
Ġright s
Ġcan not
Ġpolit ical
ĠA b
Ġf ri
Ġcons idered
Ġcre ated
re ct
g o
Ġcon cept
Ġto t
íĻ ľ
Ġíģ ¬
ì £
ĠM an
Ġì² ĺ
ĠY ork
Ġd rug
ë ¹
Ġì§ ĳ
Ġìķ ½
Ġëł Ī
Ġthough t
Ġsk ills
ì¶ Ķ
ffic ient
ĠS outh
ĠëĿ ¼
Ġc ut
Ġw ide
en n
ëĦ Ī
re me
ĠìľĦ íķľ
ī ´
Ġì Ĥ°
Ġpress ure
ĠR ep
l ike
Ġobs erv
ëĤ ł
Ġrec omm
Ġt ell
Ġl ay
Ġit self
ill ed
Ġíķ ©ëĭĪëĭ¤
re g
ĠìŀĪ ìĸ´
Ġë§İ ìĿĢ
Ġint rodu
ic ations
Ġst ates
ap an
Ġ ver
Ġs ound
ut ions
ib r
Ġanim als
Ġincre ased
Ġassoci ated
Ġs ize
Ġd oc
Ġwee k
Ġf ail
ĠAs s
ight s
Ġact ually
Ġsk in
m a
Ġre pl
6 0
Ġp ay
ĠìĨ į
Ġad ult
o ber
Ġsim ple
Ġso il
Ġhist or
is c
Ġbl ack
íķĺ ë©°
Ġìĸ ¸
ĠP r
Ġs al
Ġpract ice
o on
ë§ Ŀ
ìĹĲ ëıĦ
Ġfam il
ep end
Ġf at
Ġopp ortun
Ġmark et
ë¦ ¼
Ġrelations hip
Ġunderstand ing
iv ity
Ġrequ ired
ëĤ ¨
a i
Ġst ress
ol ic
" .
Ġë¯¸ êµŃ
Ġeconom ic
ĠA ct
2 5
Ġent ire
Ġal most
íĻ ©
ĠëĺĲ íķľ
Ġide a
Ġmain t
Ġì ±ħ
Ġgl obal
ĠìĤ¬ íļĮ
Ġcomple x
ĠìĹ¬ íĸī
se qu
T o
Ġpub lished
Ġê·¸ ë¦¬ê³ł
E S
Ġar g
Ġqu ick
íķĺ ë©´
ra d
ly ing
ac c
Ġrel ated
Ġcon dition
Ġm or
Ġeffect ive
en ed
art ment
ĠEar th
Ġmod ern
it ud
Ģ ë¡ľ
g ing
ìłķ ë³´
Ġneed ed
Ġab ility
A l
ne y
p ro
Ġí Ĵ
Ġprovid es
Ġê²ĥ ìĿĦ
ë³ Ģ
Ġë² Ī
ac ed
Ġsp e
ac ks
Ġstud ent
Ġê°ľ ìĿ¸
ag ed
Ġê²ĥ ìĿĢ
ìŀĳ ê¶Į
it ary
op h
Ġf ish
h ing
um p
Ġeng ine
h ib
Ġmaterial s
Ġto ok
ĠìĺĪ ìķ½
Ġpur p
ĠëĨ Ĵ
ĠD ep
ĠG u
Ġp ort
Ġex erc
Ġhealth y
Ġh alf
Ġcom es
Ġsu per
Ġpr iv
ëĭ ´
in ter
2 2
ë¦¬ ëĬĶ
er ve
ore s
Ġman agement
en ing
op y
ag ing
b o
row n
Ġpart s
ê² ¬
ol l
ì° ©
Ġcl aim
Ġexper ien
Ġav oid
I D
Ġwe ight
ww w
Ġar ch
ĠìŀĲ ìĭł
ut es
ìĿ´ëĿ¼ ê³ł
g est
Ġm oney
Ġí ħ
ì Ĥ
Ġìĭ ¬
ve re
Ġp ath
Ġ vers
Ġc at
ĠH ist
Ġh ours
p ly
Ġpro te
ri pt
Ġre act
m y
Ġnecess ary
Ġl ink
c ient
4 0
os es
W h
ch an
ĠC o
Ġìĸ ĳ
Ġbe gan
Ġe ver
Ġsu ff
Ġmonth s
Ġan sw
íĶ Į
us ion
ed s
ur s
ĠSt ate
Ġar r
Ġd og
ĠìĹ ħ
Ġparent s
Ġcomput er
Ġf ire
ir m
ĠJ apan
Ġcon duct
m b
Ġse par
Ġcol l
Ġs ense
Y ou
Ġê·¸ ëŁ¬
he t
ĠC ont
Ġass ess
Ġy et
ĠìĻ Ħ
Ġg reen
Ġappro ach
ìĺ ¨
ĠH is
s on
g ar
um e
ĠC omp
Ġhe at
ê¸ ¸
Ġserv ices
es e
iz ing
ëĲ ł
Ġê´Ģ ëł¨
-- --
Ġst op
ëĦ ·
y l
Ġë² Ħ
Ġë§ ŀ
íķĺ ëĭ¤
Ġr ul
Ġso ft
ens ive
b ased
Ġë° ķ
Ġfact ors
Ġreg ion
Ġlit er
Ġprodu ce
ĠD o
z e
Ġmeas ure
em pt
ab it
Ġí ŀ
Ġìłľ íĴĪ
Ġpop ular
idd le
Ã ©
n ces
Ġt ar
en ces
Ġb ar
u el
Ġìĺ ¨
Ġanal ysis
ì£¼ ìĿĺ
ĠíĮ Ĳ
Ġg e
Ġread ing
ë¶ ģ
Ġg as
Ġchem ical
ab or
Ġj ob
uc k
A R
ĠN e
Ġperson al
Ġthrough out
ë¶ Ī
ect ions
A T
ict ion
es tern
r ated
ìł ĳ
Ġon line
Ġe mer
Ġpr inc
ĠíĻķ ìĿ¸
Ġê· ¼
Ġt aking
ĠBrit ish
ë ´
ĠëĪ Ħ
I N
h old
Ġl a
ľ ´
Ġcol or
Ġincre asing
Ġreg ard
Ġpat tern
ic les
ed eral
Ġëĭ¤ ìĿĮ
ê¸ Ģ
ĠëķĮë¬¸ ìĹĲ
is ing
ê ´ĳ
Ġ ut
Ġthe rap
ì¸ ł
íħ ľ
Ġë² ķ
ëĮĢ ë¡ľ
ì´ Ī
Ġlong er
ĠìĨ Ĳ
er ous
ëĲ ©ëĭĪëĭ¤
ig ure
ìĸ ¸
Ġíĥ Ģ
Ġrec ent
ĠA fter
ĠíĬ ¸
Ġëĭ¤ ìĸĳ
ĠìĦ¸ ê³Ħ
Ġa ction
ĠCan ad
ĠP e
Ġinter act
ë¦¬ ë¥¼
Ġt alk
Ġbehav ior
Ġf arm
Ġstruct ure
Ġê²ĥ ìľ¼ë¡ľ
Ġpre vious
ĠI I
Ġpos ition
Ġcont ent
ë³´ ëĭ¤
Ġshow s
ab et
Ġë³ µ
Ġindividual s
__ __
em ic
Ġfe ed
cc ording
Ļ ë°ķ
ul ations
į ëĭĪëĭ¤
Ġserv ice
Ġsoc iety
r ate
Ġth ing
Ġëı ħ
Ġsur v
Ġwrit ing
Ġmat ter
Ġdis ord
Ġs ix
on se
p id
Ġprovid ed
y le
Ġche ck
en e
min ist
Ġtemper ature
Ġtot al
Ġbu ilt
Ġindust ry
Ġ ,
Ġmus ic
Ġcon c
Ġenvironment al
Ġb ur
ĠìĿ´ ìĥģ
st er
Ġhe av
Ġì¦ Ŀ
Ġse x
ë¡ľ ìļ´
Ġter ms
ail y
ĠIn stit
Ġs leep
ìĦľ ëĬĶ
ĠìłĢ ìŀĳê¶Į
Ġv iol
Ġb ring
Ġìķ ŀ
ëłĪ ìĿ´
ĠìĹ¬ ëŁ¬
ĠS u
Ġê°Ģ ì§Ģ
Ġde b
2 1
Ġet c
Ġì ½Ķ
w h
is ter
Ġmean ing
Ġcomp any
ist ance
l t
m on
Ġì» ¤
Ġtra ining
íķ´ ìķ¼
Ġì§Ģ ìĽĲ
Ġbre ak
ĠRes earch
ren g
Ġin j
Ġre v
Ġmed ia
Ġë ĸ
n s
le x
ĠëĬ Ĳ
in ary
Ġê³ ³
ve y
Ġcaus ed
ĠS ec
2 3
ìķ ħ
Ġë°© ë²ķ
an ced
Ġcont act
Ġí ļ
Ġdesign ed
l or
ast ic
Ġtru e
Ġl ove
c hed
uc le
Ġ4 0
ĠN o
ĠE m
Ġëı Į
ful ly
l ight
Ġc e
Ġì¹ ĺ
Ġsh own
Ġí Ī¬
Ġì ĵ
Ġexper im
Ġs at
Ġac cept
Ġsaf e
ric ult
Ġíĺ ķ
Ġìķ ł
Ġvar i
a ff
ìŀĲ ê°Ģ
Ġear th
ĠJ ew
land s
Ġl ives
ê¸° ìĹĲ
Ġeas y
ar ies
Ġ201 2
ĠWh ile
n ew
ron ic
íĦ° ëĦ·
Ġbenef its
h ood
ĠS chool
d om
Ġpos itive
Ķ ëĭ¤
Ġmethod s
Ġtra vel
Ġdi agn
Ġorig inal
ëı ħ
Ġinclud es
Ġê ±¸
ª ½
Ġprog rams
Ġth reat
Ġcle an
Ġcont ain
I S
2 4
rough t
ëŀ ¨
ist ics
Ġschool s
ì¶ ķ
Ġëª¨ ëĳĲ
at ives
ìĦ± ìĿĦ
Ġex c
Ġs low
Ġcult ure
Ġv ide
Ġsom etimes
O N
du c
Ġl if
Ġcaus es
u ge
O R
am ed
Ġ201 0
as c
it ation
rop ri
Ġsim ply
ing ton
Ġp le
Ġmove ment
av ing
Ġl ed
Ġ Â
ë Ĩ
íĮ ħ
Ġreg ular
Ġrel ative
Ġstand ard
um b
r im
Ġvar iety
Ġgre ater
n ers
ì¡ ´
ĠP ar
ìĭ Ń
os ition
Ġm ach
imate ly
ad es
Ġì¹ ¨
b an
Ġë³ Ħ
Ġsp read
ic ine
ĠP er
Ġtar get
ren ch
Ġm icro
ìĹĪ ìĬµëĭĪëĭ¤
ĠP res
Ġa verage
Ġë ¯¼
ĠëĮĢ íķ´
Ġíķĺ ê³ł
Ġe at
Ġì² Ń
Ġ <
ĠK ing
Ġp age
ëŁ ½
Ġh ttp
Ġf ru
Ġì§Ģ ìĹŃ
Ġì ¡
Ġst e
Ġbelie ve
Ġsub st
ri or
Ġiss ue
Ġ2 1
Ġde ep
Ġus es
Ġì¶Ķ ê°Ģ
Ġpre c
B ut
Ġem b
Ġë¶ ģ
Ġscient ists
Ġpol l
Ġf em
Ġinvol ved
Ġw ild
Ġcomp an
Ġwrit ten
Ġreport ed
al ing
Ġê¸° ìĪł
ĠAust ral
er ation
ra nd
ac hes
r ast
ì ³
Ġnorm al
Ġme chan
Ġorig in
Ġcar bon
Ġb r
c il
ĠM in
Ġì° ½
i us
¨ ìĸ´
Ġfor ce
Ġresp ect
ar ily
Ġc amp
Ġev ents
ìĤ¬ ë¥¼
Ġcom pl
Ġp ict
Ġíģ ´
Ġdo ing
Ġp sych
ëŀ ľ
í į¼
u fact
íĸĪ ìĬµëĭĪëĭ¤
ĠInd ia
Ġfor ms
erv ation
Ġb acter
Ġhelp s
Ġfood s
ri e
end er
Ġenc oura
Ġdam age
Ġê° Ŀ
Ġl og
Ġdem on
ial s
Ġsh are
Ġst reng
Ġref er
Ġre view
k now
Ġident ify
ĠCh ina
Ġout side
íı ī
Ġnet work
Ġdevelop ing
b or
ĠA pp
Ġ i
Ġim age
Ġparticular ly
Ġì´ Ŀ
ì ½
ìĦ ¼íĦ°
Ġ201 1
A N
ie f
Ġì ¤Ģ
Ġf ace
Ġbas ic
Ġíİ¸ ìĿĺ
ìĸ µ
Ġs ources
ë° ±
íķĺ ìĭľ
ĠìľĦ ì¹ĺ
Ġl ate
Ġìĭ ¶
ìķĺ ëĭ¤
Ġì º
ver se
ê·¸ ëŀ¨
Ġatt empt
l ies
Ġ19 6
im um
Ġl ack
Ġíĸ Ī
Ġc ust
Ġens ure
ìŀĲ ìĿĺ
ãħ ĭ
o ly
op s
ëħ Ģ
Ġrem ov
an a
ac hed
os ure
Ġ- -
íİ ĺ
Ġw ood
ì¡ Į
ĠA ug
ĠE d
8 0
í Ī¬
ì§Ģ ë¥¼
ĠCent er
ë³ ĳ
ĠW ill
Ġimp lement
ĠSc ience
ĠQ u
Ġser ious
ĠJ es
ë Ī
Ġresp onse
eng th
Ċ Ċ
Ġs qu
Ġh arm
o or
ĠH ar
Ġgener ally
Ġv it
Ġatt ention
er g
Ġëĭ¤ìĸĳ íķľ
Ġt ax
íļ į
Ġgrow ing
am b
Ġext reme
is es
Ġcomp on
ct ions
Ġide as
âĢ ¢
ĠM e
Ġprodu ced
Ġpo or
ra ft
Ġa p
ìĬ¤ íħľ
ri p
Ġsaf ety
Ġm ess
Ġcomp et
ir it
se t
is ions
ĠJ an
ê² ¨
ĠA g
ĠìĦ¤ ëªħ
rib ution
ĠëĤ ł
Ġint eg
ut h
Ġteac hers
ers on
Ġsu st
Ġì ī
ê¸° ëıĦ
ell ing
Ġcons ist
Ġb al
Ġdra w
Ġa st
n a
Ġì ·¨
Ġatt ack
Ġvis it
Ġs ou
ol es
ĠJ u
ìĬ ¹
ĠI nt
Ġlead ers
ĠP art
Ġintern ational
I C
Ġfore st
Ġa ff
ĠC ount
Ġser ies
r or
Ġse lect
Ġem ot
Ġprob ably
Ġelect ric
ë¸ Ķ
O n
Ġget ting
in o
Ġìłķ ëıĦ
Ġl at
Ġo x
Ġc it
Ġse a
ĠíļĮ ìĽĲ
ëĬ ĺ
Ġchall eng
Ġfe et
h a
Ġag o
m ing
u ary
Ġvir us
ëĿ¼ ìĿ´
Ġcontin ue
Ġpre p
Ġanim al
ĠìķĬ ëĬĶ
Ġdef in
id ed
Ġc oun
Ġsec urity
g round
ec ause
Ġë¨ ¹
os ing
Ġc ross
Ġm other
Ġn ight
Ġnum bers
Ġ ir
Ġwe bs
f ect
Ġpolic y
em s
l s
use um
ĠëĦ ¤
Ġíı¬ íķ¨
Ġdis pl
vent ion
Ġexp ress
Ġë°Ķ ë¡ľ
Ġve get
w here
ĠB o
Ġcomm it
h aps
Ġcor rect
Ġìł Ī
Ġì§Ģ ëĤľ
Ġf a
Ġlook ing
Ġd ou
ĠP re
Ġê ´ĳ
Ġì¦ Ĳ
Ġpat ient
Ġk ids
abet es
in ks
Ġdoes n
ĠìļĶ ê¸Ī
Ġind epend
ĠA c
ro om
c ies
ĠìķĦëĭĪ ëĿ¼
Ġess ential
ë¨ ¸
Ġd aily
Ġ201 3
Ġinst ead
anc ial
Ġinclud ed
Ġìł ĳ
Ġa ware
Ġcon cent
Ġt akes
Ġthere fore
ĠìĹĨ ëĬĶ
Ġth us
Ġ19 4
Ġë Ĵ
Ġ >
ce ll
Ġw all
ìĿ´ëĿ¼ ëĬĶ
itud e
ëŀ įëĭĪëĭ¤
t ies
if orn
ë² ł
he l
Ġ200 9
ĠM any
Ġê° ĸ
ëĲľ ëĭ¤
ë ķĮ
Ġest im
o es
ĠM ore
Ġíģ °
ĠìĹ° êµ¬
ĠR uss
.. ..
iss ions
íķĺ ìĭ¤
Ġì¶ ©
Ġsome one
ëłĩ ê²Į
ens ion
r s
Ġestab lished
Ġê²Į ìĭľ
! !
Ġhy d
Ġqu ite
ì µľ
Ġw arm
Ġpoint s
ìĽ Ģ
ĠëĦ Ī
Ġëĭ¤ ìĭľ
19 9
ĠE duc
Ġadd ed
i ot
Ġbir th
Ġdiffere nce
Ġman ufact
ĠíķŃê³µ íİ¸
ĠC ons
ĠInstit ute
Ġc ivil
Ġë§İ ìĿ´
ëĵ¤ ìĹĲê²Į
Ġco ver
Ġb ab
ĠE l
ì²ĺ ëŁ¼
Ġeas ily
íĿ ¬
on y
Ġprim ary
Ġinst it
Ġmil itary
Ġd ang
Ġpr int
Ġbo oks
ìĿ´ ê³ł
Ġth ird
Ġthe ory
ìľ¼ ë©´
Ġf ul
Ġto wn
as ons
Ġt ree
Ġm agn
Ġcomp ared
e xt
if t
Ġì ±Ħ
ìĹ Ĩ
re w
2 6
il le
ad s
Ġdeterm ine
ëħ Ĳ
Ġsol ar
ĠF rench
Ġth ous
Ġhe ld
ëĬ Ĳ
Ġ2 3
ograph y
Ġtradition al
ì ª½
ìľ ¨
Ġstart ed
ĠëĲ ł
Ġinvest ig
Ġë°ľ ìĥĿ
Ġsp eed
ce ed
Ġd iv
Ġê ¶Į
iforn ia
ĠGerm an
Ġallow s
ĠEurope an
Ġca pt
Ġt ur
Ġë³ ¼
Ġíħ Į
ìĶ ¨
Ġb it
Ġf av
Ġëĭ ´
Ġf ront
Ġê· ľ
Ġcompan ies
Ġìļ´ ìĺģ
n ame
Ġe c
ĠInd ian
Ġe th
Ġapp ropri
Ġdoct or
or ks
Ġmult iple
Ġcommun ities
Ġoff er
2 9
Ġscient ific
Ġs il
Ġins ide
Ġperform ance
ĠìŀĪ ìĿĦ
Ġprog ress
Ġê°Ŀ ìĭ¤
Ġun ique
Ġfamil ies
Ġquick ly
Ġ x
Ġdoc ument
2 7
Ġimm edi
Ġê¸° ëĬ¥
Ġdirect ly
Ġtool s
Ġseem s
Ġv acc
Ġdise ases
ĠíĶ Į
Ġa ud
Ġinf ection
Ġíļ ¨
Ġlar ger
Ġal tern
Ġref lect
d en
y ing
Ġev al
ĠìĦł íĥĿ
ĠDep artment
Ġre ve
Ġê²Ģ ìĥī
ĠG l
ĠêµĲ ìľ¡
Ġhum ans
el t
Ġachie ve
ë ¯
ĠìŀĪ ìľ¼ë©°
Ġë² ł
r ig
Ġì¤ĳ ìļĶ
Ġ200 8
A S
ell ow
ĠìĪ Ļë°ķ
ed ia
Ġdec re
ĠC O
Ġneg ative
ĠM ost
E N
ĠY our
ĠF ran
und red
her n
ien cy
l ied
Ġspe ak
ound s
Ġal though
ol ar
Ġs old
Ġíĥ ľ
Ġn ation
Ġr out
Ġact ive
Ġaddition al
Ġê´Ģ ê³Ħ
ì§ ¸
Ġìłķ ë¶Ģ
E D
ther n
Ġac id
Ġíķ´ ëĭ¹
r ition
Ġm ental
ĠC om
ĠC or
ĠIntern ational
Ġdemon str
Ġbeh ind
Ġìŀ Ħ
Ġh ot
ur ies
ê¸° ê°Ģ
j oy
ĠëĪ Ī
Ġn ucle
rid ge
ĠìĤ¬ íķŃ
ĠìŀĲ ë£Į
ĠM arch
um an
Ġas pect
I s
Ġhigh ly
ìĿ´ íĦ°
Ġse vere
H e
Ġt end
pr il
ëĲĺ ê³ł
ĠO ct
Ġtre es
Ġë° Ŀ
Ġw alk
Ġg ard
ĠJ une
ĠìĤ¬ ì§Ħ
O ne
I T
an cy
gen cy
â ĸ
Ġf oot
Ġt iss
r ance
ë§ ī
ìĿ´ ëĬĶ
Ġext ra
ìĪ ľ
Ġì¤ĳ êµŃ
Ġw ent
y ond
Ġh ost
al y
ìŀĲ ëĬĶ
ĠAr t
Ġb ase
ĠCal ifornia
ic ated
Ġì§ Ī
le b
form ation
Ġexerc ise
ines e
ì£ ł
Ġele ments
2 8
Ġë°Ķ ëŀįëĭĪëĭ¤
Ġ6 0
ë¦¬ ìĹĲ
ê· ¹
Ġh or
ĠChrist ian
ĠCh ar
ĠR ec
Ġì ¤Ħ
Ġdr ink
Ġbegin ning
S o
Ġh ar
Ġd ry
Ġh abit
m ar
Ġì¹ ľ
Ġinter p
Ġso on
ĠìķĦ ëĭ
Ġthink ing
Ġim pl
n ov
Ġey e
Ġansw er
ìłķ ìĿĦ
Ġs us
Ġwh ose
ĠAfric an
ĠW est
Ġcent ral
į ¨
im s
om et
ĠR et
A C
ëł¥ ìĿĦ
it er
Ġë ´
Ġg ame
Ġcrit ical
iqu es
ul ate
Ġcl in
ter m
Ġì§Ħ íĸī
Ġë¸ Į
Ġlab or
Ġp rior
ĠM us
Ġlead ing
ort hern
Ġ +
l ation
an ks
Ġtoward s
Ġanal y
Ġm ount
ib er
Ġsupp ly
Ġìĸ´ëĸ ¤
Ġvide o
ĠJes us
ĠB ar
u k
Ġst ay
ch ing
Ġb ad
ĠT V
Ġbro ad
ĠìĪ ľ
Ġpurp ose
ce an
i ers
om ing
Ġl ost
Ġdec l
ĠO ther
Ġmin utes
ĠS m
Ġìķ ¼
Ġê·¸ ëŁ°
Ġel se
Ġprot ection
¿ Ĳ
Ġexp ect
ë¦½ ëĭĪëĭ¤
ĠT ra
Ġtrans port
l ier
Ġcap ital
Ġì¢ĭ ìĿĢ
o very
il s
ĠìĿ´ ë¯¸
âĢĿ .
Ġc ard
Ġê°ľ ë°ľ
Ġ200 7
I V
Ġf ram
Ġn orth
Ġcust om
ĠN ot
Ġ201 6
ro gen
ĠSe pt
ĠìĿ¸ íĦ°ëĦ·
Ġuse ful
ĠM on
ĠíĶĦë¡ľ ê·¸ëŀ¨
v ant
Ġprote in
Ġlim ited
Ġan cient
Ġte aching
ĠAug ust
Ġf ight
Ġval ues
ĠH er
Ġstr ateg
s u
he st
Ġíķĺ ì§Ģë§Į
il os
ĠS ch
Ġc red
or ing
ash ington
ĠHist ory
A t
Ġì ½
Ġs ection
Ġpro ced
ì° °
ë¡ Ģ
c oh
ĠG ree
ìĸ´ ìļĶ
ì³ Ĳ
Ġíĸ ¥
ĠO f
c ome
Ġob t
Ġj o
Ġrece ived
ĠAfric a
Ġdec ision
Ġf ast
Ġm om
iel ds
Ġsit uation
Ġfe atures
ĠD av
il es
A nd
m ission
Ġcont ains
Ġp ack
le ction
ĠK e
ĠìĥĪ ë¡ľìļ´
ĠS erv
ĠìŀĪ ëıĦë¡Ŀ
is ms
Ġcont ribut
at t
ĠìĿ¼ ë³¸
p e
Ġd ark
Ġlar gest
ist ry
Ġnew s
Ġpriv ate
ĠAl though
Ġh undred
ĠD is
ar ian
Ġ201 5
Ġadult s
ĠJu ly
Ġìĸ ¼
ic a
ri ption
olog ies
ĠCh ild
Ġse ason
Ġrem ains
Ġsoft ware
Ġse arch
ou d
7 0
Ġwr ite
Ġfin ancial
it is
Ġst ra
Ġdescrib ed
se e
Ġen joy
se ct
Ġon es
Ġrelig ious
Ġqu ant
b it
Ġsym b
ĠA nt
Ġinflu ence
Ġj ud
f ort
Ġê¸° ìĹħ
ê· ľ
w ise
Ġestab lish
ar r
Ġb rought
Ġê²ĥ ìŀħëĭĪëĭ¤
Ġíĸ Īëĭ¤
ë° Ľ
Ġad minist
Ġgo al
Ġapplic ation
ĠP ress
Ġcap ac
Ġloc ated
ra el
Ġad op
Ġwork ers
Ġhand s
Ġor d
hen s
Ġbl ock
Ġag ree
Ġacc ur
Ġre ach
ud d
c ks
ĠU s
ro te
ĠM y
e qu
ê¸° ëĬĶ
Ġí Ĩł
ĠT w
ĠìĤ¬ ìĭ¤
ë ī´
it ect
Ġì ħ
us ed
ĠíĮĮ ìĿ¼
ëĵ Ŀ
Ġr ates
e al
Ġg ot
Ġex act
Ġc ool
ĠI S
ĠCh inese
Ġcar ry
Ġm ill
Ġíķ ©
ĠíĮ ¨
ĠRe g
íĻĶ ë¥¼
Ġìĥģ íĴĪ
Ġë§Įëĵ¤ ìĸ´
Ġì¡ ´
ra g
ĠS w
Ġbe aut
Ġìĵ °
Ġcomm and
in ct
ìŀ¥ ìĿĦ
Ġbec omes
g n
ĠëĴ ¤
Ġrequ ires
ìĤ¬ ìĿĺ
Ġê¸ Ģ
pp er
Ġpl aces
Ġdis p
Ġdev ice
Ġwee ks
ì° ½
Ġdev ices
ë¦ Ń
Ġìļ ©
Ġan g
im in
Ġnear ly
ĠR iver
Ġs outh
Ġst ru
ëĭ µ
Ġdem and
Ġê· Ģ
Ġsh all
Ġrem ain
ĠPro g
Ġtest s
ĠF irst
od ies
Ġ2 2
Ġs n
ĠC ong
at ur
ìĨ Ĳ
iz ations
ê³ ³
Ġv ict
Ġex cept
ë¦ ´
Ġì§Ģ ê¸Ī
Ġfor ces
ul ated
Ġëĵ± ìĿĦ
ìĹ Ķ
Ġag ricult
o ke
Ġl ength
3 5
Ġsust ain
Ġe gg
ì» ¤
ëĦ¤ ìļĶ
Ġëĵ± ìĿ´
ĠA pril
ìĤ¬ ê°Ģ
E C
ĠEng land
im al
ë¦¬ ìĬ¤
i ra
íĥ ģ
ĠH ere
ĠAmeric ans
u ous
Ġw a
Ġ201 4
Ġim ages
Ġto ld
v est
yp e
Ġbas is
ond on
Ġb orn
u ments
ent ially
ĠíĺĦ ìŀ¬
Ġproper ty
Ġeff orts
ĠAss oci
Ġra re
Ġcit iz
all ed
al t
Ġf ederal
Ġ2 6
b ook
Ġl ines
ĠPres ident
ìĿ ĳ
Ġ2 8
Ġe ating
Ġê¸ ¸
Ġmem ory
O S
Ġê²° ê³¼
Ġim ag
Ġde ad
res h
Ġìĭľ ìĬ¤íħľ
Ġhim self
Ġm ention
Ġ201 7
Ġbacter ia
ĠC ity
* *
ip ment
Ġsol ution
Ġle aves
' re
am a
ëŁ¬ íķľ
Ġë§Ī ìĿĮ
w ater
ibr ary
Ġtyp ically
íķĻ êµĲ
ove mber
c les
ĠìłĦ ë¬¸
Ġsa w
Ġimport ance
Ġe p
Ġfri ends
Ġê²½ ìłľ
Ġì £
Ġc ou
ĠëĲľ ëĭ¤
ĠM c
Ġë§Ī ëł¨
Ġdig ital
ìĹ ´
Ġtest ing
ì¼ Ģ
ëĭĪ ê¹Į
c ial
P A
Ġp an
Ġ200 0
ìĭľ ìķĦ
se c
Ġt able
ìħ ¨
Ġt it
ĠP ark
Ġve h
Ġmon itor
l in
ie ce
ã Ĥ
i ar
ĠGo vern
Ġu lt
ĠìĿ´ ëŁ°
Ġsur round
Ġmil es
ce mber
ëĵ¤ ê³¼
Ġsum mer
b ack
Ġh ous
Ġd ied
y ear
Ġf it
ĠW ashington
Ġf ather
k ing
Ġevery thing
a ul
Ġtechn iques
Ġey es
¿ ł
âĢ ĺ
Ġresp ond
íĨµ ëł¹
Ġobject s
ĠìĦ¤ ì¹ĺ
3 3
Ġcent er
Ġsit es
Ġcost s
l ife
id ents
Ġra pid
Ġm ole
Ġco ast
Ġg ives
Ġh ope
Ġappropri ate
Ġad j
Ġapplic ations
Ġwas te
íĬ ¹
coh ol
ĠCanad a
h am
Ġb ul
ê°Ģ ëĬĶ
ap ter
Ġany thing
E x
Ġd er
Ġsu gar
Ġnot hing
f ord
ĠEduc ation
ix ed
Ġcreat ing
A L
ëĿ¼ ìĿ¸
ìħ Ķ
Ġproject s
ë¦¬ ê°Ģ
Ġprocess es
ĠD ay
ĠëĦ ĺ
Ġwebs ite
ëł ¸
Ġê²Į ìŀĦ
Ġteac her
Ġcommun ication
) ;
ìŀĲ ìĿ¸
ĠW i
Ġleg al
iz es
Ġm is
ĠìĿ´ íĽĦ
ĠF rom
m ed
ĠëĤĺ íĥĢ
ĠìĿ´ ìķ¼
ë¯ Ģë¡ľ
Ġrespons ible
an ish
Ġdi abetes
oc ol
ĠIs rael
i pl
est ic
Ġsp irit
ĠSy stem
Ġaut om
Ġtra de
Ġcult ural
Ġíŀ ĺ
Ġbe yond
ĠìĤ¬ ìĿ´
om y
Ġp en
Ġad apt
ìĥģ ìĿĦ
F i
ìĤ¬ ëĬĶ
Ġcol d
augh t
Ġf inal
Ġexam ples
Ġconst ruction
Ġfollow ed
ĠJ ournal
Ġold er
Ġ2 7
Ġm id
ic o
ex ample
Ġcont roll
íĺ ĳ
Ġíĺ ĳ
ĠWill iam
Ġcol on
Ġpract ices
íĻ ķ
Ġins p
B y
ĠJan uary
Ġì ¸
Ġb ott
Ġconst it
he ad
Ġbenef it
ĠF eb
Ġgu id
og en
a ur
ĠSept ember
ìĺ ¬
a id
The se
Ġadv ant
Ġc ode
est s
ĠCh urch
Ġk ing
Ġdep end
Ġce leb
Ġí ľ´
Ġrec ently
ìĦ± ìĿ´
Ġìłķë³´ ë¥¼
ìĤ ´
ĠìĿ´ ë¦Ħ
Ġexp ected
íı °
Ġask ed
ĠP ol
ĠìŀĲ ìĦ¸
ëŀ µ
Ġst age
ì§ ķ
ë¦¬ ìķĦ
em y
Ġs on
Ġìĭ¤ ìłľ
ĠTe chn
Ġc am
Ġm iddle
íķĺ ë©´ìĦľ
Ġb reat
ëĭĪ ìĬ¤
Ġgra du
Ġant i
Ġconn ect
ĠOct ober
en ge
ĠIn c
ĠV al
Ġìĥģ íĻ©
Ġeconom y
ĠëĮĢ íĳľ
Ġrece ive
Ġre asons
ed om
Ġbehav i
Ġus er
ĠS an
Ġun c
ar i
ĠìĿĺ ë¯¸
Ġcho ose
Ġd ate
Ġsc reen
Ġc rop
Ġf ear
Ġpred ict
e v
Ġsmall er
Ġprovid ing
Ġu nd
om b
ĠDe velop
ĠG reat
ra b
Ġlaw s
Ġloc ation
Ġdest ro
k y
m osp
Ġtherap y
o ff
ough t
ê°Ģ ì§Ģ
Ġinst ru
lo ad
ĠíĹ Ī
Ġ2 9
Ġw inter
Ġf ile
íĺ¸ íħĶ
ĠL ear
Ġrul es
ĠTr ans
rie ved
i ples
Ġem ail
Ġê²Įìĭľ ë¬¼
íķĺ ìĦ¸ìļĶ
ill ing
ĠV ir
ãħĭ ãħĭ
ĠAr ch
m en
Ġcomplete ly
Ġopportun ity
ver t
íģ¬ ìĿ¸
Ġt en
Ġìłķ ì±ħ
Ġcal cul
Ġw oman
Ġëħ ¼
Ġcon sequ
ìŀĪ ëĬĶ
b l
Ġp et
o e
ur g
Ġw on
Ġê´Ģ ë¦¬
W ith
I I
Ġsuccess ful
Ġë³´ ê³ł
Ġeff ort
c an
Ġ ice
gy pt
it able
Ġëª¨ ìĬµ
Ġset t
ĠE ast
ìĿ µ
Ġtry ing
Ġcontin ued
Ġaffect ed
ĠComm un
Ĳ ëĭ¤
ter y
Ġ200 6
ul a
Ġcurrent ly
Ġf uel
Ġdeg ree
Ġra in
oc ks
str ial
ell ig
Ġgo es
ĠR ed
» ê²Į
Ġwe b
t ime
Ġle ave
Ġte eth
Ġc ru
Ġstand ards
l amm
Wh ile
Ġm iss
Ġus ers
l am
ĠE ven
Ġne igh
4 5
ĠD NA
ord s
Ġorgan ization
Ġelect r
Ġoccur s
Ġn amed
Ġappro x
ĠL ondon
Ġyour self
Ġexp osure
ar a
ĠìĤ ¼
Ġí Ľ
Ġal one
Ġro om
Ġequ ipment
ĠBl ack
ĠL aw
ĠìŀĪ ìľ¼
Ġplan et
ĠN ovember
ìĭľ ê¸°
ĠO ur
Ġv ia
Ġdiffere nces
rib ute
" ,
Ġfor mer
Ġpo ly
Ġconst ant
Ġbe g
ens ity
Ġs we
ĠìĦľ ìļ¸
Ġ ãĢ
re et
d ing
ĠB i
Ġconf lic
ìĻ Ħ
ĠCount y
Ġm ax
Ġevery one
ĠR oman
od ay
Ġear lier
Ġë¹ ł
Ġrecomm end
Ġw rote
Ġcolle ction
Ġë¸ Ķ
3 6
Ġsh ape
Ġmeas ures
ë§ ģ
ĠDe cember
í Ľ
air s
ĠC oun
ĠëĮĢ íĨµëł¹
ìĭĿ ìĿĦ
íķĺ ìĺĢëĭ¤
Ġper fect
P ro
Ġ19 5
ì² ł
Ġd en
Ġmaint ain
Ġsc ale
ire ction
ĠM ex
Ġb illion
Ġcour t
ìĭľ ìĺ¤
Ġgen etic
Ġh yp
Ġprofess ional
Ġocc up
Ġstreng th
ĠSoc iety
Ġë¶Ģ ë¶Ħ
Ġ8 0
Ġallow ed
Ġmod els
ĠA ccording
re es
Ġê·¸ ëŀĺ
âĢĿ ,
Ġr ule
ĠìĿ´ ìľł
Ġpur ch
mit ted
Ġêµ¬ ìĦ±
à ¤
ĠH igh
Ġcommon ly
Ġmem ber
Ġinterest ing
Ġí Ĥ
9 0
Ġëĵ± ìĿĺ
ì¸ µ
Ġp ow
ĠìĹĨ ëĭ¤
Ġbir ds
ĠêµŃ ê°Ģ
ĠS im
oc r
Ġìłģ ìļ©
at ers
Ġvis ual
ĠíĻľ ëıĻ
m ore
Ġover all
ĠìŀĪ ìĹĪ
ing u
Ġwe ather
Ġs ch
Ġì² ľ
Ġs am
Ġpre gn
Ġde al
Ġdrug s
Ġw ond
Ġte ach
Ġpl aced
ib ly
íģ ´
Ġe ight
ic ate
Ġh on
Ġë ľ
ĠìĿ´ ëŁ¬íķľ
ru ary
Ġm ob
ĠIn st
w ide
Ġapp lied
Ġr ise
Ġc ateg
Ġis n
od es
ĠRe ad
Ġredu ced
ìĹĲìĦľ ëıĦ
Ġdisc overed
ĠìŀĪ ê³ł
Ġë £
Ġform ed
E T
Ġex ec
Ġcom ing
Ġê·¸ ê²ĥ
Ġv ill
Ġch urch
Ġì§ģ ìłĳ
Ġtra ck
Ġse qu
Ġëģ Ŀ
ìĿ´ ë©°
or ation
or ge
Ġper haps
Ġì£¼ ì°¨
Ġf air
Ġstat us
ĠìķĬ ìĬµëĭĪëĭ¤
ë° Ģ
ê¹ Ģ
Ġê·¸ëŁ¬ ëĤĺ
ĠThe n
Ġfru it
hem at
Ġvir t
qu e
ìļ ±
Ġg ir
Ġë° ±
Ġìī ½
if ul
Ġem p
Ġstep s
ìĸ´ ìĦľ
Ġent er
c he
ì į¨
3 8
ìĤ¬ íļĮ
Ġen h
ìĥ Ī
ëĦ Ĳ
ĠGerm any
D A
Ġë³Ħ ëıĦ
Ġ #
ìŀĲ ë¥¼
Ġt ou
Ġë§ Ľ
ĠH ouse
ĠìĿ´ ë²Ī
ë ·
ê° Ī
ĠD uring
Ġro b
Ġdid n
ĠAl so
ĠR o
Ġshow ed
Ġdispl ay
ë² Į
Ġcomm erc
Ġêµ¬ ë§¤
ĠM od
un ch
U n
ì¹ ľ
Ġhistor ical
i able
ph as
ĠìŀĪ ìĹĪëĭ¤
Ġì¦ ī
u ff
ĠP at
Ġg ave
íķĺ ê±°ëĤĺ
Ġident ified
Ġg old
S ome
ĠF in
Ġnot e
Ġpres ence
ëŀľ ëĵľ
ìĹ ĩ
íĮ ¨
Ġìĸ´ ë¦°
Ġê ¼
ĠE gypt
Ġm outh
ì º
Ġro ad
it ch
Ġmajor ity
ĠRet rieved
Ġr ich
ĠU N
ĠPro t
b re
ìŀ¥ ìĿĢ
Ġm ig
Ġincre ases
E M
Ġpower ful
Ġ200 5
ëĿ¼ ëıĦ
ĠëıĻ ìķĪ
¾ ¸
al ed
ĠìĤ¬ ìĹħ
Ġmov ing
Ġc ook
Ġro ck
Ġë¶ģ íķľ
Ġto x
Ġful ly
3 9
ĠB ecause
ĠN ow
re c
Ġac qu
en cies
Ġte le
c raft
Ġsymb ol
Ġrem ember
Ġrelative ly
ìĭŃ ìĭľìĺ¤
osp ital
Ġun it
Ġant ib
Ġc ra
ĠW ater
A M
Ġcont ext
Ġj oint
Ġass ign
Ġë ĳ
A d
Ġê¸° ì¤Ģ
Ġill ness
ĠìķĬ ê³ł
Ġvers ion
know n
Ġë°ľ ê²¬
Ġs ect
Ġëĵ± ë¡Ŀ
ĠëıĦ ì°©
ĠìĿ Ģ
ã ĥ
Ġcho ice
Ġele ment
Ġê° Ī
Ġr iver
Ġact ions
íĥ Ħ
ĠíĻĺ ê²½
íķĺ ìĺĢ
Ġc ry
am ent
Ġp iece
ain t
tern al
ìķ ¡
Ġbab y
st e
Ġac ad
ĠìķĮ ëł¤
ìĦľ ë¹ĦìĬ¤
Ġstru gg
U R
Ġarch itect
ast e
ĠìĹ¬ ìĦ±
Ġat mosp
Ġst ri
Ġbre ast
ru pt
Ġappear s
7 8
os y
ent y
Ġcomp ar
Ġì ¼
ĠF l
e es
ìĬ¤ íģ¬
Ġph ilos
Ġlim it
Ġm ission
Ġwork ed
P S
ĠGen eral
ĠPh il
ĠëĦĪ ë¬´
res p
3 4
Ġtrans fer
Ġprom ot
Ġmom ent
Ġproper ties
rel ated
ĠJ ust
Ġê°ĢëĬ¥ íķľ
Ġmach ine
Ġpe ace
Ġb all
ìŀ¥ ìĿ´
k en
Ġill ust
for ce
ĠCong ress
Ġexp and
og le
Ġatt ract
Ġsit u
ĠU se
in ated
ë² Ķ
ĠT ur
Ġsign s
Ġê¸° ìŀĲ
Ġimm une
ĠAustral ia
Ġw id
ĠìĬ ¹
Ġêµ °
Ġnut ri
Ġan x
a ign
d o
Ġwor th
ĠPe ople
Ġc op
Ġfor ward
Ġcapac ity
Ġrun ning
or age
êµĲ ìľ¡
c ont
Ġn ames
Ġr at
Ġas se
Ġê°Ģ ê²©
Ġpattern s
Ġvit amin
Ġoff ers
Ġìŀ ¡
ëĲĺ ì§Ģ
U S
ien ces
Ġf resh
ĠA re
ĠC our
ĠUn ion
Ġexist ing
ĠS ince
ĠìĽ ¹
Ġconst ruct
Ġë¶Ħ ìĦĿ
ur ance
ĠìĪĺ ëıĦ
Ġv o
ri ef
Ġg iving
Ġc ities
Ġbelie f
Ġst ories
Ġsur vey
Ġe fficient
c ious
ĠAssoci ation
Ġal cohol
Ġìĺģ íĻĶ
Ġchang ed
Ġìĸ´ëĸ »ê²Į
Ġass ist
Ġfun ctions
Ġc opy
íİ¸ ì§ĳ
íĺ ¼
ĠSoc ial
Ġd irection
ê¸ ´
íĶĦ íĬ¸
3 1
Ġcon vers
A ll
h ouse
ĠIntern et
i ate
Ġê°Ģ ì¡±
ĠCon f
Ġequ al
3 7
ĠS er
Ġgr ass
Ġfem ale
Ġ ing
ëĥ Ĳ
p ris
Ġ7 0
er o
in y
ĠS ur
Ġin sect
Ġfore ign
om as
ul s
Ġopportun ities
ĵ ¨
ĠìŀĲ ëıĻ
ĠìĿ¸ ê°Ħ
as ion
p art
ìĬ¤ ëĬĶ
ger y
í Ĩ
Ġd at
ess ion
ĠêµŃ ìłľ
ëıĦ ë¥¼
Ġ9 0
Ġrep e
ĠW ind
Ġdetail s
ĠCoun cil
l im
ëĤĺ ëĬĶ
Ġwe ak
C C
Ġfri end
Ġcitiz ens
ìĬ¤ ë¥¼
Ġeduc ational
Ġë© ´
Ġf igure
Ġev olution
Ġfact or
ĠPro f
Ġì±ħ ìŀĦ
Ġinst ance
Ġë°Ŀ íĺ
io x
ìŀĲ ë£Į
Ġt ask
ì¹¨ íķ´
ĠEn vironment
Ġthous ands
ĠìĿ´ ìĸ´
Ġch ance
y d
Ġh uge
ĠJapan ese
ub e
ab ilities
Ġdef ined
Ġeval u
erv ed
Ġmus cle
Ġro ot
ir ing
Ġcont ract
Ġinc or
Ġchalleng es
ìĭľ íĤ¤
ĠìĤ¬ ëŀĳ
ĠW estern
Ġpict ure
re hens
le ge
ìĭľ ìĹĲ
Ġnucle ar
ĠA ng
Ġdist ance
ed ing
ĠìķĬ ìĿĢ
Ġbal ance
ë¶Ģ ë¶Ħ
Ġf ert
Ġin nov
ĠFeb ruary
Ġlearn ed
ĠThe ir
B e
Ġj ournal
¶ ģ
Ġtiss ue
Ġsepar ate
ê° Ļ
Ġres istance
Ġbo x
Ġm ut
H E
Ġfind ings
Ġass um
Ġdet ect
Ġëį° ìĿ´íĦ°
h ors
Ġwr ong
Ġpr ice
ee ch
Ġcompon ents
ĠëıĮ ìķĦ
Ġì» ´
Ġgard en
Ġb ound
at in
Ġsuggest s
ĠProg ram
ĠF rance
ĠN et
Ġm al
Ġqu al
Ġdisord er
ic ip
Ġopt ions
Ġoff ice
Ġp p
ĠA ut
Ġê³Ħ íļį
Ġst aff
ke y
ĠU K
ëĭ¤ ë©´
ĠS ee
Ġse ven
Ġdestro y
P h
er a
ĠIn ter
Ġst ar
is ation
Ġn ative
ĠN A
Ġë³´ ìĹ¬
Ġreg ions
ĠìĿ¼ ë°ĺ
u ild
ĠëĲ ©ëĭĪëĭ¤
ĠíĤ ¤
ë² ½
Ġb ra
ë¥ ł
Ġvis ion
Ġw atch
so ft
Ġapp ly
Ġevent ually
Ġs ac
ch ange
íģ ¼
ograph ic
The y
Ġa im
pect ive
Ġabs or
ĠC he
Ġm ap
ĠëĲĺ ëĬĶ
ric k
B C
Ġê°Ļ ìĿ´
pp ed
Ġpass ed
i ance
Ġt ri
Ġì¤Ģ ë¹Ħ
Ġì²ĺ ìĿĮ
if ically
Ġì Ķ
Ġinc ome
Ġbelie ved
Ġexpl ain
ĠM icro
Ġem issions
0 5
A fter
A r
i ant
ĠJew ish
í ĵ¨
Ġst im
ĠDav id
Ġì¸ ¡
Ġe ffic
Ġconsum ption
7 5
Ġstrateg ies
ĠA ir
ĠìķĦ ëŀĺ
Ġì°¾ ìķĦ
Ġgu ide
r ates
Ġìłķ ì¹ĺ
Ġtechn ologies
ĠTh us
Ġtr uth
Ġhig hest
Ġst yle
Ġ200 3
Ġk id
Ġimmedi ately
ĠK ore
Ġfam ous
ì ī
Ġgo als
Ġinst ruct
om a
ĠG reen
Ġfav or
Ġsex ual
ĠO ff
ch ar
Ġë¬´ ìĹĩ
Ġìµľ ê³ł
Ġnut rition
ëĭĺ ìĿĺ
ĠâĢ ¦
ëį ¸
Ġbl ue
Ġpl ans
ec es
Ġreport s
ĠC ur
Ġne u
ĠE ach
ward s
rou p
Ġsp ring
y gen
Ġd yn
Ġê³Ħ ìĨį
Ġfe ature
íķ ĳ
Ġhapp en
ĠìĿ´ íķ´
Ġplan ning
Ġpop ulations
Ġdist ribution
Ġmov ed
Ġchall enge
ĠìĻ ķ
Ġdec ades
ĠP al
Ġcoll abor
Ġut il
ĠWe b
? âĢĿ
Ġë¬¸ íĻĶ
Ġg ain
Ġtre ated
Ġb ank
ëł ´
Ġcar ried
Ġclass room
6 5
Ġp hen
ëĤ´ ìļ©
Ġro t
S p
Ġexperien ces
Ġheav y
Ġex hib
Ġclin ical
Ġconn ected
ĠìłĢìŀĳê¶Į ì¹¨íķ´
ĠWi Fi
al d
ĠD on
ĠìłĦ ì²´
Ġì¢ Ģ
c are
Ġì£ ½
Ġê¸° ë³¸
Ġextreme ly
l ast
ant ic
ĠV ol
c ast
Ġpl astic
c ular
Ġex cess
Ġstruct ures
ĠìŀĲìĭł ìĿĺ
ë· °
Ġb ed
ìĿ¸ ìĿ´
Ġm o
ë³´ ê¸°
Ġì² «
n es
Ġact ual
Ġem phas
Ġìĺģ íĸ¥
Ġê°ľìĿ¸ ìłķë³´
Ġd ivid
ĠM or
ord er
Ġop in
Ġpres ident
tt ps
ĠíĮĲ ë§¤
Ġëª ĩ
Ġpart y
Ġgener ation
Ġbo ard
Ġorgan izations
Ġha ir
Ġtop ic
ĠD es
Ġfil m
9 9
olog ist
ìľĦ ìĽĲ
Ġmil k
Ġlet ter
ĠP ublic
3 2
e an
Ġexpl ore
Ġcommerc ial
ëĲĺ ìĹĪ
Ġapprox imately
Ġc and
u it
Ġp ick
Ġì¤ĳ ìĭ¬
Ġmed icine
íħ Ĳ
a us
ë ĺĲ
1 00
Ġobserv ed
ì ·¨
Ġur ban
á ĥ
Ġit ems
ĠP C
Ġb odies
rom e
ë Ĥ¬
Ġdisord ers
ĠìĤ¬ ìĿ´íĬ¸
Ġbec oming
het ic
Ġm ale
ĠM useum
b ed
ĠM ich
Ġsl ight
Ġestim ated
ĠL ord
A D
ag er
ig en
Ġdec isions
ĠíĬ¹ íŀĪ
z z
ìĬ¤ íĨł
Ġh om
Ġë§ ī
Ġgen e
ul f
ìĹĲìĦľ ìĿĺ
Ġleg is
Ġb one
un ction
ìķ Ļ
Ġdep ression
Ġfre edom
m ark
ĠêµŃ ëĤ´
im ent
te e
ĠJ ames
ĠR el
ĠìĹ° ê²°
ĠM at
ĠD ec
Ġref erence
S h
Ġ200 4
Ġaltern ative
ri a
Ġm ag
ĠPl an
4 8
Ġ iron
ĠëĬĲ ëĤ
ĠDevelop ment
ent h
Ġeas ier
Ġoper ations
Ġv ot
Ġset ting
Ġv ary
Ġëĸ ł
re st
0 8
ĠìķĦëĭ Į
Ġsp ect
ì£¼ ëĬĶ
Ġì°¸ ìĹ¬
ĠìŀĪëĭ¤ ëĬĶ
ĩ ¼
Ġfa ith
ing ly
ì§Ģ ê³ł
Ġhouse hold
ê¶Į ìĿĦ
Ġre ality
Ġ3 5
ĠRe v
Ġsignificant ly
ĠF ood
íĥ Ī
ĠìĿ´ ë£¨
Ġdes p
Ġindu strial
a res
r ant
Ġì² ł
ĠA v
Ġaspect s
ĠCol lege
Ġl iqu
por ary
Ġìļ ķ
i ated
n am
Ġ ign
Ġf ields
Ġtr ust
Ġíļ¨ ê³¼
Ġsa ve
---- ----
Ġìŀ ł
Ġê·¸ ëĬĶ
ĠëĲĺ ìĸ´
ĠM ary
Ġintrodu ced
Ġcy cle
ìĽ ĥ
Ġstart ing
ì¼ ľ
id ing
ĠìķĦ ì¹¨
ĠìĦľë¹ĦìĬ¤ ë¥¼
b al
Ġbuild ings
cl us
Ġpresent ed
Ġrecord s
Ġelectric ity
Ġclear ly
ĠRep ublic
Ġtrans l
ĠìĹ Ħ
ìĿ¸ ìĿĺ
ì¹ Ļ
ĠìĹĨ ìĿ´
ĠSp anish
ìĿ¸ ì§Ģ
Ġm er
Ġviol ence
Ġst ore
Ġê´Ģ íķľ
0 4
Ġf ig
i as
Ġê¸Ī ì§Ģ
= =
Ġì¶ ķ
Ġrele ase
Ġrele ased
Ġb ran
m et
Ġcont rast
Ġë¨ ¸
el ines
Ġê¸° íĥĢ
ol id
Ġpart ners
ëĪ Ħ
ĠS T
Ġl ived
ĠH uman
ì° ¸
Ġ esc
Ġë ī´
Ġg ames
ĠB udd
Ġmet al
Ġag g
Ġgl ass
te red
Ġê³ ¨
ap ers
Ġìµľ ëĮĢ
u x
Ġnot es
ogn itive
Ġlo ad
ê²ł ìĬµëĭĪëĭ¤
Ġgra ph
w orks
ë ĳ
ìĿ´ ìĹĪëĭ¤
Ġtemper atures
Ġì¹¨ ëĮĢ
ul um
Ġget s
er ate
Ġno vel
ĠSp ec
ĠìĹĨ ìĬµëĭĪëĭ¤
Ġë ĥ
Ġíķ´ ê²°
Ġst ream
s s
ĠF ound
Ġexperim ent
Ġout put
Ġë³´ íĺ¸
Ġfrequ ently
ë´ ī
il it
ëĲĺ ìĹĪëĭ¤
Ġser ve
t a
ëģ ¼
Ġg od
ëĭĺ ê»ĺ
Ġparticip ants
Ġch ronic
Ġí ĭ
Ġdou b
Ġh omes
ĠB ook
Ġv es
Ġapp e
Ġlay er
Ġì¡´ ìŀ¬
ress ive
Ġê°Ģì§Ģ ê³ł
Ġcaus ing
ĠB ra
Ġconduct ed
E L
r ans
íķľ êµŃ
Ġorgan ic
Ġt our
i j
ë°Ķ ìĿ´
Ġw in
Ġrequire ments
Ġwide ly
a ult
i os
lic k
and er
Ġnot ed
Ġturn ed
Ġres ource
ìĬ ¨
Ġis ol
ĠGovern ment
Ġth r
ãħ ł
ì° ¬
Ġt im
Ġk illed
ous ly
ruct ure
ĠL et
Ġter rit
Ġst orage
Ġliter ature
ĠO ver
ìĺ¤ ëĬĶ
Ġis land
Ġcomb ination
as ks
Â °
t ical
Ġrem ove
at form
Ġint ellig
Ġany one
Ġindepend ent
S T
om ic
ĠìĿ´ ë¥¼
Ġnum erous
Ġconn ection
Ġcamp aign
c ers
ĠO b
íķĺ ì§Ģë§Į
ĠGe orge
Ġtr ig
Ġdiscuss ion
íĦ ´
Ġìĥģ íĥľ
Ġëª ¸
Ġê´Ģ ìĭ¬
C O
ĠGree k
at ically
Ġmess age
Ġí Ħ
ìķ Į
ĠU nder
Ġris ks
Ġpolic ies
Ġbott om
ìĽ ¨ìĸ´
Ġhe ar
olog ists
Ġassess ment
ra ction
oc al
op hy
âĢĻ ,
id a
ĠìŀĲ ìĹ°
Ġbat tle
im ens
íķĺ ëł¤
Ġc overed
ess or
íĺ ľ
Ġìĭľ ìŀ¥
Ġrecomm ended
Ġsh ip
ere nces
ê ±¸
Ġrelationship s
Ġcre ation
Ġs and
Ġìĸ »
ang ing
C on
Ġto oth
Ġme at
Ġaut hors
Ġperform ed
Ġhapp ens
Ġd rop
ol ved
i i
m p
Ġchang ing
Ġpre fer
ĠëĨ į
Ġìŀĳ ìĦ±
ĠOr gan
ĠíĻ į
Ġox ygen
Ġs ample
Ġal g
Ġinterp ret
0 6
Ġcon v
íĵ¨ íĦ°
ê¸° ìĹħ
Ġread y
0 2
Ġun ivers
Ġmin or
ĠëįĶ ìļ±
Ġresult ing
Ġbeaut iful
Ġëĭ¹ ìĭł
ĠChild ren
ĠIs land
i eces
Ġsh ap
Ġíıī ê°Ģ
Ġê¸° ë¡Ŀ
Ġintern al
íĺ ģ
Ġann ual
Ġdang erous
ĠC ath
ëĶĶ ìĸ´
0 7
Ġo cean
ĠS un
Ġup d
Ġcolle ge
4 4
le g
ê°ľ ìĿĺ
Ġìłķ ë§Ĳ
íķ Ħ
ro ph
Ġpre par
Ġfind ing
ĠP aul
ic ial
ot hes
Ġwh om
Ġdr ive
Ġfeel ing
or ial
stit ution
Ġtechn ique
Ġbel ong
Ġphys ic
ĠìĿ ½
Ġexp ression
Ġn or
íĸĪ ëįĺ
iven ess
ìĿ¸ ëį°
Ġhelp ed
Ġwant ed
Ġfl ood
Ġì¢ĭ ìķĦ
ag s
am s
ĠB el
ra w
Ġë Ł
Ġ200 2
Ġu pper
ìŀ ¡
ĠM ark
Ġgr ant
Ġb urn
ro ad
ĠEx p
Ġves sel
Ġd ram
ro g
um n
ish ing
Ġmeet ing
ì ±Ħ
ĠO nce
Ġrefer red
Ġt rou
Ġv ul
m al
cept ion
ress ed
ĠP ort
Ġple ase
ëĵľ ëĬĶ
Ġdist inct
Ġbu y
Ġsol utions
Ġc ore
Ġíı Ń
Ġexact ly
ĠW ork
iet ies
Ġt um
Ġm ic
Ġinf ections
H ere
ag o
Ġë§¤ ìļ°
r um
ond s
ĠM al
ĠAs ia
ate gy
Ġinf lamm
Ġë Ń
Ġprinc iples
Ġë ¿Ĳ
ĠëĮĢ íķĻ
How ever
Ġconf irm
r as
ĠëĮĢ ìĥģ
Ġê³µ ê°Ħ
Ġk m
Ġ200 1
Ġun f
Ġdeg rees
le ase
8 8
bo ard
A P
Ġo ption
. |
Ġserv ed
Ġs em
Ġin put
ĠëĬ ĺ
ĠI r
ìĭľ ìĦ¤
Ġë³ ĳ
Ġinit ial
Ġencoura ge
Ġstate ment
Ġcharacter istics
ìĿ¸ ê°Ģ
Ġcoun ter
Ġt rib
Ġrad iation
ê³ ¡
Ġex cell
Ġre b
ĠL a
Ġstr ategy
h t
w ith
ĠD em
Ġmost ly
Ġë°© ë¬¸
ĠìłĢ ëł´
ĠPro ject
Ġback ground
R E
5 5
Ġsp eech
Ġmot ion
Ġinj ury
Ġdeterm ined
on ic
Ġn orthern
Ġë¬´ ëĭ¨
Ġë°ľ ìłĦ
Ġun its
Ġs av
Ġrep rodu
ĠêµŃ ë¯¼
Ġredu cing
w ood
ĠThere fore
ìĹĨ ìĿ´
k in
Ġp ip
oy al
ì¸ ¡
ri er
Ġsol id
Ġcal c
N ew
0 9
re te
Ġf ine
Ġd ed
Ġì» ¨
ĠìĿ ĳ
Ġanx iety
ortun ately
p ing
Ġë¹Ħ êµĲ
ëĤĺ ìļĶ
ëĵľ ë¦½ëĭĪëĭ¤
ĠëĤ´ìļ© ìĿĺ
Ġcred it
O T
Ġflu id
ĠM ount
A ccording
Ġremov ed
Ġclass es
B S
Ġcl ick
r ations
is her
ĠìĬ¤ íĥĢ
ĠWh y
ĠíĹ ¤
Ġdog s
al le
ri age
Ġì¶ľ ë°ľ
ĠëĶĶ ìŀĲìĿ¸
Ġl ib
row s
Ġrelig ion
Ġregard ing
Ġproper ly
Ġr ound
Ġcomp rehens
Ġdescrib e
Ġprocess ing
in ate
Ġcirc um
ĠD irect
5 00
Ġme ant
osy stem
e k
Ġm ist
Ġvol ume
ĠíķĻ ìĥĿ
ĠF ore
ê² Ģ
Ġìłľ íķľ
ìĸ´ ëĤĺ
Ġìĭł ê³ł
ë¡ľ ìĦľ
Ġm el
Ġmention ed
Ġprevious ly
ribut ed
Ġrepl ace
ur ation
ëĵ ¯
) ||
Ġhe ard
ros c
ur t
Ġì½ ĺ
ĠE v
Ġc ast
Ġlink ed
it z
ber g
ë¬¸ íĻĶ
Ġinvol ve
ric ulum
Ġsc en
Ġlead s
w ell
Ġsur gery
Ġc ris
t es
ë¨ ¼
M S
Ġcl os
Ġcons ervation
ë² ¤
Ġyou th
Ġinst all
ĠIt s
Ġgen es
ĠìķĪ ìłĦ
Ġë°Ľ ìķĦ
Ġegg s
Ġess ay
Ġg ender
ìŀĲ ëĵ¤ìĿ´
Ġk ill
Ġob vious
Ġf ol
Ġexperien ced
ĠG ra
Ġland sc
Ġadvant age
R es
ĠT est
T hat
o ch
Ġel imin
ãħ İ
ri an
Ġacad emic
Ġra ce
u ing
Ġsay ing
Ġsqu are
z a
Ġë¬¼ ë¡ł
M any
C l
Ġadj ust
Ġinvol ves
ĠH IV
Ġsp ot
ĠëĨĴ ìĿĢ
Ġdep ending
Ġvol unt
il ing
ì´ Ŀ
Ġl ic
Ġh our
Ġrele vant
Ġart icles
Ġreact ion
Ġprep ared
Ġar m
ĠíĻľ ìļ©
W hy
Ġprom ote
Ġamount s
ĠìĤ ¶
Ġexper ts
Ġinterest ed
Ġë³´ ëĭ¤
el ine
Ġprop osed
Ġpres c
ĠServ ice
Ġinv ent
Ġmat hemat
ĠH en
Ġexp osed
Ġtre nd
Ġsou thern
Ġfail ure
v ision
ĠìŀĲ ìľł
Ġeffect ively
Ġdec ided
Ġrad io
ĠR ober
Ġadv anced
Ġconflic t
h ttp
o o
ĠAc ad
Ġexper t
Ġê· ¹
ĠS en
ĠS ub
ĠíĴ į
6 4
Ġd ie
Ġpre t
Ġìº Ĳ
ĠIs lam
Ġsy nt
ĠT ex
ë¡ľ ëĬĶ
ĠL ife
ëĤĺ ëĿ¼
Ġë³Ģ ê²½
Ġke pt
Ġìĸ´ë¦° ìĿ´
Ġë³Ģ íĻĶ
augh ter
Ġin h
ic it
ĠA rab
ìŀĲ ìĹĲê²Į
ìĸ´ ëĵľ
Ġth ick
Ġa id
Ġinstit utions
an cing
ì§Ģ ëıĦ
Ġsp ent
Ġìµľ ê·¼
Ġë² Ķ
Ġê²° ìłķ
ĠëĤ ľ
ĠIn f
Ġìĺ¤ ëĬĺ
ë³ ¼
Ġ Ã
ĠB as
ify ing
Ġmanufact ure
Ġs ort
ĠìļĶ ì²Ń
d ed
Ġh ttps
ĠìļĶ êµ¬
Ġveget ables
ul es
Ġë² Į
Ġoper ation
Ġchar ge
ì¡Į ëĭ¤
Ġë§Ĳ íĸĪëĭ¤
íļ ¨
Ġoffic ial
Ġíĺ ¹
pl ace
Ġdis s
Ġê²½ íĹĺ
ĠìĿ´ ëłĩê²Į
m at
ë§Ī íĬ¸
ac ing
ĠìĿ¼ ë¶Ģ
ĠPh ys
Ġbro ther
Ġê·¸ ìĿĺ
Ġtr ial
ĳ ¸
ĠC D
ï ¼
ĠM ars
R O
re p
ì§ ľ
Ġ199 0
Ġtrans form
ìĬ¤ ìĿĺ
¿ Ī
am ental
ĠVir gin
ĠMex ico
Ġre ached
íĺ Ģ
Ġhelp ing
ì¹ĺ ë¥¼
Ġsec ret
Ġlo oks
ĠA D
ut ed
ĠëĤ´ ê°Ģ
ĠìĹŃ ìĤ¬
Ġincor por
ĠM art
ì§Ģ ê°Ģ
Ġident ity
0 3
r us
Ġh op
Ġman age
ìĿĮ ìĿĦ
Ġemot ional
ĠR ich
Ġfin ally
v is
Ġìŀĳ íĴĪ
ë¥´ ëĬĶ
Ġrem ained
Ġs ong
Ġ3 1
Ġsign al
Ġc ere
Al though
Ġelectr ical
Ġl ung
Ġë§Īëł¨ ëĲĺìĸ´
Ġpl atform
c ol
ĠR em
N ow
Ġp al
Ġconcer n
O ur
ĠB er
Ġe ast
Ġown ers
Ġfor ced
Ġw est
êµ ´
ew ork
ĠìĿĮ ìĭĿ
Ġp ric
y a
ëı Į
Ġp ages
Ġp ieces
ì¹ĺ ëĬĶ
Ġë¶Ī ë²ķ
Ġconcer ns
Ġprofess ion
R I
Ġìŀĳ ìĹħ
ì ¿ł
Ġpoll ution
ê¸° ìĿĺ
Ġmain ly
Ġfarm ers
Ġsupport ed
k m
Ġw aters
Ġcom fort
ĠìŀĪëĭ¤ ê³ł
iver se
ov iet
ĠìŀĪëĬĶ ëį°
ĠS al
ĠìĨĮ ê°ľ
b all
Ġconc lud
Ġsus p
Ġwe alth
ì ģ
Ġë ¯
ĠStud ents
9 5
í ľ´
as tern
ĩ ´
Ġp un
ĠëĨ ĵ
T S
Ġdisc over
com es
ë¬¼ ìĿĦ
ëł¥ ìĿ´
Ġman ner
ear s
Ġíķ µ
wh ich
Ġdiagn osis
Ġvul ner
ak ers
i ology
Ġn it
stand ing
ë¡ Ń
Ġcons ult
Ġsee k
ĠìķĬ ìķĺ
ac ific
Ġ201 8
ĠíķĦìļĶ íķľ
Ġdefin ition
Ġcontin ues
ĠìĦ¤ ìłķ
Ġdat ab
Ġê¸° ëĮĢ
ren ce
Ġ *
Ġb an
íļĮ ìĿĺ
Ä ģ
ĠìĿ´ ê²ĥ
Ġcor resp
ĠM et
Ġnot ice
ĠìĿĺ íķ´
Ġchemical s
Ġatmosp here
Ġmot or
Ġmor ning
Ġsh ared
ĠO ld
ë°° íı¬
atur ally
ĠMed icine
Ġconcept s
ar row
Ġcon ver
Ġphen omen
Ġj our
Ġcent uries
Ġìŀ¥ ìķł
^ ^
is hes
ĠBrit ain
Ġn av
ĠNew s
ĠB ay
Ġsu fficient
ĠìķĦ ë¬´
Ġallow ing
Ġì¤ĳìļĶ íķľ
Ġf lex
ĠM ac
Ġë§Ĳ ìĶ
cl usion
Ġhe aring
ìĭľ ëĬĶ
ìĽĲ ìĿĦ
Ġcomple ted
Ġengine ering
ĠCent ral
Ġse eds
ĠNA SA
Ġm aster
ĠJ er
Ġê³¼ ìłķ
ĠìĥĿ íĻľ
ĠìĦ ¼íĦ°
Ġfor t
ĠTh omas
ĠìĻ Ģ
ìļ ķ
ĠAt l
Ġíĳľ íĺĦ
ĠC ivil
Ġtechn ical
ĠìĪĺ ìĺģ
Ġìĸ´ ëł¤
Ġset tle
ë ľ
Ġint ended
Ġê±´ ê°ķ
Ġph ase
it ors
ĠF re
7 7
Ġst orm
orm al
Ġy ellow
ĠW ell
ĠWh ite
Ġwond er
ĠìĹŃ ìĭľ
Ġar my
ĠëĤĺ ëĬĶ
at ric
g l
Ġd oll
op er
ĠìĦ± ê³µ
Ġbeg ins
Ġì»´ íĵ¨íĦ°
ĠH el
Ġsustain able
p ed
ak er
esp ite
w est
Ġë¬¸ ìĿĺ
ëªħ ìĿĺ
Ġ Î
Ġcom ment
ĠìłĦ ìŀĲ
Ġlead er
ĠSp ace
Ġpartic les
Ġtox ic
Ġl ov
6 6
Ġless on
Ġd ro
ens us
â ĳ
Ġbl og
Ġprot ected
rap y
ĠQ ue
Ġco ord
ĠìĹŃ íķł
Ġ4 5
' ll
A meric
ĠRuss ian
Ġlangu ages
oss ible
ĠS am
ĠE very
ĠCour t
ro ke
Ġpract ical
N o
êµŃ ìĿĺ
Ġf oss
Ġmot iv
z ing
Ġì¡° ê¸Ī
íĭ Ģ
Ġìī½ ê²Į
l ig
Ġë¨ ¼
Ġse ed
F rom
Ġg ar
ĠO p
Ġoff ered
ĠWind ows
ĠD i
Ġdrink ing
Ġc ert
Ġst ation
en ced
as ure
Ġform ation
Ġcomb ined
Ġindic ate
ĠB ible
ìĦľ ë¥¼
Ġra ised
ĠMed ical
g ra
ĠìķĮ ìķĦ
Ġaware ness
Ġide al
Ġh it
ĠCl ass
A b
ol ars
Ġìĸ´ ëĬĲ
Ġíĥ Ħ
Ġfrequ ency
ĠìĿ´ ìłľ
Ġt aught
ĠD ist
i xt
ìĸ ¼
ok ing
Ġflow ers
Ġprofess or
ad o
Ġredu ction
Ġf ib
Ġë°ľ íĳľ
ac he
in f
Ġs now
ĠìĻ ľ
I ON
Ġìłľê³µ íķ©ëĭĪëĭ¤
Ġpurp oses
Ġkind s
Ġres ist
ë²Ī íĺ¸
ĠM iss
ëĮĢ ìĿĺ
4 9
Ġrecord ed
Ġvo ice
Ġre new
go ing
IN G
ĠJew s
P l
Ġoccur red
Ã ¡
ì¦ ĺ
w in
Ġprim arily
ëĥ ¥
Ġsam ples
Ġë³´ ë©´
ì¼ ĵ
nd rome
ìĥģ ìĿĺ
Ġco al
Ġm ath
Ġl inks
Ġcollect ed
Ġëª °
m l
ìĹ ¼
ìĻ Ķ
Ġjob s
Ġ5 00
oun ced
Ġimpro ved
ver ty
os ite
ĠìĺĪ ìłķ
Ġh orm
ìľĦ ë¥¼
ot ic
Ġlet ters
t ion
ĠëĮĢ íķ´ìĦľ
Ġeffic iency
Ġthe r
Ġê¸° ì¡´
ìĽĲ ìĿĺ
act ers
Ġgra nd
Ġconsequ ences
B N
ĠëĮĢ ë¶Ģë¶Ħ
om in
Ġpo verty
ĠìľĦì¹ĺ íķľ
Ġfocus ed
ëł Į
ìļ´ ëį°
Ġrev olution
u able
v an
ĠM r
Ġapp oint
í ĮĢ
Ġfact s
Ġstra ight
Ġdesp ite
c ript
Ġíĺ ¼
Ġexist ence
M ost
Ġt ro
hip s
ĠìķĪ ëĤ´
Ġlarge ly
Ġk n
ìĹ° êµ¬
Ġthough ts
d es
ut ive
Ġpers ons
os en
ëıĻ ìĿĦ
Ġinit i
Ġvacc ine
Ġm ort
Ġgir ls
Ġìľł ì§Ģ
Ġb rief
ë¡ľ ê·¸
Ġadv ance
' ve
Ġb ud
p oint
Ġauthor ity
N D
Ġproced ure
Ġmax imum
ĠS oviet
Ġcertain ly
ĠTex as
Ġgra de
Ġsitu ations
Ġmus cles
ëĵľ ë¥¼
Ġemer gency
r ich
Ġext ent
4 7
ĠTechn ology
ë¡ľ ë¶ĢíĦ°
Ġsur pris
ĠëıĦ ìĭľ
ol ute
ĠAr my
ĠM ass
Ġshow ing
ĠìĿ´ìļ© íķĺìĭ¤
Ġpol ice
Ġê·¸ ëłĩ
Ġreturn ed
ĠE lect
n ic
ul ating
ìľ¼ë¡ľ ìį¨
íĬ ¼
Ġsc he
Ġë¯ ¿
Ġw et
Ġw ife
Ġf elt
Ġexpl an
Ġ3 00
Ġst ars
am ily
ĠH ol
Ġplay ing
Ġf irm
Ġsh ar
ĠComm ission
s es
Ġra nd
Ġë¶Ī ê°Ģ
Ġimm ig
Ġl iver
et ers
Ġm ix
ĠL ou
Ġcont ribute
Ġper man
ëĭ¤ ê°Ģ
Ġmin imum
Ġê ½
Ġqu ar
Ġb ill
Ġì£¼ ìĭľê¸°
ĠìķĬ ìĿĦ
Ġexpl ains
Ġfund amental
Ġhe ight
ì» ´
Ġp ul
ĠM ont
a el
Ġp ark
ìĤ¬ ìĻĢ
____ ____
Ġagricult ural
ĠSec ond
Ġn ations
Ġdetail ed
Ġc ognitive
201 7
Ġsound s
or al
Ġdyn am
Ġliqu id
ë³´ ê³ł
Ġspec ifically
ĠEn ergy
Ġrespons ibility
Ġsal t
Ġs end
ĠíĬ¹ ë³Ħ
8 9
ĠB en
Ġmonitor ing
Ġë§ĲìĶ Ģ
Ġrand om
Ġsy n
D F
f ield
ë¥´ ê³ł
Ġexcell ent
ë¦¬ ìĿĺ
oth ing
Ġtreat ments
ì¼ ĢìĿ´
8 5
w hat
ĠI P
ĠìĹ° ëĿ½
Ġìŀ¥ ìĨĮ
Ġbi ological
z y
ough ly
â Ĺ
Ġm ere
est ed
Ġ20 20
ê· ł
Ġw el
4 6
ĠSt e
ic ed
Ġclaim s
ĠB C
ìŀĲ ìĻĢ
Ġref ers
Ġadv ice
Ġb right
Ġsubject s
Ġpot entially
Ġf aster
ro c
Ġhy per
v ille
Ġh ospital
ĠIn formation
e y
® ¤
Ã Ń
Ġon to
ĠM il
íĬ¸ ë¥¼
os a
ê²½ ìłľ
Ġl ik
Ġd u
Ġother wise
Ġneigh bor
ìľ µ
ĠìĽ Ķ
Ġne ut
Ġhabit at
ail s
ĠìĿ´ìļ© íķ´
ĠD el
ìĪ Ļ
ĠD ata
Ġplay ed
ĠTw o
Ġpro s
ìķ Ķ
un k
Ġgreat est
Ġìĺ¨ ëĿ¼ìĿ¸
Ġec osystem
Ġare n
ĠO ut
ĠR ights
Ġcare er
Ġsuggest ed
Ġsp end
ĠíķŃê³µíİ¸ ìĿĦ
p at
ìłĲ ìĿĦ
Ġatt acks
ëĶ ©
L E
Ġn an
Ġex ternal
av a
res ents
Ġv ital
Ġmet ab
ĠRuss ia
Ġìķ ħ
Ġìķ Ķ
ĠF urther
ìĽĮ íģ¬
Ġcons ists
ĠìĪĺ ì¤Ģ
Ġoper ating
om etimes
ìĤ¬ ìĹħ
ìĽĲ ìĿ´
Ġs in
Ġrecogn ized
l ar
ang es
b and
ĠC le
Ġincreasing ly
Ġcontroll ed
Ġsat is
ĠìĥĿ ìĤ°
Ġlook ed
ĠGo ogle
Ġd ri
Ġv ast
ĠL atin
ĠJ ose
Ġn erv
Ġpers pective
Ġchar acters
Ġcontin uous
in ent
ĠìĶ ¨
Ġbir d
ist an
Ġhundred s
ĠS ou
Ġtyp ical
ĠëĦ £
Ġnutri ents
Ġmo ist
Ġappro aches
ĠE conom
Ġro ll
Ġkeep ing
Ġst one
íĤ ¨
Ġtit le
Ġslight ly
Ġall erg
Ġmeas ured
Ġ199 9
Ġcou ple
Ġdivid ed
Ġimpact s
Ġhapp ened
Ġinstru ment
Ġpr ison
ĠëĬ ¥
Ġì°¾ ìĿĦ
Ġf le
rol og
Ġor al
ĠD ise
Ġfamil iar
ĠOff ice
Ġw ww
ĠëĲĺ ìĹĪëĭ¤
íĥ ķ
ens es
ê¸° ë¡ľ
Ġt asks
Ġar ms
8 6
ak s
Ġcompon ent
Ġf if
ĠìĨĮ ë¹Ħ
Ġfollow s
Ġv ent
ëıĦ ê°Ģ
Ġrec y
Ġspirit ual
ìļ° ìĬ¤
Ġfl at
Ġsurround ing
ĠT oday
ol f
Ġìłľ ìŀĳ
ìĬ ¬
Ġinterest s
ĠíĴ Ģ
H O
ro id
¼ ìĨĲ
ë§ Īëĭ¤
Ġfil es
Ġë ¥
th at
ĠB oth
Ġë° Ģ
ìĻ ķ
Ġëĳ ĺ
ĠU p
Ġinst ruction
Ġab use
Ġveh icle
I m
ì ¤Ħ
Ġb ow
Ġê¸ ī
ĠìĤ¬ëŀĮ ìĿ´
Ġdep th
st ood
ĠR ef
Ġsp l
ĠP acific
ĠD ef
Ġpro port
Ġdoc uments
ĠLear ning
ĠM iddle
ë¡ ¯
ìłľ ë¥¼
Ġperiod s
Ġsect or
7 6
l a
ì ¤
Ġk new
ĠíĺĦ ëĮĢ
Ġast ron
ìĿ´ ëĵľ
Ġëĭ¹ ìĭľ
d own
ìłĦ ìĹĲ
Ġimm un
ê²ł ëĭ¤
Ġstud ied
Ġìĸ¸ ìłľ
Ġì¦Ŀ ê°Ģ
Ġst em
Ġ201 9
ĠCath olic
ĠìĤ° ìĹħ
ëĮĢ íķľ
Ġdis app
Ġtop ics
ĠFound ation
n et
ĠSu pp
Ġag es
ì¶ ©
c is
Ġoffic ials
Ġhelp ful
Ġë¶Ħ ìŁģ
Ġth in
Ġaffect s
Ġgovern ments
Ġdou ble
ĠSt and
Ġexpl ained
re land
st ate
R e
ìĿ´ ê°Ģ
ec k
Ġì¹ľ êµ¬
C S
el lect
Ġha z
ìĬ¤ íĥĢ
Ġíķĺ ì§Ģ
ê±° ë¦¬
D o
ipp ed
Ġcl im
Ġappe ared
Ġn aturally
rast ructure
Ġconcent ration
ĠP ost
ĠN or
Ġtra in
ìĪĺ ë¥¼
ìĹĪ ëįĺ
om pl
ag ue
Ġrep resents
Ġìĸ¼ ë§Ī
ific ial
is p
ĠF lor
ĠChar les
act ive
ĠëĤĺ ëĿ¼
Ġre form
ëıĦ ìĿĺ
ĠM em
ate ver
Ġfac ilities
Ġport ion
it age
Ġë³´ ëĤ´
Ġsubst ant
c est
h i
ind ing
ìļĶ ê¸Ī
Ġdep ends
ing er
ĠW ild
Ġapp arent
ë¨¸ ëĭĪ
ĠìļĶê¸Ī ìĿ´
il ed
Ġval id
ìłĢ ëĬĶ
Ġs en
Ġaccur ate
íħĲ ì¸ł
ĠíĦ °
Ġ )
Ġcon vent
Ġmed ications
Ġgood s
Ġcont aining
Ġì£¼ ìļĶ
ĠT reat
ĠìĪĺìĺģ ìŀ¥
ĠH ot
Ġclose ly
Ġtest ed
Ġìļ°ë¦¬ ëĬĶ
Ġwall s
M ore
ê´Ģ ë¦¬
Ġmove ments
. ;
ê ´
Ġt ips
Ġr ural
Ġch ann
igen ous
Ġl ose
Ġdisc rim
Ġâ ĸ
Ġmor al
Ġcont em
ĠìķĦ ì§ģ
l ers
ra cy
ce ler
ĠEm p
âĢĻ .
Ġìĥ ī
Ġdisc overy
m as
it ness
Ġìħ Ģ
Ġdirect or
ĸ ìĹĲ
Ġre in
Ġsub sequ
Ġíĥ Ī
Ġfeel ings
Ġst ret
n y
Ġp ray
Ġíİ ĺìĿ´ì§Ģ
Ġk il
g al
ìĿ´ ìĹĲ
ê³ ¨
Ġinvest ment
Ġout comes
ĠìķĮ ê³ł
Ġcru cial
ĠëĤ ®
Ġê°ľ ìĦł
~ ~
Ġw estern
Ġra il
ĠìĿ´ìķ¼ ê¸°
Ġcrop s
Ġprote ins
Ġselect ed
ìĽĢ ìĿĦ
Ġìŀħ ëł¥
Ġcris is
ies t
al ian
ĠL ake
ë£ ¹
Ġvis ible
ĠHist or
ĠMicro soft
íķĺ ìĭł
Ġle aving
Ġëªħ ìĺĪ
Ġt ried
ĠG roup
íĶ ½
ìĦ¸ ê³Ħ
C ont
ant a
um in
Ġview s
Ġconcer ned
ĠN ature
ìĬ¤ íĦ°
Ġing red
c hers
n el
ĠW omen
Ġsuff ering
Ġpain t
Ġp aid
Ġch ief
Ġemploy ees
ëĨ ĵ
Ġrapid ly
I P
Ġwe ap
ìłķ íķľ
Ġdel iver
asc ular
al se
as p
ì ĵ
ĠìĿĮ ìķħ
ëĵ¤ ëıĦ
Ġ198 0
Ġleaders hip
N S
ìľ¼ ëĤĺ
íĴ į
Ġst ated
Ġal t
Ġele v
M y
ìĿ´ ëŀĢ
ĠP sych
ĠíĻ Ī
er ia
Ġgrow n
ib l
h ma
ìĦ± ìĹĲ
Ġmar ine
Ġê·¸ëŀĺ ìĦľ
Ġcur riculum
Ġj u
os ph
Ġê°Ģ ìł¸
Ġpart ies
ĠìĿ´ ëıĻ
r ating
os c
ĠSe a
Ġmy th
Ġcircum st
ath y
ìĿ´ ì§Ģ
ost er
An other
ĠCont rol
Ġsm art
G en
I nd
ìĭľ ë©´
ĠìłĦ ìŀ¬
. âĢĻ
ìĪĺ ê°Ģ
Ġhar vest
ĠëĮĢ íķĺìĹ¬
ĠìĤ¬ìļ© íķł
Ġfru its
Ġfund ing
C D
Ġadd ing
ĠìŀĲìĦ¸ íŀĪ
Ġdiscuss ed
d den
ìĬ¤ ë¡ľ
201 6
Ġo d
D uring
Ġëª¨ ëį¸
ĠA p
ĠìĿ´ ëĬĶ
% )
êµ¬ ìļĶ
Ġê³µ ê°ľ
ĠP ers
Ġìłķ ìĿĺ
Ġp ig
Ġmed ium
Ġsec ure
h ist
ëĬĶ ëĭ¤
ĠComp any
ĠInst ead
Ġdef ic
Ġëĭ µ
Ġê°ľ ëħĲ
Ġs ed
Ġd ream
ëĲĺ ë©°
Ġë§¤ ìĿ¼
ĠCar ol
Ġëĵ ¯
Ġdi am
ìĿ´ ìħĺ
Ġcorresp ond
Ġres idents
] .
ĠS uch
at tle
ĠìĹ¬ ê¸°
ĠCol umb
ic ks
ìĿ¸ ìĿĦ
Ġs ides
T e
o oth
re m
ĠI reland
Ġê°Ģ ìļ´ëį°
ĠRober t
Ġd ial
ìĤ¬ ìĿ´íĬ¸
íĤ ¹
ìŀ¥ ìĹĲìĦľ
ìĬ¤íĨł ëŀĳ
ob e
ĠëķĮë¬¸ ìĿ´ëĭ¤
Ġacc ompl
ĠìĤ¬ëŀĮ ëĵ¤ìĿ´
ĠíķĻ êµĲ
um ber
Ġfl oor
Ġëľ »
ĠP ower
Ġë°© ìĨ¡
Ġro ots
Ġjust ice
ul in
Ġ199 8
Ġë¶Ħ ìķ¼
ĠEng ine
p ass
ĠìŀĲ ê¸°
Ġcol ors
Ġfl ight
Ġb and
D r
Ġph one
Ġëª© ìłģ
Ġdom estic
ĠSm ith
Ġn arrow
ëĮĢ ë¥¼
ĠL and
ëį° ìĿ´íĬ¸
ĠUs ing
Ġacc omp
Ġarg ument
Ġcap able
Ġdist ingu
Ġopin ion
Ġê¸° ê°Ħ
ĠìĿ´ë£¨ ìĸ´
C T
Ġë ŀ
Ġêµ¬ ì¡°
Ġregular ly
ĠMan agement
Ġtou ch
D e
ĠM ake
g ment
ĠN av
ìļĶ ìĨĮ
Ġlat est
ĠHen ry
ĠL ike
angu age
Ġtalk ing
ĠVirgin ia
Ġê ¿Ī
ĠL ibrary
Ġsim pl
ĠAn other
Ġext ract
Ġíĺķ íĥľ
r ants
ĠCon stitution
Ġsu dden
ê·¸ ëŁ¬
Ġdecre ase
Ġë°© ìĭĿ
Ġbusiness es
Ġobt ained
Ġrec on
Ġcons cious
Ġpict ures
Ġë£ ¨
ĠEnvironment al
Ġrec overy
íļĮ ë¥¼
Ġì»¤ íĶ¼
Ġimp ossible
Ġë¬´ë£Į ë¡ľ
Ġprevent ion
ar io
Ġm useum
Ġset s
G o
as ive
Ġpo et
Ġëĸ ¨ìĸ´
Ġë¶Ģ ê³¼
Ġvill age
Ġfert il
Ġê ´
Ġê²ĥ ëıĦ
ten ance
ë¥´ ë©´
Ľ °
ocr atic
Ġm it
Ġinflamm ation
ĠT em
S c
l ong
Ġhor se
ìĽ ĢìĿ´
ĠìŀĲ ì²´
ëıĻ ìķĪ
Ġinter view
ë¥´ ê²Į
ĠìĿ´ ëĤ´
Ġexp ensive
sp ec
Ġsubst ance
Ġprec ise
Ġra ise
b i
Ġp il
ĠJ ud
ĠIS BN
Ġmill ions
r ust
in i
ĠPro v
ê°Ŀ ìĭ¤
Ġrecogn ize
Ġê ¶ģ
l iam
Ġg un
Ġless ons
st on
Ġrest rict
Ġb le
Ġë³´ ê¸°
pr ise
Ġprinc iple
Ġadv oc
Ġcomput ers
ëį ķ
Ġh unt
ìĹ Ħ
Ġform al
Ġtra d
Ġcard i
ad a
ĠìĭĿ ìĤ¬
le ments
Ġval uable
Ġhous es
Ġb ones
íĬ¸ ìĽĮíģ¬
ĠRe view
ĠìŀĪ ì§Ģë§Į
Ġp ump
íķ´ ì£¼
Ġdeath s
ĠStud ies
Ġla un
Į ĵ
in et
ol ve
ìłĦ íŀĪ
ĠìĦľ ë¡ľ
m ic
Ġp ure
íĭ ´
O ther
Ġinf ected
Ġrec ip
ê· Ģ
Ġê´ĳ ê³ł
n o
Ġp u
ìĦ± ê³¼
ì²´ íģ¬ìĿ¸
ĠF ederal
Ġpric es
ĠW il
Ġìĭł ì²Ń
Ġsat ell
b ing
Ġex change
ĠN ations
u ke
Ġm oon
ĠK en
Ġcall s
Ġproced ures
ĠT or
Ġëĥ ī
Ġì¹ĺ ë£Į
ĠB et
ĠB ul
Ġd ut
Ġdr iving
Ġintern et
Ġpar am
Ġintrodu ction
Ġinc l
ĠìĦ± ìŀ¥
us es
f all
Ġap art
Ġb rown
and a
ĠíļĮ ìĤ¬
Ġ18 9
Ġdescrib es
ĠìĿ Ħ
Ġnorm ally
ĠS um
uild ing
Ġreg ional
ĠA lex
Ġinter f
ëıĦ ë¡ľ
Ġun like
Ġcl osed
íĹ Į
ìĤ ¼
Ġf rag
st ruct
Ġë°Ŀíĺ Ķëĭ¤
k a
U s
I L
Ġch apter
ff ee
ol a
Ġë³´ ì¦Ŀ
cl ing
im er
ĠO x
S ee
ĠB re
ì§Ģ ë§ī
Ġsuff er
Ġorigin ally
ëĲ Ĳëĭ¤
ëı ¼
ĠëĬĲëĤ Į
7 9
í Ĥ¬
ĠEx pl
Ġwind ow
ìĽĲ ìĿĢ
Ġprot ocol
Ġì²ĺ ë¦¬
â ħ
Ġnet works
Ġm amm
Ġaccept ed
Ġs an
ex p
pp ing
ib ilities
ot a
Ġcor por
ĠComm it
Ġ197 0
ĠíĴ Ī
ĠP M
viron ments
oles ter
ab il
ct ic
ĠCanad ian
ĠL abor
ìłķ ë¶Ģ
ag ues
Ġê±° ìĿĺ
f ree
ber t
Ġins urance
ĠUS A
Ġì¼ ĢìĿ´
ar ia
Ġposs ibility
ëĵľ ìĭľ
Ġposs ibly
Ġmob ile
Ġpret ty
Ġantib iot
mb ly
Ġsurv ival
it a
ym ph
Ġer a
in ations
Ġto ler
ĠS af
Ġst ored
íĦ ¸
E P
ĠìĤ¬ ê±´
Ġlif est
Ġguid elines
r ors
ĠL eg
Ġíĺ¹ ìĿĢ
ì¦Ī ëĭĪìĬ¤
hem ical
Ġan cest
Ġt al
al ysis
ë¦¬ ì§Ģ
Ġabs olute
last name
S e
Ġunder stood
Ġsch olars
Ġr id
Ġto w
ic an
ëĿ¼ ìļ°
Ġmar riage
6 9
Ġfac ilit
ì» ¨
ĠM o
ëıĻ ë¬¼
Ġph r
Ġwarm ing
Ġagree ment
Ġst ages
Ġì§Ģ ìĨį
Ġcreat ive
Ġspe aking
Ġenh ance
Ġa w
it t
Ġopen ed
4 3
Ġform at
ot he
ìĥģ ìĿ´
Ġadop ted
liam ent
ĠI T
Ġìŀĳ ìĿĢ
Ġíĳľ ìĭľ
Ġagricult ure
íķĺëĬĶ ëį°
ĠT er
if ies
Ġland s
Ġint ake
ìĽĲ ìĹĲ
Ġcand id
ĠA tt
Ġapp rec
ĠSc ient
e er
ľ ĺ
Ġíķĺ ë©´
Ġprep are
D P
Ġdep os
Ġappear ance
at o
Ġprodu cing
Ġdig est
Ġpregn ancy
ìĸ´ ë¥¼
ot ed
am il
ĠíĬ¹ ì§ķ
Ġshe l
Ġsecond ary
ĠëłĪ ìĬ¤íĨłëŀĳ
Ġtro ops
Ġp ush
ce l
ad d
Ġslow ly
ê¹Į ìļĶ
Ġë¹Ħ ìļ©
Ġ ~
ë§ İ
Ġun less
Ġgener ate
Ġaccount s
ĠG et
Ġlat ter
íĶĦíĬ¸ ìĽ¨ìĸ´
ĠS k
Ġê³łê°Ŀ ìĦ¼íĦ°
ĠìĹĨ ìĿĮ
Ġì¶Ķ ì²ľ
olester ol
Ġinf rastructure
Ġìĺ µ
Ġper ce
ĠíĻ ©
Ġsupp lement
be ing
Ġsens itive
ig ation
ĠG ood
Ġëħ¸ ëıĻ
Ġcomprehens ive
Ġt ail
om ach
Ġwor s
ĠLou is
ĠB ro
Ġsu c
Ġinc hes
Ġtrans mission
Ġsold iers
ter ies
Ġim per
íĹ Ī
Ġentire ly
Ġcreat es
Ġmed ication
t age
ĠI d
Ġair craft
Ġlab el
es ity
ìľĦ ì¹ĺ
Ġt un
Ġtra ffic
Ġadminist ration
Ġd iversity
Ġshe ll
it an
Ġst ock
Ġintellig ence
ot o
Ġr ub
Ġdatab ase
Ġn arr
ĠComm on
ì§Ħ ëĭ¤
Ġact s
ĠD iv
Ġs ick
Ġch ain
Ġíİ ĺ
P C
on a
ĠìŀĲ ë¦¬
dition ally
Ġíģ¬ ê²Į
ĠìĹ Ķ
ĠëĨ Ģ
Ġlist ed
Ġrepe ated
Ġlandsc ape
O C
Ġint ellect
Ġf ell
ur d
Ġin ject
ind er
Ġì§Ģ ë°©
ĠìŀĪìĸ´ ìĦľ
st ream
ëĤ ¸
ĠK now
Ġtw ice
Ġê¼ Ń
Ġ3 2
Ġequ ival
w ar
Ġwe ar
ĠAn n
Ġer ror
in du
Ġachie ved
y e
Ġt iny
or ith
ëĶĶ ìĺ¤
Ġmass ive
Ġw ire
Ġfig ures
íı Ń
Ġext ensive
Ġstart s
Ġposs ess
Ġreve aled
ìĿ´ ìĸ´
ĠìĿ µ
Ġsur f
Ġworld wide
4 2
f low
ic on
ê ¾¸
in n
ĠëĿ¼ ìĿ´
ĠG old
6 8
E n
I M
Ġref uge
6 7
Ġre ject
Ġfram ework
ĠìłĢëł´ íķľ
ê¸° ìĪł
Ġwor se
ĠíĿ ¬
Ġdoct ors
ĠD an
Ġbehavi our
Ġg ather
ĠL ab
? "
Ã ¼
Ġed ge
ĠFlor ida
act s
Ġag encies
Ġveh icles
Ġìľ ¡
Ġswe et
Ġf ill
n ect
st s
or ter
os al
Ġpl ate
yp es
Ġì¡° ì§ģ
b ran
idd en
Ġrout ine
Ġs ell
ans ion
ro t
ĠK h
Ġexperim ents
ê³¼ ìĿĺ
ĠìĿ´ìļ© íķł
Ġst ick
Ġimpro ving
ĠT HE
Ġad equ
Ġnew sp
Ġstrugg le
ic ide
or row
ĠìĹħ ëį°ìĿ´íĬ¸
Ġinj uries
Ġ199 7
u a
Ġ18 5
e per
Ġin ner
O L
k ins
z en
Ġelect ronic
oc racy
ìķĦ ìĽĥ
Ġass istance
Ġdi verse
Ġsk y
Ġfail ed
Ġansw ers
Ġmount ain
Ġa f
ĠM a
ag ers
Ġman aged
ĠìĤ´ ìķĦ
iox ide
Ġmin im
Ġeng age
Ã ¶
Ġpre f
Ġsurv ive
Ġaud ience
Ġpl ays
ĠTh ose
ìłľ ê°Ģ
b urg
ab its
ĠìĨ Ķ
Ġì§Ģ ëĤĺ
Ġdec line
Ġinsect s
Ġa qu
ĠL ong
ì£ Ħ
ĠAustral ian
re ed
Ġpre m
Ġdist rict
or gan
Ġsu itable
Ġch art
ìĤ¬ ì§Ħ
ĠJose ph
ab ric
Ġbud get
Ġn urs
Ġcl oud
íĻĺ ê²½
Ġbat tery
u nder
en a
Ġsp orts
Ġrem ote
Ġë§Į ëĤĺ
Ġd ust
Ġen vironments
lud ing
Ġíķ´ ìķ¼
Ġâ Ĩ
I A
ĠH all
ĠSt reet
Ġsy ndrome
Ġcons id
ĠìĽ Į
Ġhapp y
Ġwild life
Ġê°Ģ ê¹Į
ëł ī
app ing
ĠGl obal
se y
ëħĦ ìĹĲ
Ġaff ord
Ġcalc ium
r ine
ĠH ome
Ġind eed
c a
l ook
Ġcar s
k i
ĠC amb
if orm
Ġgra v
Ġfound ation
ang ed
rib ed
ìĶ ©
ct ive
Ġìľ ¤
Ġun iverse
ĠOn ly
Ġw ants
Ġw ave
Ġê²½ ìŁģ
Ġf ixed
Ġste el
w ord
Ġìľł ëªħ
Ġpar alle
ëªħ ìĿ´
Ġconstit ution
ĠB rown
ĠF e
ĠìłĦ íĻĶ
ĠFran cis
Ġobt ain
Ġam b
n ormal
ë ¿Ĳ
ì§Ģ ìĹŃ
8 7
t ra
ìĿ¸ íĬ¸
Ġhealth care
201 4
Ġv ote
ere nt
Ġì ĩ¼
ĠP eter
Ġsh ips
Ġtru ly
N ot
Ġf illed
Ġsent ence
Ġcircumst ances
4 1
ĠR ome
ĠY et
Ġrem aining
T M
ëĿ¼ ìļ´
Ġtrans ition
Ġext ended
ĠìĹ¬ëŁ¬ ë¶Ħ
Ġth or
íķĺ ìĭŃìĭľìĺ¤
ê³Ħ ë¥¼
ìī ¬
ĠìĬ¤ ë§ĪíĬ¸
Ġdoub t
ar ant
ìŀ¥ ìĿĺ
Ġread ers
ì§Ģ ìĹĲ
Ġprodu ces
Ġë ķ
ìķ ķ
ĠIt aly
Ġsee ing
ĠIr ish
Ġs ight
Ġopen ing
ic ians
Ġbro ken
I G
i very
ħ ëĭĪëĭ¤
Ġd in
íİ ´
ĠAb out
Ġë¨¼ ìłĢ
Ġd ensity
Ġse lection
ìĬ¤ ê°Ģ
Ġexpress ed
ink ing
íĶĦ ë¡ľ
Ġëħ¸ ëł¥
b ut
ĠM ad
ĠìłĦ ëŀµ
R ead
ĠìķĦ ì£¼
ĠC amp
ĠO F
ĠG al
Ġorgan ized
ĠM ag
Ġëı Ī
Ġcho ices
ĠëĶ°ëĿ¼ ìĦľ
Ġl ibrary
iz er
b ody
Ġg all
ĠJ e
m m
it ative
ê·¸ ëŀĺ
Ġ7 5
Ġí ĮĢ
ĠAcad emy
Ġh us
Ġìłľê³µ ëĲ©ëĭĪëĭ¤
Ġê°ĢëĬ¥ íķ©ëĭĪëĭ¤
Ġtell s
ĠB ur
Ġag ency
Ġíĺ ģ
Ġdec ide
f rom
ìĬ¤ ëŁ¬
Ġìķ ¡
Ġë§Į ëĵł
Ġgener ated
ĠëĤĺ ìĻĢ
it ter
ĠC are
Ġac celer
rop ical
Ġgl uc
Ġë Ľ°
L A
le vel
Ġcour ses
ĠC ult
Ġdisc ipl
Ġíģ´ ë¦Ń
ìĹ ĺ
ĠI N
Ġìłķ íĻķ
ĠêµĲ ìĪĺ
w ing
Ġd aughter
ĠE xt
Ġyoung er
Ġdes ire
ĠSou thern
ĠS l
ĠSp ain
Ġharm ful
201 2
ê°Ĳ ìĿĦ
ëĨ į
in ction
Ġíķľ ë²Ī
Ġê¸ ´
ĠAn y
Ġauthor ities
cul es
b orn
ld er
Ġdec ade
Ġgreat ly
Ġopt im
he ast
Ġa th
ĠR ad
ì¹ Ń
Americ an
ĠA S
Ġab und
ĠProf essor
Ġfoss il
Ġc atch
or a
ĠV ict
Ġcirc uit
Ġ Â·
ĠP an
ĠìķĦ ë¦Ħ
Ġdom in
Ġimplement ation
ĠA P
ìķĦ ìļĶ
Ġmark ed
Ġfound ed
Ġê¸°ëĬ¥ ìĿĦ
um s
ĠP ub
Ġsh aring
ĠìħĢ íĶĦ
I R
Ġun known
Ġour selves
Ġì£¼ ìŀ¥
Ġconsist ent
ĠCan cer
Ġmechan ism
6 3
Ġs od
ĠB r
Ġmain tenance
ĠëĶ° ë¥¸
Ġmanufact uring
C an
is ters
Ġbe ar
ĠV is
Ġê¹ ¨
ĠRep ort
Ġìłľê³µ íķĺëĬĶ
Ġì²´ íģ¬ìĿ¸
Ġst omach
Ġsh ut
Ġloc ations
Ġen able
Ġfl ag
Ġë°ĺ ëĵľìĭľ
Ġìļ°ë¦¬ ê°Ģ
ĠìŀĪ ê²Į
Ġdo or
Ġp ull
ëĭ ·
Ġdifficult y
Ġg al
Ġun s
Ġê³µ ìļ©
Ġcrit ic
ĠS ol
ĠíĶĦ ëŀĳ
Ġlabor atory
Ġsub s
Ġìľł ëŁ½
Ġle af
ĠSt at
Ġë¹Ħ ë¡¯
ĠìĨĮ íĶĦíĬ¸ìĽ¨ìĸ´
m ary
Ġw ish
Ġchild hood
ì¼Ģ íĮħ
Ã ³
ê¸° ê´Ģ
Ġìļ´ ëıĻ
Ġìĸ´ ëĶĶ
Ġë¯¸ ëŀĺ
Ġz one
íĽ ¼ìĨĲ
g u
Ġen emy
Ġprofession als
ir ation
ĠTh rough
Ġsign als
Ġclos er
Ġjour ney
Ĭ ìĿĢ
Ġw aves
Ġìłķ ìĭł
ĠìĿ¸ íķ´
Ġê´Ģ ê´ĳ
ìĥĿ íĻľ
Ġstudy ing
ë°Ķ ìĿ¼
Ġindic ates
B l
ĠT ime
ìĤ° ìĹħ
ipp ing
iction ary
ĠPar is
ëªħ ìĿĦ
Ġd ioxide
ë³´ ëĬĶ
Ġelect ron
6 1
i h
og ue
Ġprinc ip
in ity
Ġf ly
Ġun p
ëĭ ĺìĿ´
Ġsupp lies
Ġstand ing
ĠSec urity
Ġder ived
ic ago
Ġte a
Ġatt end
ell ed
Ġì°¸ ê³ł
Ġd ental
ì§Ģ ìĿĺ
Ġm os
ëĭ¤ ìļ´
int s
Ġlim its
St ud
Ġdestroy ed
c alled
Ġsol ve
Ġfew er
h and
Ġa x
ut ch
Ġsc ript
ĠDes ign
ĠCommit tee
Ġdesc ription
ëĵ¤ ìĹĲ
Ġperman ent
Ġf asc
Ġun able
ëĭ Ŀ
ĠìľĦ íķĺìĹ¬
Ġbo ost
Ġpow ers
er als
ëª ¬
opy right
w o
ĠëªħìĺĪ íĽ¼ìĨĲ
S ince
Ġ19 60
ìłĦ ìĿĦ
ĠìĤ´ íİ´
Ġg one
ìł Ŀ
ĠìĻĦ ë²½
Ġne ck
Ġcult iv
Ġforest s
ĠEmp ire
as er
Ġì£¼ ìĨĮ
Ġcare fully
ĠN orthern
ì¶ ĺ
Ġinteract ion
ct or
Ġopp osite
Ġthous and
Ġsh ift
ëł µ
Ġphot ograph
ĠStud y
Ġinstit ution
a it
Ġê ±
Ġëĭ¤ìĿĮ ê³¼
Ġê¸° ìĸµ
ĠëĲĺ ê³ł
ant ly
Ġconc rete
Ġind ex
Ġ ..
ìĿ´ ë¥¼
Ġìĭ¤ íĸī
íĽ Ī
Ġsur ve
Ġread er
Ġbenef icial
Ġwalk ing
ĠC y
ĠC ap
Ġcl ust
Ġë§Į ì¡±
Ġalg orith
Ġl ots
ìĽ ł
Ġê¸° ë°ĺ
ĠìĿ´ ìĹĲ
Ġr hy
Ġconsum ers
Ġrepresent ed
g ent
ìĿ¸ ìĿĢ
Ġinter vention
Ġë¶ Ļ
Ġrespons es
Ġimmedi ate
ĠE th
Ġpurch ase
ĠV iet
Ġhand le
ph one
Ġsuccess fully
Ġrepl aced
Ġë¶Īë²ķ ìłģ
ĠI ll
Ġê·¸ ëħĢ
Ġcor n
Ġë¬¸ìłľ ê°Ģ
Ġcolle agues
Ġvessel s
Ġv s
c her
ìĸ´ ê°Ģ
Ġac ids
Ġfl av
' ,
ëĲ Ĳ
ific ations
Ġëĭ¤ ìļ´
Ġser ver
ĠìĹħ ë¬´
Ġst roke
Ġc os
ĠíķĺëĤĺ ìĿĺ
Ġëª© íĳľ
Ġarr ived
r d
ìĬ Ī
Ġê³µ ëıĻ
ë¨ ¹
Ġìĺģíĸ¥ ìĿĦ
Ġt aste
th rop
Ġsk ill
Ġknow s
Ġcult ures
ĠëĦ¤ íĬ¸ìĽĮíģ¬
ĠVal ley
ĠKore a
ĠM ill
ĠR ob
ĠPart y
Ġam az
ë©Ķ ìĿ¼
t hen
Ġch olesterol
cy cl
ĠII I
i ability
k es
Ġvari able
Ġro of
ê ¼
ìĤ¬ íķŃ
Ġcomp osition
Ġres erv
ut er
ĠC at
um es
Ġacc um
ìħ ľ
s ue
Ġ4 00
Ġstand s
ĠìłĦ ìĹĲ
Ġco ffee
Ġsupport s
Ġarchitect ure
le ts
Ġsh ot
ĠíĺĦ ìĭ¤
ĠAd minist
Â ®
ĠP enn
Ġn ine
Ø §
Ġtra um
Ġra w
Ġë°ľê²¬ ìĭľ
f ortunately
Ġmar ried
ë°°íı¬ ëĬĶ
Ġf alse
on ed
O M
z il
Ġemot ions
Ġë¶ĦìŁģ ìļĶìĨĮ
ìĿĺ ë¥¼
ë¡ľ ëĵľ
Ġlist en
íķĺ ëıĦë¡Ŀ
Ġcom ments
Ġp ra
t op
201 3
ì¹´ ëĵľ
et ime
ĠF ace
P e
f ish
Ġhous ing
Ġlifest yle
c omm
p an
Ġcustom ers
Ġsequ ence
Ġcry st
es ter
ap ed
Ġcol our
ste in
Ġê°Ļ ëĭ¤
Ġfight ing
Ġsuc ceed
oc y
Ġ6 5
Ġjo in
Ġâ ħ
ëŁ Ń
ëł¤ ê³ł
Ġun us
ĠíĮ Ķ
ìłĢ ê°Ģ
ĠCl in
p et
Ġch osen
ê°Ħ ìĿĺ
Ġcompar ison
Ġcar b
Ġsupport ing
Ġn ob
us iness
íĸĪ ê³ł
Ġearth qu
Ġsou l
Ġvulner able
Ġr ank
Ġpers ist
Ġnecess arily
ëł¸ ëĭ¤
ìķĦ ìĦľ
Ġmult i
ĠRich ard
Ġrequ est
L et
ĠDise ase
Ġterrit ory
Ġpr on
ĠëĲĺ ìĹĪ
Ġm ixed
ĠE nd
ìłķ ìĿ´
Ġíķĺ ë£¨
rit ing
ë§Į ìĽĲ
ash ion
Ġm ice
ct ure
Ġ15 0
ä ¸
ĠR oyal
Ġê°Ģ ì§Ħ
ĠìĿ¼ ìĿ´
ë² ¨
Ġiss ued
Ġemploy ment
Ġded icated
S S
ab ul
Ġìĭ¤ ìĭľê°Ħ
Ġturn s
L e
ìķĦ ìĿ´
Ġrem ark
Ġbig gest
ĠëĪĦ êµ¬
ĠBo ard
% ,
qu it
Ġì£¼ ë¬¸
Ġjo ined
Ġconvent ional
ĠA I
Ġë¬¸ ìĦľ
Ġmagn etic
Ġris ing
Ġult imately
Ġunder lying
ëĬĶëį° ìļĶ
u gh
Ġf iber
Ġdef e
Ġ199 5
Ġm ild
ìĿ¸ ëĭ¤
Ġhigh light
Ġê²½ìļ° ìĹĲëĬĶ
Ġìĺ¬ ëĿ¼
Ġbehavi ors
Ġocc asion
Ġsupp osed
ĠAd d
Ġë°° ìļ°
ëī´ ìĬ¤
ĠN atural
Ġen ds
ĠìĪĺ íĸī
Ġìļ ¸
Ġfund s
H D
st ruction
ĠB ank
ut s
8 4
st ract
ir ty
rodu ction
I nt
ĠW he
Ġì£¼ ë³Ģ
íı¬ ì¸ł
ë§İ ìĿĢ
Ġìĺµ ìħĺ
Ġê°ķ ì¡°
Ġk it
ĠìĿ¸ ìłķ
Ġb order
ĠìĽ Ģ
h ow
h op
U T
Ġres olution
Ġìĥ ¤
g ans
ĠD ig
rib e
ĠSc iences
Ġê³µ ìľł
Ġì¢ħ ë¥ĺ
or ous
Ġrel ax
Ġphilos ophy
Ġfeed ing
8 1
ploy ment
ĠRev olution
6 2
â ĺ
Ġ199 6
Ġeas tern
Ġadminist r
Ġh abits
ìĸ´ ëĤľ
Ġhor iz
z ed
Ġn erve
ĠIt alian
a ud
Ġpsych ological
Ġal le
Ġê·¸ ë¦¼
Ġbut ter
Ġpercent age
ë¶Ģ ë¥¼
Ġdraw ing
Ġreg ulations
Ġmole cules
íķĺ ìĿĺ
per or
Ġfirst name
edi atric
Ġcommun icate
Ġê³¼ íķĻ
Ġinstru ments
Ġus age
Ġcount y
ë°© ë²ķ
Ġpre val
Ġbl ocks
Ġac know
Ġw itness
Ġsh op
Ġcut ting
Ġwill ing
Ġatt ached
Ġgu arant
ë¦½ ìĸ´ëĵľ
ĠëĮĢ ë¹Ħ
Ġìĭľ ëĮĢ
Ġwhere as
Ġhyd rogen
Ġê³ł ëł¤
ë¦½ìĸ´ëĵľ ë°ĶìĿ´
Ġìķ ±
Ġë¯¼ ì£¼
u ps
Ġc ats
Ġbreat hing
ĠF amily
b our
Ġb ot
ic ious
Ġl ies
ĠW ood
Ġtransport ation
Ġequival ent
Ġ Ð
ĠëĤĺ ìĺ¤
Ġstr ing
Ġê°Ĳ ìĤ¬
Ġv oc
Ġrat io
Ġc art
Ġb rand
ì²´ ìĿĺ
Ġcapt ure
Ġreg ist
Ġfrequ ent
ìħ¨ ìĬµëĭĪëĭ¤
ìľ ¤
ìĿ¼ ì¹ĺ
Ġì¤ĳ ë³µ
Ġst able
ì¹ ł
Ġy ield
Ġcent re
Ġcr im
s uch
Ġì¢ Į
Ġelect ro
Ġê ¾¸
Ġexpl o
Ġê·¼ ì²ĺ
Ġm ac
Ġpro ve
Ġwrit er
on ia
ĠT imes
ign ed
Ġë³´ ìĦ¸ìļĶ
ĠEx per
ri ers
ìŀĲ ë¡ľ
ĠìĬ ¬
Ġex ists
ĠH oly
Ġt all
Ġhe m
Ġtra ined
Ġresult ed
Ġobserv ations
x ts
Ġsp ok
Ġman if
Ġê²° êµŃ
Ġreact ions
) |
al a
ĠM S
ìĨĮ ëħĦ
Ġeth nic
Ġíķĺ ìĹ¬
ell a
ĠO h
Ġmod e
Ġvol tage
Ġìķŀ ìľ¼ë¡ľ
Ġdeb ate
ĠKe ep
Ġì° ©
Ġgre w
st one
ĠF orm
Ġwh atever
Ġê·¸ ëłĩê²Į
Ġê²° ìłľ
Ġplay ers
Ġnear by
Ġmechan isms
ro vers
wh ile
Ġg ap
Ġsm oke
ĠP y
íĮĲ ë§¤
ir t
Ġì§Ģ ëıĦ
201 0
b ur
Ġdown load
ìº ł
h av
Ġê³Ħ ìķ½
r at
Ġa er
es is
Ġte en
Ġprom pt
Ġì§Ī ë¬¸
Ġê°ķ íĻĶ
Ġin hib
Ġe pid
ĠSt ep
ear chers
ê°Ļ ìĿĢ
Ġc ards
ut rition
Ġë°Ľ ê³ł
Ġdel ivery
Ġê³µ ê²©
ĠGe org
Ġf abric
Ġth y
Ġtr ials
ìĿ´ íģ¬
ĠD et
Ġele ction
ìĻĦ ëıĻë¬¼
ĠìķĦ ë²Ħ
Ġì¡° ìĤ¬
Ġconn ections
ĠW ik
ëĮĢ íķĻ
ìŀĦ ìĿĦ
Ġve ter
Ġeval uation
Ġcont ained
Ġparticip ate
ĠAg ricult
Ġkid ney
U N
Ġhe ro
Ġdist ur
ĠServ ices
8 3
Ġp ool
ĠF ree
Ġorgan isms
Ġneg ot
om er
ĠìłĦ ë§Ŀ
ĠInd ians
Ġtw enty
F irst
ìĿ´ ë²Ī
ìĬ¤ ì½Ķ
Ġdom ain
Ġhold s
e en
Ġpolit ics
7 1
Ġcomp ounds
et ics
Ġarr ange
Ġdemonstr ate
Ġexplan ation
ë ®¤
an o
ìĦł ìĿĦ
R ec
igh ter
ìłľ íĴĪ
Ġpre v
Ġp up
ult s
? ?
c ar
e ers
Ġpresent ation
Ġfunction al
Ġë¸Į ëŀľëĵľ
ĠMich ael
u h
Ġmat ters
Ġíľ´ ê°Ģ
ëª »
Ġìĥģ ëĭ¹
Ġinstruct ions
Ġst reet
oura ge
Ġë¹ Į
e enth
Ġì ¿ł
Ġí į¼
Ġíķ´ ìĻ¸
Ġë¹Ħ ì¦ĪëĭĪìĬ¤
7 3
Ġb read
ab led
ĠG ard
Ġë§Ī ì§Ģë§ī
ìĦ¼íĦ° ë¥¼
ĠI ran
Ġìķ ķ
ĠìłĢ ìŀ¥
Ġdemonstr ated
r ite
Ġb io
Ġn one
et her
F igure
Ġfor th
Ġch rom
Ġhyp othes
is dom
Ġm and
ì§Ģ ëĤľ
ĠD en
ĠCh icago
Ġconf idence
Ġa head
is k
Ġê°Ģ ìŀħ
Ġart ificial
ãħł ãħł
ĠìłĦ íĨµ
ìļ´ ëıĻ
Ġast hma
Ġdiscrim ination
ìŀ Īëĭ¤
ìĭ ±
ĠE ss
ĠìĿĺ ê²¬
Ġmach ines
ê¸° ê°Ħ
ĠìķĦ ëĭĪëĭ¤
Ġreg ul
ìłģ ìĿ´
Ġevery day
Ġcont amin
ìŀ¥ ìĹĲ
dition al
ĠëŁ ¬
Ġimprove ment
C P
re y
ir ds
Ġë¶Ģ ëª¨
ĠìĤ¬ìļ© íķĺëĬĶ
ĠCl imate
ĠCarol ina
ì² Ļ
7 2
¢ °
ĠH aw
Ġfeed back
ain e
ast y
Ġpart ner
Ġh olid
Ġre ven
ĠëĬ Ķ
ë§Į ìĿĺ
Ġleg s
ë³µ ì§Ģ
er ior
Ġre cept
ìĹ¬ íĸī
Ġh un
Ġc row
hes is
Ġìłľ ìĭľ
Ġno ise
g s
Ġb ridge
ĠëĤ´ ëł¤
ars h
Ġwas n
Ġr ice
ĠN ative
Ġrel ation
ĠCol or
Ġrecogn ition
ĠíĪ¬ ìŀĲ
Ġë´ ī
ur rent
Ġgluc ose
Ġor ient
Ġest imate
Ġemploy ed
Ġdiagn osed
ìľ¼ë¡ľ ìĦľ
ors es
Ġdef ine
Ġsp aces
ìłķ ì±ħ
M ed
Ġë¬¸ìłľ ë¥¼
ite ly
Ġrun s
Ġexam ine
. [
Q u
ĠNet work
5 9
C E
it ivity
íĺ ¹
Ġear n
Ġparalle l
Ġmem bran
ent ed
ìĿ¼ ìĿĦ
ĠìĬ¤ íĮĮ
in ating
it amin
Ġlay ers
ìĦ ¼
Ġsh ad
ĠO cean
ìĺ¤ ë¥ĺ
Ġmicro b
f l
Ġob esity
ê·¸ ë¦¬ê³ł
ĠFran k
ê³ł ê°Ŀ
ì¦ Į
on al
íķ´ ë³´
ãĢ į
ure au
Ġro w
ëĵł ì§Ģ
Ġìĺ¬ íķ´
Ġestim ates
Ġent ry
ë ¢°
ult y
Ġun iversity
te en
Ġc up
Ġne ur
Ġacc ident
sc ale
Ġf u
Ġgener ations
Ġinteract ions
Ġa ward
it tle
Ġaccess ible
Ġsac r
id ity
Ġon going
Ġz ero
Ġbelief s
ê³ ¤
ĠM er
esp read
Ġcon clusion
Ġìķ¼ ìĻ¸
201 1
Ġdel ay
Ġvol can
Ġcr ime
ì ĩ
ĠS ing
Ġt rip
Ġf ract
ĠI D
ëª °
Ġì° į
êµ¬ ë¥¼
ĠíĿ Ķ
Ġfl o
Ġins ulin
Ġpregn ant
Ġsm oking
c ons
he red
ter ing
ish ment
Ġindepend ence
Ġend ed
Ġcommit ted
as ters
ĠEar ly
Ġì¶© ë¶Ħ
Ġintellect ual
Ġs ections
Ġb ond
ìłĲ ìĿ´
Ġpos itions
Ġmaint aining
Ġag reed
Ġcrim inal
Ġlegis lation
Ġsc an
7 4
ĩ Į
Ġparticip ation
Ġman ip
ìĻ Ķëĭ¤
Ġmed ic
we ight
R A
ìĿ¸ íĦ°ëĦ·
ever al
Ġë¶Ī ìĿ¼ì¹ĺ
L ear
Ġ ;
ĠA st
us ing
Ġexerc ises
Ġbr ings
Ġcompet ition
g ov
ìĺ ¥
Ġso le
Ġë¬´ ìĦł
rain ing
or ph
ak ed
êµ° ìļĶ
ĠA M
Ġfe ver
ins on
ĠGu ide
O f
Ġfor get
rit is
Ġdeb t
Ġmet ers
ë¹ ł
ĠíĶĮ ëłĪìĿ´
ill a
ĠD iff
ĠR om
ia h
ĠZ eal
Ġbur ning
Ġis lands
ĠSc ott
Ġpass age
az ine
Ġdoll ars
Ġ ille
Ġëĵ £
Ġë¹ ¨
Ġdang er
Ġìŀ Ķ
Ġne ither
ĠAtl antic
oc ation
Ġp ed
Ġvict ims
ìľĦìĽĲ íļĮ
Ġíĭ °
V ID
ë§Į íģ¼
ĠB ig
ĠE qu
Ġobject ive
ìľ¼ë¡ľ ëĬĶ
ĠìĽĢ ì§ģ
ĠA ccess
Ġê²½ ìĺģ
Ġexp ansion
Ġindust ries
Ġhold ing
Ġëıħ ìĿ¼
Y our
l ines
Ġt ons
Ġinvol ving
Ġdra wn
ear ing
Ġê°ģ ì¢ħ
Ġf old
Ġg ram
if ts
ĠP op
Ġ3 6
Ġê³µ íķŃ
ĠCo ast
Ġgreen house
ĠKing dom
Ġmoist ure
ĠS et
ìļ° ë¦¬
Ġent ered
Ġprogram ming
Ġoper ate
ĠE astern
r ial
Ġp apers
Ġm ood
ĠA ge
Ġr ing
Ġr ivers
Ġë³´ ìŀ¥
ë¬¼ ìĿ´
Ġshe et
Ġphot o
ĠC ast
el ess
du le
Ġm old
ê°ľ ë°ľ
Ġreal ize
Ġb low
Ġch ick
all s
Ġtiss ues
Ġcoast al
Ġlov ed
ĠFace book
Ġte xts
Ġob lig
Ġë²Ī ì§¸
Ġdecl ared
um ps
Ġr u
Ġìĭ ¸
ĠìłĦ ìŁģ
ìĪĺ ìĿĺ
Ġcam era
r ary
8 2
G B
y les
Ġar rest
Ġë§Į íģ¼
Ġdo i
Ġthan ks
he imer
Ġm ent
pl ant
ëŀ «
Ġb iod
itud es
Ġc m
Ġsc ene
Ġrel ief
ĠAs ian
Ġmat ch
Ġsome what
Ġhistor ic
ht ml
re ated
Ġdep art
Ġìļ°ë¦¬ ìĿĺ
s he
Ġê·¸ ëĮĢë¡ľ
ĠìķĬ ìķĺëĭ¤
ĠíĿ Ĳ
Ġinteg rated
Ġc oc
íķĺ ëĤĺ
íķľëĭ¤ ëĬĶ
Ġmiss ing
ĠMart in
Ġlaun ched
ìļĶ ìĿ¼
ĠV en
Ġlegis l
Ġwor ry
Ġdest ruction
C H
S u
a o
Ġë°Ľ ìĿĢ
ì½ ľ
cycl op
ë¦½ìĸ´ëĵľë°ĶìĿ´ ìłĢëĬĶ
ĠìĨ ¡
ĠíĨµ íķ©
Ġëĵ± ìŀ¥
Ġcal ories
ĠìķĬëĬĶ ëĭ¤
oc ial
Ġë§ º
Ġappro ved
ĠíĽĦ ë³´
Ġdam aged
Ġsubst ances
Ġpro hib
ĠU r
ĠíĶĦë¡ľ ìłĿ
Ġconstruct ed
D on
Ġsm ooth
f it
Ġs ail
Ġsw im
Ġsett ings
O ver
ĠM D
ĠìĪĺ ì§ĳ
Ġassoci ation
Ġchalleng ing
op les
ĠìĦ¤ëªħ ê³¼
ĠZeal and
Ġpain ting
Ġê°ģ ê°ģ
Ġmere ly
Ġê² ¬
ĠVict or
C A
O nce
ir atory
íģ¬ ìķĦìĽĥ
t ic
Ġbe ings
Ġdesign s
Ġ199 4
erson al
ĠH y
ìŀĲ ëĵ¤ìĿĺ
Ġco vers
ĠíļĮ ìĿĺ
Ġm aps
Ġphys ics
Ġê¸Īì§Ģ ëĲĺìĸ´
ĠC P
ĠB ab
ĠìĦ ¬
Ġê°Ģ ì¹ĺ
ìĪĺ íķľ
Ġmark ets
ĠíĶ¼ íķ´
Ġpan el
ĠS ar
ìłķ ìĿĺ
Ġcirc le
Ġrout e
Ġmole cular
he nt
Ġme al
Ġìŀħ ëĭĪëĭ¤
ĠBra zil
ĠA cc
ê°ľ ìĽĶ
Ġf ro
Ġrece iving
ĠíĮĲ ëĭ¨
Ġëħ ¹
Ġingred ients
ĠColumb ia
ĠH ave
ĠëıĻ ë°ĺ
er b
Ġrel iable
Ġë°© íĸ¥
os ion
Ġcol umn
E ven
ort ion
Ġrep air
ĠL anguage
ĠìĤ Ń
Ġê·¸ ë¦¬ìĬ¤
íķ¨ ìĿĦ
ëįĶ ëĿ¼ëıĦ
Ġcateg ory
Ġor gans
ĠF ort
ree k
Ġíı Ĳ
Ġpublic ation
Ġmov es
Ġìłĳ ê·¼
Ġb oy
Ġë³´ ëĬĶ
Ġbreat h
Ġcon ven
Ġìļ°ë¦¬ ëĤĺëĿ¼
Ġs ought
Ġunder t
Ġput ting
Ġconsum er
ĠÂ ©
ëĤ¬ ëĭ¤
Ġtrou ble
op ic
Ġdis aster
Ġout bre
º ¼
Ġê³µ ê¸ī
Ġbo ys
Ġìŀ¥ìķł ìĿ¸
s is
ìĭľ ì¼ľ
ĠOp en
Ġstat istics
ëĦĪ ì§Ģ
Ġtur ning
Ġph osph
Ġwid espread
ĠAng el
Ġp air
ĠT ake
Ġass ume
Ġdef ense
ë¡Ń ê²Į
ĠìŀĪ ê¸°
Ġê°ĸ ê³ł
ĠP ract
Ġì¦Ĳ ê¸¸
m aking
í ĩ´
ĠE c
ìĬ¤ ëŁ½
ĠíĬ¹ ìłķ
Ġconstant ly
force ment
Ġro cks
Ġstrong ly
lies t
Ġvirt ual
an i
Ġsp ending
B M
g ers
Ġë§ ¡
Ġplan e
r in
ĠìĤ¬ ê³ł
ĠSec ret
T A
ĠW ord
ë¦¬ ë¯¸
G E
Ġd ent
oh yd
ĠSc ot
Ġindic ated
Ġwa it
ne e
Ġvirus es
ìĭľ ê³ł
ir us
Ġì§Ģ ìłķ
Ġ3 3
Ġfour th
Ġë¶Ģ ì¡±
Ġë© Ģ
ë¦ ¿
Ġëĵ± ìĹĲ
ì¶ °
ĠìŀĲìĦ¸íŀĪ ë³´ê¸°
ĠC reat
Ġì¶ľ ìĭľ
l i
ê°Ģ ë¥¼
Ġìĸ¸ ë¡ł
Ġnerv ous
ëł¤ ë©´
Ġhus band
ìĸ´ ìķ¼
ĠK ar
Ġì§Ģ ìłģ
Ġevalu ate
ĠDist rict
Ġdist ributed
ĠíĻķ ëĮĢ
ĠìŀĲëıĻ ì°¨
Ġcomp osed
íĶ Ī
Ġbeaut y
Ġcateg ories
Ġì¶Ķ ì§Ħ
ĠDirect or
Ġt ub
Ġn est
ìĿ´ ìĹĪ
Ġhon or
m es
ìĬ ·
ĠM en
Ġíķĺ ë©°
Ġfram e
Ġguid ance
N ote
Ġ id
in ally
ìĿ´ ìĬ¤
Ġthe ories
ir al
Ġarch ae
âĸ ²
Ġëª¨ìĬµ ìĿĦ
Ġìĥģ ëĮĢ
Ġinst alled
Ġcontrol s
Ġnit rogen
Ġask ing
Ġê·¸ëŁ° ëį°
Ġt ut
ac her
E very
o ir
Ġcomp ens
Ġ5 5
ëħĦ ëĮĢ
ĠìĿ¼ ìĿĦ
Ġcent ers
Ġdep artment
Ġìŀ¬ ë¯¸
Ġmeasure ments
ìĸ´ ëıĦ
Ġìłľ ê°Ģ
Ġconvers ation
Ġesc ape
Ġê³łê°ĿìĦ¼íĦ° ìĿĺ
ĠW here
Ġsignific ance
ĠChrist mas
ëĭ· ì»´
ĠìĿ¸ íĦ°
Ġìĭłê³ł ìĦ¼íĦ°ë¥¼
ĠP rop
ĠíĮĮìĿ¼ ìĺ¤ë¥ĺ
Ġìĭ¤ìłľ ëĤ´ìļ©
Ġì¤ĳë³µ ìŀĲë£Į
t rip
ĠC E
us al
Ġcont rovers
Ġ ?
row ing
Ġr ig
Ġê·¸ ëĥ¥
Ġdef end
201 5
ĠH am
ĠE U
Ġint ense
Ġëª¨ ë¥´
Ġf urn
ĠP et
ê°Ģ ê²©
ĠëĶ° ë¥´ë©´
ĠMus lim
Ġjud ge
Ġst rict
ĠN az
Ġë§ ¥
ìłľ ë¡ľ
ê¸Ī ìĿĦ
ì¢ Į
Ġad vert
Ġclaim ed
Ġbab ies
ig an
am ine
ĠSt ar
Ġwrit ers
Ġt ank
Ġhe ating
v a
Ġê² ¨
al m
Ġh ole
ĠS il
ìłķ ìĹĲ
ëĵľ ë¡ľ
ĠìĿ´ìĥģ ìĿĺ
ĠE ffect
Ġre ly
Ġ19 50
Ġph arm
Ġbring ing
Ġm ales
ĠP o
ĠTh ough
Ġíķ´ ìĦľ
Ġproport ion
Ġtra ct
Ġt ight
Ġc ash
ed u
Ġweap ons
ĠH ill
ãĢ ĭ
Ġê·ľ ëª¨
y al
Ġfac ility
ìĵ °
he alth
ìĿ´ ê¸°
Ġcarry ing
ĠOx ford
Ġt el
Ġmin ute
Ġrare ly
ĠP olic
ĠY ear
ol n
Ġit em
ĠL ist
Ġì§Ģ ì§Ģ
A m
Ġl ake
her ic
ê° ĳ
Ġfem ales
Ġful f
Ġp ounds
op eration
ì§Ģ ìļĶ
ĠëĤ´ìļ© ìĿĦ
Ġy e
Ġpl us
Ġter ror
Ġphenomen on
ëĮĢ íķĻêµĲ
Ġm m
os h
Ġìĭľ ë¯¼
Ġê¹ Į
A pp
ĠìĿ¸ ìĭĿ
Ġserv ing
ë²¤ íĬ¸
ĠëıĻ ìĭľìĹĲ
Ġfavor ite
v ard
ĠS at
Ġcomp are
Ġìĭ¤ ìĭľ
ë£Į ë¥¼
ask a
Ġsee king
ì½ ĺ
Ġa ims
ìĦ± ìĿĺ
Ġcre w
Ġëĭ¨ ìĪľ
Ġmaint ained
he rent
Ġout come
Ġê°Ļ ìĬµëĭĪëĭ¤
Ġsurf aces
Ġem pt
Ġsecond s
ĠCent re
% .
ìłĦ ìŀĲ
Ġë°Ķ ëĿ¼
Ġattempt s
ĠìŀĲë£Į ë¥¼
Is land
Ġinc red
Ġpo em
ëıĦ ëĬĶ
ãĢ ı
ì ¿
ip edia
Ġ199 3
ĠA gency
ĠìĪĺ ìłķ
Ġoffic ers
Ġrecommend ations
M A
ĠM oon
Ġcomp ris
ìĥģ ìĹĲ
Ġmin erals
Ġeng aged
200 9
Ġcontem porary
Ġsl a
Ġseem ed
ixt ure
. (
Ġbre eding
Ġann ounced
Ġë¶Ģê³¼ ëĲł
ĠT ype
Ġab and
ord ers
Ġs ke
ĠB ill
ĠìĤ¬ìļ© ìŀĲ
inc luding
Ġdepend ent
Ġprepar ation
Ġsh ock
Ġëĵ¤ìĸ´ ê°Ģ
Ġê²½ ê¸°
Ġd ates
ost on
Ġsign ed
Ġadequ ate
ot es
Ġì£¼ ëĬĶ
íĮĮ íĬ¸
Ġthe ore
ê°Ģ ê°Ģ
Ġbl ind
Ġpo ison
Ġthem e
Ġ199 2
ĠìĦ Ŀ
ëĿ¼ ìĬ¤
Ġv ac
Ġë³´ ìķĪ
Ġmess ages
Ġinterpret ation
! âĢĿ
Ġb ath
Ġredu ces
ëĭĺê»ĺ ìĦľ
Ġw ound
Ġl ymph
Ġro les
it arian
ĠD isc
abul ary
o om
Ġtrans lation
ĠS ym
ê°Ģ ìĿĺ
íĻ į
Ġsla very
Ġb anks
ĠS ometimes
ive red
ĠL ib
Ġer rors
Ġplan ned
ĠF ather
ĠCh ange
ĠìłĦ ìļ©
Ġpass ing
ĠBe fore
ĠP lease
Ġde eper
Ġìłķ ë¦¬
ĠìĿ´ë¯¸ ì§Ģ
ĠJ ac
Ġëª¨ ë°ĶìĿ¼
Ġmay be
Ġê° ĳ
Ġj ump
b ar
p d
Ġ å
Ġì¡° ìĦł
ĠìĪ Ļ
Ġrenew able
k r
Ġst re
ĠD ar
ìķĺ ìĬµëĭĪëĭ¤
Ģë¡ľ ë²Į
ĠìĹŃíķł ìĿĦ
Ġsatell ite
Ġíİ ¼
Ġìµľ ì´Ī
air y
ĠìĺĪìķ½ ìĿĦ
C omp
i ological
Ġres ident
Ġì¡° ê±´
Ġë¶Ħ ìľĦ
ĠSpec ial
z heimer
ĠP en
ĠW all
Ġdis char
Ġdes ired
ollow ing
Ġr oughly
Ġê³µ ìĭĿ
Ġequ ally
Ġìłģ ê·¹
Ġê¸Ī ìľµ
Ġcompl icated
Ġvisit ors
Ġin her
Ġë° ¤
ĠìłĦ ëĭ¬
Ġche st
ad der
Ġoff ering
Ġcomb at
Ġdiv ision
' m
us hed
Ġêµ¬ ìŀħ
ĠS up
Ġfor g
op es
ĠF und
== ==
Ġphysic ian
Ġsubsequ ent
Ġin n
Ġshar p
I F
ĠëĤĺ ìĺ¨
Ġcare ful
Ġfac ing
Ġf er
th ritis
Ġrad ical
O r
Ġh ur
ĠìĻ Ķ
ĠìĺĪ ìĥģ
an es
Ġeffect iveness
Ġëħ Ħ
Ġteam s
ĠíĬ¸ ë¦½ìĸ´ëĵľë°ĶìĿ´ìłĢëĬĶ
Ġcollabor ation
ĠëŃ Ĳ
u its
ĠC re
ê²Į ìŀĦ
Ġla unch
ĠOrgan ization
ay a
od ing
ere n
ĠíķŃê³µ ê¶ĮìĿĦ
Ġìĸ¼ êµ´
B ecause
Ġwith d
Ġimpl ications
Ġelect ed
ĠìłķëıĦ ë¡ľ
t les
Ġ ^
Ġpro of
Ġknow ing
ĠíĻĶ ë©´
or ic
Ġëģ Į
Ġfair ly
ìĦľ ìļ¸
ĠL ar
ID S
c hen
Ġdo se
Ġexam ination
ê´Ģ ê³Ħ
Ġopp osed
Ġrespect ively
Ġconfirm ed
5 3
Ġf ashion
Ġê´Ģê³Ħ ë¥¼
ro oms
Ġìĺ¤ ëŀĺ
Ġmechan ical
Ġìµľê³ł ìĿĺ
T oday
ëĮĢ íĳľ
Ġtown s
Ġtrad itions
ìŀĲ ëıĻ
ual ity
Ġed ition
Ġ3 7
Ġdec or
Ġì¦Ĳ ê¸°
omm od
ĠP ot
ĠHe b
Ġë¹Ħ ìĬ·
Ġart ists
hy d
Ġthreat s
ĠAdminist ration
ol esc
ud e
Ġvari ables
Ġìī ¬
Ġ1 20
ĠìĿ´ ìłĦ
ìĭľ ìŀ¥
Ġneighbor hood
Ġh orses
Ġover w
Ġsc ore
Ġê±° ëŀĺ
Ġtarget s
Ġencoura ged
rou s
Ġbi ology
Ġgradu ally
ĠChe ck
Ġinform ed
ĠìľĦíķ´ ìĦľ
Ġimplement ed
Ġr an
Ġê³¼ ê±°
Ġremov al
Ġpro ceed
Ġcl othing
Ġinf ect
íļĮ ê°Ģ
Ġcapt ured
Ġassign ed
Ġìµľ ìłĢê°Ģ
Ġë²Ī ìĹŃ
Ġmeasure ment
Ġsatis f
m ers
m edi
Ã ¤
Ġm eth
ĠRes ources
Ġmetab ol
p rodu
íļĮ ìĤ¬
Ġde aling
og ether
ĠìĬ¤ íİĺ
ĠëıĦ ìĽĢìĿ´
Ġconsider able
Ġë¸Ķ ë¡ľê·¸
Ġpl enty
Ġcomp ound
Ġf ix
Ġl ie
Ġstruct ural
Ġphot os
Ġimag ine
og s
ap se
es ides
ĠIn s
ĠAd v
Ġshap es
Ġdef ect
íĨµ ìĭł
ĠA ND
ĠM el
arent s
c m
ĠìĿ´ ê³³
Ġdi ag
Ġag ents
Ġprov ed
Ġê°Ħ ëĭ¨
g reg
out s
ĠìĻ¸ êµŃ
ĠMore over
Ġc av
ĠM ethod
ĠD espite
Ġmin ing
Ġíĸī ë³µ
im a
ĠL ead
ìĪ Ļë°ķ
ĠìĺĪ ìĪł
ì¤ĳ ìĹĲ
ĠYou ng
Ġstrong er
it ual
Ġìłľê³µ íķĺê³ł
ro at
Ġprincip al
s m
Ġë°° ê²½
Ġir rit
en ess
Ġsp ort
ëŀ Ļ
Ġinflu enced
oc c
ĠG rand
ĠF ire
Ġdem ands
Ġprevent ing
Q L
l van
am ins
ĠíĨµ íķľ
Ġstate ments
ĠInd ust
Ġess entially
Ġmount ains
e ut
ĠT re
ĠE p
Ġtele vision
Ġunus ual
Ġê°Ĳ ëıħ
ĠíķŃ ìĥģ
ĠS S
Ġfin ished
Ġla id
Ġev il
Ġre ward
am ing
ĠëĮĢ ìĭł
vent ions
Ġfall s
Ġmathemat ics
Ġtem ple
ãħİ ãħİ
ad ing
Ġwar ning
Ġinterp re
Ġath let
H A
Ġsp in
Ġac ute
ì ©
og rap
Ġë¹ Ľ
ëĺĲ íķľ
Ġn ose
ĠHot el
Ġmos quit
Ġpe ak
Ġisol ated
ĠN on
ëŁ ´
Ġëĵľ ë¦½ëĭĪëĭ¤
ĠN ov
Ġexperim ental
Ġep is
ra ys
Ġadvant ages
Ġconsid ering
ĠAm ong
Ġì§ĳ ì¤ĳ
m od
v in
ì§ Ŀ
ê¸° ìĤ¬
Ġrem ind
ĺìĿ´ ìĬ¤
pr int
ĠìŀĲìĦ¸ íķľ
Ġg ained
ad y
Ġìľł ìķĦ
Ġmin eral
inc oln
ĠWh o
Ġdel ivered
Ġexcess ive
O P
Ġf ed
ĠìĿ´ ë¡ł
Ġbran ches
d ef
í ĳ¸
ol i
Ġar ts
Ġconf erence
Ġobs erve
Ġëĵľ ëĿ¼ìĿ´
Ġstim ul
ĠíĻĪ íİĺìĿ´ì§Ģ
ĠJe ff
o ids
ist ical
ov en
Ġbe es
ìľ¼ë¡ľ ë¶ĢíĦ°
Ġvar ieties
Ġex clus
ìĿĢ íĸī
Ġconcer ning
ì° ®
Ġprov en
ĠAl zheimer
ĠìĺĪ ìĪĺ
ìľ¼ ëĭĪ
Ġown er
Ġcor ner
Ġëĭ´ ëĭ¹
Ġhe aling
iv a
ĠìĤ¬ ë¡Ģ
Ġì¤ĳ ìķĻ
G et
ì§Ģ ì§Ģ
est ion
ĠSt r
ìĨĮ ë¥¼
Ġmar ks
Ġscreen ing
ict ed
ì§Ģ ìĽĲ
Ġíķł ìĿ¸
ĠëĤ´ìļ© ìĿĢ
Ġkil omet
¬ ìĺģ
Ġs ession
ou red
Ġ3 9
EN T
Ġt ube
Ġíĸī ëıĻ
b ra
ìĿ´ ì§Ģë§Į
ìĸ´ ë¡ľ
Ġab normal
Ġint ent
Ġins ert
Ã ¢
Ġcon j
Ġexam ined
Ġvar iation
Ġflow s
Ġst ores
ĠI V
ĠJ o
ĠFor ce
ëłĪ ìĬ¤
Ġë°° ìĨ¡
Ġìĸ¼ë§Ī ëĤĺ
Ġrhy th
ro x
ol ving
et ary
ĠL ight
ë§ ¨
ëĤ´ ëĬĶ
oun ter
iox id
ĠìĬ¤ íĬ¸
the less
Ġê±° ë¦¬ìĹĲ
Ġord ered
Ġaccur acy
ĠFore st
C omm
ric ts
Ġreg ulation
ì½ ©
E ar
Ġtrig ger
Ġunivers al
S he
ì²´ ë¥¼
íķĻ ê³¼
a ired
ri end
ru ption
Ġconf ig
sy lvan
Ġíĸī ìĤ¬
Ġsc ar
Ġflow er
Ġro se
Ġhaz ard
íı Ĳ
E F
Ġì¤ĳ ìĹĲìĦľ
cl ass
Ġplan ets
Ġinnov ation
Ġus ual
act ion
erm an
ou l
Ġd rain
Ġnew ly
ëĭ ¥
og a
ĠM ah
ìŀĲ ëĵ¤ìĿĢ
Ġag ed
Ġë¶Ģ ëĭ´
lish ing
Ġcop per
ëĭĪ ìķĦ
Ġpres ents
ĠChrist ians
ess ions
ĠF our
Ġìĺ¤ ëĬĶ
ĠëĬĲ ëģ¼
ĠSw ed
Ġcl ar
Ġfl our
Ġmod ified
ê´ ´
Ġ `
Ġhapp ening
Ġbig ger
ou nce
íķĺ ìŀĲ
f ts
ian a
ĠS und
Ġor bit
Ġ3 4
Ġrec over
Ġíĺ¸íħĶ ìĿĦ
ot al
Ġst uff
Ġgu ard
ĠCommun ity
ĠE r
pt ions
íķľëĭ¤ ê³ł
Ġfarm ing
Ġaccomp an
ĠD utch
Ġgal ax
E d
ans as
Ġtrans p
ĠëıĦ êµ¬
P er
ag raph
Ġdet ection
Ġ9 5
Ġwind ows
Ġìĭł ë¬¸
Ġcrit eria
Ġinvestig ation
Ġcook ing
C ar
ĠE st
Ġint est
íĸĪëĭ¤ ê³ł
Ġìłľ ëĮĢë¡ľ
Ġanal ys
ort ed
Ġë§ Ŀ
Ġìĸ ĺ
Ġsil ver
in er
Ġíĥ Ĳ
Ġsun light
Ġg ut
Ġë°Ķ ëŀĮ
Ġìĺ¤ íĽĦ
ĠV er
ĠìŀĲ ì£¼
Ġmort ality
Ġal ph
Ġsuff ered
ad ed
200 8
Ġì§ģ ìĽĲ
Ġìĭľê°Ħ ìĿĦ
ĠM ult
Ġê¸° ê´Ģ
ë¬´ ë£Į
Ġpar as
ê°Ģ ìļĶ
ĠD ou
ë³´ ëĭ¤ëĬĶ
ov ascular
Ġê²½ìļ° ìĹĲ
Ġang le
ĠLear n
Ġsit ting
Ġc aught
Ġfac ed
ĠRo ad
Ġre ct
ĠA L
ìĦ± ìĿĢ
ĠìŀĪìľ¼ ë¯Ģë¡ľ
ĠW orks
Ġdr iven
Ġsw itch
ĠO S
ĠPl ay
Ġscient ist
5 6
Ġp y
ot ton
ĠìķĦ ìĭľìķĦ
A B
Ġsu p
ĠD C
ëĶ °
ĠFin ally
T P
ĠTh ree
elf are
es h
le te
ìĭ ¸
ĠPr inc
Ġamaz ing
ĠëĤ´ ë¶Ģ
j ust
ak a
Ġì£¼ ìĦ¸ìļĶ
Ġdifficult ies
Ġdiet ary
ĠFurther more
Ġas c
ab eth
Ġfocus es
ĠSu per
Ġear liest
Ġprocess ed
Ġë© ĭ
Ġinit ially
Ġvict im
Ġex ceed
ri z
Ġserv es
Ġë¥ ¼
] ,
m ail
Ġì¹ ¼
ĠProt ection
Ġgrant ed
i ary
l ist
ĠT im
Ġ3 8
Ġìĸ´ ëłµ
ĠìĬ¤íĥĢ ìĿ¼
il ation
ig ue
end ment
íķ¨ ìľ¼ë¡ľìį¨
Ġabs ence
Ġst ead
ĠDo es
em ia
Ġëĭ¨ ê³Ħ
ĠPl ant
Ġspl it
Pe ople
ren cy
se ll
Ġg ro
Ġbran ch
ë¡ ¤
Ġv an
ê±° ëŀĺ
ìķĪ ìĿĦ
Ġliter acy
ģ ëĭĪëĭ¤
on ym
ĠR esp
ë¦¬ ì¦Ī
ĠL ow
Ġpl ot
Ġad m
Ġany where
Ġsuper ior
Ġunc ertain
Ġasse ts
Ġconclud ed
r ass
re al
Ġê²ĥ ìĿ´ëĿ¼ê³ł
ie val
ìĻĢ ìĿĺ
ì²´ ê°Ģ
Ġcharacter ized
Ġro ads
ĠëĦ ĵ
Ġìĭľê°Ħ ìĿ´
Ġd ys
ult ane
íĺ Ī
Ġam pl
Ġplay er
Ġë©Ķ ëī´
ë®¤ ëĭĪ
i at
Ġíİ¸ ìķĪ
ĠNe u
it als
ast s
Ġ4 8
íŀ Į
Ġident ification
ĠAm az
5 4
b les
ac co
Ġres erved
all ow
ĠìķĬ ìķĦ
Ġprint ing
ëĬĶ ì§Ģ
ang er
í ľĺ
am ber
Ġcon qu
un a
ĠJ ul
Ġdis rupt
Ġun w
Ġun ion
Ġìłľ ìĻ¸
Ġinsp ired
Ġbre ed
Ġfat ty
Ġsettle ment
â Ī
el i
Ġë§Ĳ ìĿĦ
Ġfish ing
íı¬ íĬ¸
Ġelimin ate
Ġfun g
ĠT able
ish op
Ġìĭ¶ ìĿĢ
s en
it ure
Ġp estic
Ġb omb
ap h
Ġìĭł ìļ©
Ġw isdom
Ġëį° ìĬ¤íģ¬
Ġë²Ħ ìłĦ
uck y
ĠL y
Ġcommun ications
ĠìłĢ íĿ¬
erc ury
Ġreve al
Ġë³´ ëıĦ
Ġacc ommod
ĠìĪ ¨
Ġë¹ Ī
Ġsen ior
Ġc ab
ĠìłĦ ìĭľ
Ġconsum e
ê² ¼
ĠG ar
Ġout er
ĠCh apter
Ġfind s
ĠDe v
Ġsubstant ial
Ĩ į
ë¯¼ êµŃ
Ġmeas uring
Ġprint ed
Ġemphas is
Ġquar ter
M ay
ĠL o
sylvan ia
Ġper mission
Ġra cial
ĠS P
ĠB oston
Ġcomm ission
P re
ĠìĬ¤ ìĬ¤ë¡ľ
Ġmy st
ê²ł ì§Ģë§Į
ul pt
Ġal ter
Ġvis ited
Ġautom atically
ĠA z
ir th
ĠO tt
ren e
ĠCO VID
M P
b ell
ur a
Ġpe oples
Ġë§Ī ì¹ĺ
ĠãĢ Ĭ
5 2
Ġen orm
Ġsupp lements
A A
Ġh oney
ĠS ign
ìŀ¥ ìķł
ĠAd ditionally
ĠAut hor
Ġart ist
ĠìĦ¤ ê³Ħ
Ġmus ical
Ġconsider ation
) âĢĻ
Ġint ensity
pl ay
Ġìłķ ìĥģ
íĻĶ ëĲľ
ëĲĺ ìĹĪìĬµëĭĪëĭ¤
Ġë©Ķ ìĭľ
Ġexcept ion
en er
Ġj ur
ple te
Ġdecre ased
ĠT op
ĠH or
ĠëıĦ ìŀħ
Ġëĵľ ëŁ¬
ë¨¼ íĬ¸
Ġd rought
as ant
ì§Ģ íĦ¸
Ġwhe at
ĠíĶĦëŀĳ ìĬ¤
ĠìĬ¤ íĨł
ìĺģ ìĥģ
eg a
Ġpan els
E E
n ight
ĠF ar
rou d
ac hers
Ġadd s
ĠìĨĮ ìŀ¬
com ing
Ġprom inent
ĠCons ervation
C ol
k et
un icip
Ġcor rel
ì´ Į
ĠíĿ ¥
Ġmic rosc
Ġlearn ers
-------- --------
Ġcat tle
à ¥
ìĿ´ ìļ©
Ġper ception
Ġê²° íĺ¼
roll ed
ĠMin ister
en cing
ĠOn line
ì¼ĢìĿ´ ìħĺ
ìłģ ìĿ´ê³ł
T V
r ical
Ġf est
ĠL iter
ĠëıĦ ìĻĢ
Ġstreng then
at ial
íķĺ ëįĺ
Ġíı ´
Ð ¾
ĠA C
ĠEd ward
ê¸° ìĻĢ
re qu
Ġë² Ĺ
Ġê´Ģëł¨ ëĲľ
Ġsche dule
Ġë§Ī ì¼ĢíĮħ
Ġopp osition
y er
â Ħ
ê ¶ģ
am ination
Ġr itual
ang le
Ġsl ave
ĠCl ub
Ġarg ue
e ffect
Ġh oles
ogen ic
ĠâĢ ¢
ĠL in
Ġinf ant
ĠìĻĦë²½ íķľ
Ġë¶Ħ ëªħ
Ġold est
Ð °
ir ms
Ġ1 000
Ġar ray
Ġresp iratory
ĠìĦľ ë²Ħ
ĠìķĪ ìłķ
Ġcompl ications
Ab out
em b
Ġdem ocracy
ĠMed ia
an ing
Ġe lder
Ġover come
Ġconf ident
Ġdiam eter
ĠìĤŃ ìłľ
ìĭľ ìĬ¤íħľ
ëĿ¼ ë§Ī
Ġrem ed
Ġsl aves
ĠìłĦ êµŃ
Ġìļ° ìĦł
Ġcopy right
ru it
Ġdirect ed
Ġvide os
ì³ ¤
Ġcarb ohyd
om ed
Ġ19 30
ĠSt art
íĭ ±
ã Ĩį
Ġ ×
Ġm g
ent er
Ġs ales
ìĦ± ê¸ī
ë£ ¸
Ġë°Ķ ìĿ´
Ġun iform
Ġdec ay
Ġìĥģ ëĭ´
Ġêµ¬ ì¶ķ
Ġprovid er
ì» ¬
am i
ë° ĸìĹĲ
Ġëķ ħ
Ġí ĳ¸
Ġíķĺ ê¸°
Ġatt itude
Ġmod erate
Ġext end
P art
ĠC ross
ë¬¸ ìłľ
Ġform ula
ãħ ¡
Ġoccur ring
Ġcy ber
Ġrepresent ation
u gg
Ġgrow s
Ġlog ic
ĠQue en
Ġantibiot ics
. ).
Ġwrit es
íĿ ¥
Ġíķµ ìĭ¬
J ohn
O W
ra q
ìŀĲ ê¸°
Ġê°Ģ ëĬĶ
Ġev olved
Ġë³´ ê´Ģ
Ġê³ł ë¯¼
Ġprof it
ĠCur rent
ĠSup reme
Ġo v
ĠS anta
Ġprogram me
Ġexperien cing
Ġemb ry
othe rapy
Ġc ort
ĠO per
Ġim aging
pl ing
ative ly
ìĦ¸ ê¸°
Ġspect rum
b ul
Ġab ilities
Ġë°Ľ ìĿĦ
Ġaud io
Ġchann el
Ġwor st
ë³´ íĺ¸
Ġatt ach
aw s
ĠëıĻ ìĿ¼
Ġìłľ íľ´
ha ust
Ġcomfort able
Ġch lor
Ġcont ribution
Ġhard ware
Ġíĸī ìľĦ
Ġë²ķ ìłģ
Ġbr ush
ĠPolic y
Ġhe nce
Ġco verage
Ġinter face
Ġtreat ing
use t
Ġinh abit
9 8
cyclop edia
Ġg rid
Ġìłľ ì¡°
Ġcons erv
Ġra b
Ġ199 1
Ġíŀ Ī
Ġcere mon
ne ys
Ġobject ives
Ġclean ing
Ġtrend s
L C
Ġf ires
Ġf ra
ĠìŀĪ ëįĺ
Ġobserv ation
Ġê³ §
ep ing
ë¶Ģ ëĬĶ
Ġaddress ed
Ġcool ing
ic y
íķĺ ëĭ¤ê³ł
Ġë§ ģ
ĠJohn son
Ġf lying
ĠB usiness
ĠìĪĺ ë§İìĿĢ
Ġdet ected
Ġë§Į ëĵľëĬĶ
Ġcour ts
ë²Ī ì§¸
ëģ Ķ
Ġweak ness
P r
Ġg iant
ĠN ever
Ġê±° ë¦¬
Ġê½ ĥ
5 8
en ger
Ġp it
ĠL incoln
Ġac res
ĠìľĦíķ´ ìĦľëĬĶ
Ġview ed
Ġcontribut ed
Ġw ine
ĠëķĮ ëĬĶ
200 7
Ġre aching
Ġal ive
Ġprov ince
ĠìĦł ìłķ
Ġë¦¬ ë·°
Ġch ap
Ġlight s
Ġëĭ¬ ë¦¬
Ġê² ©
Ġsm ell
ris on
5 7
ra v
ìĨĮ ê°ľ
ìĺģ íĻĶ
Ġt ropical
Ġthere by
Ġbl ess
Ġrel ie
Ġpre ced
O D
Ġsub t
Ġê³µ ìĹ°
i op
ange red
Ġprotect ing
Ġl es
ĠS olar
g on
Ġr ational
Ġë¹Ħ íķ´
Ġins ight
Ġheav ily
d oor
ìĿ´ ë²Ħ
ĠC ard
ĠN ote
Ġme als
ĠKore an
Ġp in
Ġaut ism
ĠEngine ering
ĠL ee
ust ain
ê°ľ ìĿ¸
Ġ Ø
Ġn ice
Ġdes ert
C o
Ġb rows
Ġst ability
qu ir
Ġind igenous
ert y
ocol ate
ĠSim ilar
Ġwors hip
V D
Ġm ouse
ach uset
. '
Ġse at
Ġcall ing
Ġì°¸ ìĦĿ
i ations
ĺ ë¦¬
as ma
st ant
ëĭ¤ ë¥¸
ĠPenn sylvania
Ġille gal
achuset ts
ĠR ock
Ġengine ers
Ġregard ed
Ġexpand ed
Ġphr ase
w orld
ot ype
Ġor b
ĠìĤ¬ìļ© íķĺìĹ¬
ë¹ Ī
Ġsepar ated
Ġregard less
as y
Ġen ables
Ġaut hent
Ġìĸ´ëĸ ł
Ġìĺ¬ ë°Ķ
h ar
ur ning
Ġê¸° ëĭ¤
b rid
re ction
Ġper m
ĠC am
Ġcon ce
ĠìĽĲ íķĺëĬĶ
ëª¨ ëĵł
ĠíķĺëĤĺ ëĭĺ
Ġì ı
it ory
ĠW ay
ĠG ulf
Ġcorrect ly
ad el
Ġì§Ħ ìĭ¤
3 00
Ġdis abilities
ĠìĿĺ íķľ
ĠëĲĺ ë©´
ĠëĳĲ ê³ł
ì¶Ķ ê°Ģ
Ġmother s
ë¦¬ ì¹´
iz abeth
Ġed itor
íķŃ ê³µ
ĠíĹ Į
b a
ic ular
ĠëĮĢ ìĿĳ
Ġant ioxid
Ġord inary
9 7
ìĽ ¨
Ġexpl icit
ĠìĦ± ëĬ¥
ë³¸ ë¬¸
Ġcontain er
Ġëĥī ìŀ¥
ĠS ir
Ġst ations
Ġfl ash
ĠíĮ ¬
Ġì°¸ ê°Ģ
Ġmanufacture rs
H S
ê³¼ ìłķ
Ġtax es
arch y
Ġeduc ators
ĠìĪ ł
be an
om atic
íĻľ ëıĻ
ĠíĽ Ī
ĠHeb rew
it i
ĠC ell
Ġ19 20
ĠChristian ity
ĠCamb ridge
Ġl aser
ĠìĦł ìĪĺ
Ġspok en
am ples
2 000
E ng
Ġm ixture
ig ate
ê³¼ ëĬĶ
Ġcomp rom
cent ury
b ec
ĠP ak
ĠB attle
ì²´ íģ¬ìķĦìĽĥ
Ġthreat ened
ĠMich igan
Ġtum or
Ġë©Ķ ëª¨
C om
ĠF igure
ĠíĻķ ë³´
Ġsus cept
u y
fore st
Ġoverw hel
ist ant
qu ar
Ġê°ľ ìµľ
Ġì´ ī
Ġupd ated
5 1
Ġin equ
Ġcl ient
Ġíķ´ ëıĦ
Ġmig ration
Ġw age
Ġë¶Ģ íĥģ
Ġê¶ģ ê¸Ī
Ġaffect ing
200 6
Ġdeg rad
Ġnarr ative
ĠU t
ĠGeorg ia
ĠCh o
Ġë§Ī ìĿĦ
Ġë¯¸êµŃ ìĿĺ
ìĭľíĤ¤ ëĬĶ
b ox
ag on
Ġhuman ity
Ġcommit ment
Ġ vel
Ġh idden
ĠM ot
Ġloss es
j o
Ġform ing
ĠAr ctic
Ġëªħ ìĿĺ
Ġfall ing
Ġgir l
ĠTur k
ĠSer ver
Ġë°ĺ ìĿĳ
Ġvoc abulary
ìĩ Ħ
ic ing
ĠB a
Ġê·¸ ë¦¬
Ġarg ued
ĠPort ug
Ġad vent
ail able
Ġchar ged
Ġstop ped
ĠPre vention
h us
ĠM ic
ì§Ģ ê¸Ī
¿ Į
Ġm ur
ol t
Ġfunction ing
ch o
ë¬¼ ê´Ģ
ë¦° ëĭ¤
ĠOh io
Ġpol ar
ëįĶ ëĿ¼
Ġhead s
ĠArt icle
Ġelse where
Ġstri ke
Ġhousehold s
ĠSaf ety
at hered
Ġinteract ive
ĠS and
ë¯¸ êµŃ
ìĶ ¬
Ġer u
p es
Ġt ong
at al
Ġd ance
ĠìĿ´ ëģ
ê³¼ íķĻ
ĠìĦ¸ íĥģ
our se
ru e
Ġhard er
ĠÂ £
ĠFrancis co
ìĤ¬ ëŀĮ
Ġcover ing
Ġflex ible
et te
ĠA R
Ġlist ening
Ġu l
ĠHe art
Ġidentify ing
ĠBo oks
Ġiniti ative
ĠíĶĦë¡ľìłĿ íĬ¸
G O
ac ent
ë§ ¥
Ġcl ub
íķĻ ìĥĿ
Ġìĺģ êµŃ
Ġdynam ic
ĠC irc
are n
ì ĩ¼
Ġb ag
Ġsp ray
ĠUn fortunately
aw a
Ġfar ms
Ġë°©ë²ķ ìĿĦ
Ġestablish ment
usal em
ĠìĿ´ ë²¤íĬ¸
et ing
ĠH and
te xt
L ast
Ġsw it
Ġst rip
Ġpl ain
Ġqu iet
Ġro yal
Ġther mal
Ġwhe el
ĠëıĻ ìĿĺ
Ġbehavior al
ĠPol it
ĠMod ern
Ġ20 21
Ġprovid ers
ild ren
íķĺê¸° ëıĦ
Ġinnov ative
Ġhorm one
Ġg ases
ĠW al
ĠUS B
ìķ ŀ
Â· Â·
Ġbelie ves
em a
Ġ4 2
ĠìłĢ ëĬĶ
Ġt ick
Ġp and
ont al
Ġbo at
r un
Ġh osp
ĠP ass
Al so
Ġconcent rations
íĨ ¤
Ġt or
ag en
ip e
ëħ ģ
Ġì£¼ ë¡ľ
Ġeven ing
" )
Ġê·¸ ë£¹
** **
ë§Į ìĿ´
ìĥģ íĴĪ
Ġag ent
Ġexp ed
Ġìµľ ìĨĮ
Ġëī´ ìĬ¤
ut ing
Ġsc ulpt
Ġgra in
Ġprob ability
Ġemb ra
ĠL os
Ġsp r
ĠìĪĺ ëĭ¨
Ġsim ultane
ë¶Ħ ìĿ´
ĠìĿĺ ìĤ¬
ur ches
ĠD ictionary
iz z
ë§Į ìĿĦ
ĠSp ring
Ġìĭľ ì²Ń
Ġì» ¬
Ġì½ĺ íħĲì¸ł
Ġpoint ed
St ep
Ġë¯¼ ì¡±
w an
Ġf ur
Ġë¹Ħ íĮĲ
ĠìĤ¬ëŀĮ ìĿĢ
Ġcharacter istic
ĠIm p
ĠMass achusetts
E A
w ords
ic ian
Ġì° ¬
ĠSp irit
ĠCol l
Ġfac es
Ġeth ical
ĠìĪľ ê°Ħ
Ġd imens
ĠO l
Ġman aging
Ġì£¼ ë¯¼
ë¹ Į
Ġord ers
Ġnewsp aper
if ice
ĠCon vention
Ġpar ad
Ġres id
Ġê°Ģ ìłķ
Ġdesc ript
Ġê±´ ì¶ķ
Ġst rain
ĠL ED
ìĤ¬ ìļ©
ĠëĮĢ ì¤ĳ
ĠCon nect
ĠWith out
ĠIslam ic
Ġdut y
u an
Ġs izes
T ra
el ve
ĠP oint
Ġsh oot
Ġresearc her
Ġbur ied
omet ry
Ġdram atic
Ġtrib es
Ġad olesc
Ġprotect ive
ly mp
ĠConf erence
Ġmathemat ical
th on
Ġì£¼ ìĿĺ
Ġê¸ Ģë¡ľë²Į
Ġvers ions
ìĽĲ íķĺëĬĶ
ĠëĲĺ ì§Ģ
Ġreport ing
Ġcoun sel
ìħĶ ìĦľ
Ġacqu ired
ĠId ent
Ð µ
ë¹Ħ ë¥¼
Ġpar agraph
Ġcreat ures
Ġpres erve
ĠìŀĲìĭł ìĿ´
ë´ ¤
Ġoffic er
Ġarg uments
Ġdefic iency
D S
Ġl ens
ë¶Ģ ìĿĺ
ĠìĤ¬íļĮ ìłģ
ìĬ¤ëŁ¬ ìļ´
H ist
ë¶Ģ ê°Ģ
ê» ´
ì¢ ĭ
ĠPar liament
S im
Ġl ip
ost ic
Ġëĭ Ī
Ġ6 00
Ġent it
Ġtem porary
Ġsens itivity
U L
d r
Ġra c
ìĭĿ ìĿ´
Ġequ ation
ut ation
ìĬ ´
ë§ Ľ
ĠìĤ¼ ìĦ±
ĠE S
ĠG re
ĠL ook
f ast
on omic
ê¸° ìŀĲ
ĠAn alysis
ë°© ìĨ¡
Ġtem por
Ġexc iting
Ġíŀĺ ëĵ¤
Ġassum ed
Ġappoint ed
ĠL ess
ëĤĺ ë¬´
l ims
ĠC a
ê°Ģ ì¡±
Ġinc ident
Ġexpl oration
ë´ Ĳ
ĠìĹĦ ë§Ī
Ġdri ver
Ġê´ ľ
ĠH ospital
ìĭł ë¬¸
íĸĪ ìĿĦ
Ġëħ¸ ëŀĺ
Ġliter ary
ri x
Ġag ing
ëª© ì°¨
Ġvit amins
Ġcustom er
ĺ ĳ
ip her
Ġê²½ ì°°
Ġì°¨ ì§Ģ
ĠT om
ĠSystem s
Ġf ats
Ġëª» íķľ
Ġì¤ĳìĭ¬ ìľ¼ë¡ľ
Ġgl ac
Ġë¡ľ ë§Ī
ĠìĨį ìĹĲìĦľ
Ġanaly ze
man n
ĠPh ot
ĠRead ing
Ġearthqu ake
Ġêµ¬ ìĹŃ
Ġown ed
Ġbiod iversity
Ġm ir
Ġd im
Ġbe ans
op her
ab s
Ġparam eters
Ġf ellow
ìŀĲ ìĹĲ
Ġë³´ ìĿ´ëĬĶ
Ġsoc ieties
Ġkeep s
Ġâ ĳ
Ġaim ed
ĠM ath
ĠR h
Ġadv is
Ġstrateg ic
Ġìĩ¼ íķĳ
Ġt ens
ĠI raq
Ġperson ality
Ġempt y
z ym
ìĤ¬ ìĹĲ
Ġbut ton
ĠìĻĦ ìĦ±
Ġì§Ģ êµ¬
ĠìłĦ íĺĢ
Ġíĥ ĳ
Ġemer ging
Ġb are
ĠìĽ ĥ
Ġplant ing
Ġnutri ent
al i
Ġ6 4
ograph ical
zy me
ĠAlex ander
Ġperce ived
co ver
Ġíļ¨ ìľ¨
Ġëª¨ ìĸĳ
ĠìĬ Ī
Ġíĥ ĢìĿ´
Ġsett led
Ġmanif est
S m
ĠEconom ic
Ġm ine
ĠM P
ìĨ Ķ
Ġsub stit
Ġhunt ing
Ġt ables
ce ans
Ġê·¸ ê°Ģ
Ġê¸° ì´Ī
ë¶Ħ ìĦĿ
ìĺĢ ìĬµëĭĪëĭ¤
ë©Ķ ëĿ¼
Ġwa iting
íĬ¹ ë³Ħ
Ġbe at
Ġê³ł ê¸ī
ran ean
Ġphys ically
Ġimprove ments
F C
ëĵľ ë¦¬
ĠíķĻ ìĬµ
Ġìŀĺ ëª»
ic ity
ra ham
Ġpur su
Ar t
are t
ë¥´ ì§Ģ
ĠíĨµ ìĭł
hold ers
ĠSur vey
Ġf isher
Ġk illing
íı ¼
ĠìĹĨ ìĹĪëĭ¤
íķĺìĭľ ë©´
W here
Ġhabit ats
ëĭµ ëĭĪëĭ¤
ĠDig ital
Ġc raft
Ġmy self
Ġent ertain
ĠT ry
Ġavail ability
Ġheav en
Ġveget ation
Ġexpect ations
ap or
Ġstre ets
Ġo m
Ġë³´ ìĿ¸ëĭ¤
Ġsur ge
im ents
ĠP age
êµ¬ íķĺê³ł
ĠëıĻ ë¬¼
Ġê²½ìļ° ê°Ģ
ĠíķĺëĤĺ ëĭĺìĿĺ
Ġver tical
ut en
if ted
Ġapp eal
ìĹħ ì²´
Ġdirect ions
Ġìĸ¸ ìĸ´
Ġexec utive
ĠEgypt ian
Ġwonder ful
Ġex haust
ĠL ast
Ġs ad
ĠF ind
Ġë³´ ìľł
ĠëĤĺ ìĿĺ
Ġintrodu ce
Ġtechn ological
Ġeng aging
9 3
ec ess
ric ted
Ġpsych ology
ĠJust ice
C ons
Ġìĭľ íĸī
ìĿ¼ ë³¸
ìĹħ ìĿĦ
Ġì´ ¬ìĺģ
Ġmarket ing
' .
ri ze
Ġë°ĺ ëĮĢ
Ġsent ences
epend ent
Ġëĥīìŀ¥ ê³ł
R C
Ġíķĺ ìĭ¤
Ġsc hed
Ġra ising
Ġprof ile
Ġì°¨ ëŁī
Ġlab our
ĠJer usalem
: ||
f e
im p
Ġst ake
Ġnot ion
ĠìľĦ íĹĺ
Ġë¹Ħ ë°Ģ
ĠìĹĲ ìĸ´
Ġcan cers
Ġfat igue
N e
y ou
Ġch ances
ap es
Ġdis m
ĠSt an
ob ile
ĠHe ad
Ġë°Ľ ëĬĶ
Ġcomput ing
Ġground s
Ġìº ł
ëħ ķ
Ġíķľ ëĭ¤ëĬĶ
Ġcollect ive
Ġec ological
ĠëĤĺ ê°Ģ
ìłĲ ìĿĢ
Ġchem istry
Ġneut ral
9 6
ĠìĹĨ ìĸ´
Ġperform ing
Ġfil ter
Ġf inger
Ġst ones
ì§ Ĳ
Ġdist ricts
ì´ ī
Ġconsum ed
ĠMod el
ĠDiv ision
ĠC lick
ĠD O
Ġab stract
ĠëĤ´ ìĹĲ
ĠHar vard
Ġëľ ¨
k ind
ĠB ack
íĻ Ī
íģ Ĳ
Ġvari ations
bor ne
ĠMus ic
Ġc ure
Ġgra ins
ĠìĦł ê±°
Ġquant ity
Ġres c
ĠëĤĺ ëĪĦ
Ġfin ish
rid ay
ê²ł ëĭ¤ëĬĶ
Ġsens ors
Ġadapt ed
ê·¸ëŁ¬ ëĤĺ
Ġd ense
if ier
ĠP ur
Ġìķł íĶĮ
Ġlif etime
Ġquant um
ĠìłĦë¬¸ ê°Ģ
Ġì¦ī ìĭľ
Ġbound aries
Ġenorm ous
Ġinter ventions
Ġê°ķ ëł¥
Ġmar g
Ġgrav ity
Ġf ought
ĠìĿĺ ë£Į
Ġgu ess
Ġsum mary
Ġviol ent
ĠAg ain
ĠViet nam
Ġco at
Ġdeep ly
Ġconscious ness
o z
ol s
ĠL ittle
og y
ìķĦ ê°Ģ
Ġfocus ing
ìĹĨ ëĬĶ
Ġtraum a
B I
Ġl ists
Ġher itage
ĠíĶĦë¡ľê·¸ëŀ¨ ìĿĦ
ĠPak istan
Ġch air
ĠF il
ì£¼ ê³ł
g ence
al ities
pl o
Ġact ing
Ġemot ion
ĠO lymp
ĠBul gar
Ġe ase
et t
Ġinter ior
Ġlow est
ì¼ °
Ġdra ft
Ġsav ed
Ġcorrespond ing
Ġê°ľ ìĿĺ
w as
th rough
Ġsh ore
ë³´ ë©´
Ġg ly
ìĿ¼ ìĹĲ
ail ed
ĠìĽ¹ ìĤ¬ìĿ´íĬ¸
f eed
Ġse vent
Ġëĵ± ìľ¼ë¡ľ
ĠìĬ¤ íı¬ì¸ł
Ġprop ag
Ġmind s
Ġvacc ines
Ġking dom
R ef
r h
Ġ2 50
Ġë°Ķ íĥķ
Ġìĺģ ìĹŃ
osp el
Ġreason able
Ġmembran e
ĠAmaz on
Ġan ger
Ġbat teries
U nder
he a
íķľ íİ¸
ê²½ ìĿĦ
Ġexist ed
A re
R P
g reen
ëĭ¤ ìĿĮ
Ġas p
ìłľ ìĿĺ
Ġachieve ment
ĠScot land
ĠìļĶ ìĨĮ
Ġpain ful
Ġëĭ¬ ëĿ¼
Ġceleb rated
ä º
Ġf o
ĠS ection
Ġpromot ing
ĠTest ament
ĠìĬ¤ë§ĪíĬ¸ íı°
ĠD own
Ġent ering
ë¬¸ ìĿĦ
Ġur ine
k l
ibr aries
ĠAss ess
e or
ar n
ĠìŀĪ ìĿĮ
Ġìłľ ê±°
ê·¸ ëŁ°
Ġpartic le
Ġtarget ed
Ġcontribut ions
Ġsche me
Ġsod ium
ëıĦ ìĭľ
ian o
Ġcur ve
ber ry
íķĻ ìłģ
Ġtell ing
Ġtrans mit
Ġequ ality
ë¦Ń íĦ°
Ġlung s
Ġcon clus
Ġext ension
Ġprefer red
Ġad verse
ĠAs se
Ġrest oration
ĠëĮĢìĥģ ìľ¼ë¡ľ
ment ia
ê¸Ī ìĿ´
ĠêµĲ íļĮ
ëįĶ ëĭĪ
ĠíĿ ¡
Ġì»¤ ë®¤ëĭĪ
Ġphotograph s
ìºł íį¼
T O
¾ Į
ìĹ° íķ©
ĠíĸĪ ìĬµëĭĪëĭ¤
Ã ±
Ġact ively
ĠìĿ´ìķ¼ ê¸°ë¥¼
Ġìĺ¤ ë¥ĺ
Ġreturn s
ĠPal est
? )
im m
ag an
Ġinvestig ate
Ġprior ity
Ġc ord
Ġf ing
Ġacc ord
Ġcommit tee
8 00
Ġê·¸ ëĵ¤ìĿĺ
Ġfu els
9 2
h ost
h ire
u um
or ig
Ġha ven
Ġdis ability
Ġtra its
Ġple asure
ĠLabor atory
Ġcardi ovascular
ĠM ax
Ġt on
ou ds
ìĿ´ ìŀĲ
ment ation
Ġsur g
Ġë°ľ ëĭ¬
ĠOr ig
Ġì¼ĢìĿ´ ë¸Ķ
ĠF red
ĠìĤ¬ëŀĮ ëĵ¤ìĿĢ
200 5
Ġvers us
ĠR ight
ê´Ģ ìĿĦ
ëĭ¹ íķľ
Ġìĺģ ìĸ´
Ġë£ ¸
ì°¸ ê³ł
Ġpoet ry
Ġì ±
ĠC A
íķ´ ëıĦ
ĠìĹĨ ìĿĦ
g ien
Ġê·ľ ìłķ
Ġl osing
ëĭ¨ ì²´
ëĵ± ë¡Ŀ
at i
Ġob st
Ġì¢ħ êµĲ
ĠAv oid
Ġrecy cling
ĠWild life
Ġmedic ines
ìĪĺ ë¡Ŀ
Ġear s
Ġconst ra
Ġens uring
ĠìĹ¬íĸī ìĿĦ
ĠBudd h
ĠColor ado
Ġunivers ities
Ġw ars
ĠT O
ë¦¬ ìĻĢ
Ġ19 40
ĠM A
ĠE UR
Ġê¸° ëħĲ
Ġholid ay
Ġst yles
pl ed
Ġìĭł ë¢°
Ġíı¬íķ¨ ëĲĺìĸ´
Ġfriend ly
. ||
ĠìĹ ¼
Ġclass ified
Ġmet als
Ġ198 9
Ġì²´ íĹĺ
Ġbeg un
S ec
Ġant icip
Ġsustain ability
Ġcalcul ated
Us ing
Ġaccompan ied
Ġw ider
ant ed
Ġproduct ivity
Ġsymbol s
ĠPhil ipp
r ity
ut her
Ġman ager
Ġcap abilities
ĠìĥĿê°ģ ìĿ´
Wh o
Ġshap ed
ĠAgricult ure
Ġì į¨
ain ts
ĠF act
ëĿ¼ ë©´
Ġapp lying
Ġass ert
Ġtrans c
ck ing
Ġê°Ħ ìĿ´
Ġrequire ment
ĠëĤ Ļ
ĠëĶ ¸
Ġdr inks
Ġì§ĢëĤľ íķ´
Ġpresc ribed
Ġest ate
ĠêµĲ íĨµ
ĠEl izabeth
J ust
Ġcl ock
ëŁ° íĬ¸
ĠMin istry
ĠìĹ°ëĿ½ ì²ĺ
ĠSund ay
Ġev ident
ê±° ìļ´
ĠëĦĺ ìĸ´
ĠìķĦë¦Ħ ëĭ¤ìļ´
Ġcol ony
er ies
ĠV e
V iew
f oot
ëĭ ī
ìł ł
ĠO bs
ìľĦ ìĹĲ
av en
Ġline ar
ëĭ Į
Ġr anging
ens ed
Ġbacter ial
om ers
ìĿ¼ ìĿ´
Ġher b
ĠìĦł ìĥĿ
ĠInd eed
1 01
ĠC orn
Ġwould n
íŀĪ ëł¤
ëħ¸ ëıĻ
Ġwebs ites
Ġìĭ¤ íĹĺ
Ġvirt ually
Ġíĺģ ìĭł
ĠìŀĪ ì§Ģ
ĠìĦł ë³´
Ġpriv acy
Ġê°ĸ ì¶Ķ
Ġserious ly
Ġwatch ing
P R
iv est
Ġmov ie
Ġnutrition al
æ ľ
Ġíķĺ ëĭ¤
Ġrob ot
ĠNav y
Ġhypothes is
p re
Ġt one
as hes
out heast
ĠìĤ¬ ë¬´
íĻĶ ê°Ģ
Ġplant ed
Ġpost s
Ġê·¸ê²ĥ ìĿĢ
Ġì¸¡ ë©´
' d
is d
Ġse es
Ġtrans mitted
Ġdeterm ining
M ar
Ġres il
Ġmod ule
Ġox id
Ġcolon ies
ĠTur key
Ġchrom os
Ġc otton
íķĺê³ł ìŀĲ
Ġpass ion
ĠíĨµíķ´ ìĦľ
ìº Ĳ
Ġìĥ¤ ìĽĮ
adel ph
Ġre verse
id al
Ġloc k
Ġsafe ly
Ġdefin itely
ìħĶ ìķ¼
Ġresist ant
eut ic
L ike
p ress
íķ µ
ĠC S
Ġìĸ´ëĸł íķľ
b el
Ġt act
ĠD rug
Ġcan n
ë¦¬ íĬ¸
Ġë³´ ëĭĪ
Ġíĺ ľ
Ġì°¸ ì¡°
Ġinteg ration
Ġvict ory
Ġw elfare
ĠìĿ´ ë©ĶìĿ¼
ëĮĢ ê°Ģ
ond ay
Ġremov ing
ĠKe y
Ġconver ted
Ġëĭ¤ìļ´ ë¡ľëĵľ
ë Ģ
ëıĦ ìĹĲ
Ġatt ribut
Ġh all
est hetic
Ġfe els
ìĺ¤ ëĬĺ
ì§Ģ ë¡ľ
ĠëĤĺ ëĪ
Ġto m
ëł ¬
êµ¬ ê°Ģ
Ġreg ime
Ġclass ical
ĠIs lands
Ġsens or
Ġpriv ile
Ġíĺķ ìĦ±
Ġgod s
ì§ ĵ
Ġsu icide
Ġsc ores
Ġind irect
ĠìĿ¸ íķľ
agn etic
Ġrepresent ative
Ġexhib it
Ġexpert ise
ĠSecret ary
M C
l ights
Ġt u
Ġw at
ĠR est
Ġë§Ĳ ìĿ´
Ġcontin uing
Ġeng agement
Ġopin ions
Ġëĳĺ ëŁ¬
er as
Ġc as
ĠM ove
Ġref erences
ìĹĪ ê³ł
Ġë¯¸ ë¦¬
Ġëĭ¬ ëŁ¬
ĠCont in
Ġìļķ ìĭ¤
ìģ ľ
on ents
er ally
Ġp el
ĠS aint
íķĺìĭľ ê³ł
ĠGree ce
Ġagg ressive
G l
um er
Ġver b
ĠëŁ¬ ìĭľìķĦ
ĠL og
Ġint ention
Ġrec ording
Ġg ent
Ġcon vey
hav ior
ê ½
Ġre ign
ĠM ess
ë¦¬ ë¡ľ
ide o
Ġte ens
Ġhapp iness
oper ative
Ġp ion
Ġst ood
ĠM ach
ë§ ¹
Ġì£ Ħ
ibl ical
oc ated
og ens
Ġë§ģ íģ¬
m ond
un c
ëĲĺ ë©´
ĠPro cess
ë£¨ ìħĺ
ëĵľ ìĿĺ
Ġë§Ĳ íķľëĭ¤
Ġlo ose
Ġprom ise
iter ranean
am ic
ĠìłĦ ê¸°
Ġdifferent ly
Ġdomin ant
Ġì ª½
ĠC ub
íķĺ ëĭ¤ëĬĶ
ì¹ĺ ê°Ģ
íķĺìĭľ ëĬĶ
Ġdro pped
E ach
ad or
Ġcon vert
Ġsp inal
Ġìĺ Ĩ
Ġbar rier
ĠãĢ Į
Ġqual ities
D espite
G e
Ġch ose
ìĥģ ìĿĢ
Ġocc as
ĠëĬĲ ê»´
ĠStand ard
b est
Ġë ½
Ġê°Ĳ ìĨĮ
ë¶Ī ìĸ´
Ġir rig
Ġn om
Ġg ast
Ġper f
Ġaut on
ym n
ĠBl ue
ĠIm m
P ost
m ade
Ġp H
Ġí ĩ´
ê³ł ìĨį
Ġun n
Ġtra ce
ĠPe ace
Ġadop t
Ġd uration
Ġg ift
Ġsc ope
Ġdiff er
Ġê¹ Ĭ
ĠMus lims
ĠìĦ¤ ë¦½
ĠìĹ´ ë¦°
Ġste am
ĠBi ology
Ġremark able
Ġcomp ost
the w
Ġliter ally
se ction
Ġnot iced
pt ic
c in
Ġbe ach
Ġì¤ĳ ìĹĲ
hem istry
Ġë³ĦëıĦ ìĿĺ
ĠíĬ¹ë³Ħ íķľ
Ġt ip
er ts
ment ed
íķĻ ìĿĺ
Ġsubs id
adelph ia
end a
ĠìĽ ¨
Ġdesc end
Ġc rown
ĠìŀĪëĭ¤ ë©´
Ġìĥģ íĺ¸
Ġble eding
Ġfacilit ate
M O
Ġs essions
ĠL uc
Ġpe er
ĠCh ief
aw are
Ġhyd ro
Ġde ploy
Ġv en
Ġj oy
Ġì£¼ ìĿ¸
Ġc ub
ĠT H
ol ine
th is
Ġbre aking
Ġd ies
Ġbe e
Ġsp ots
Ġsp oke
Ġrest aur
Ġrestrict ions
ĠB ureau
cl aim
Ġë©Ķ ìĿ´
Ġsleep ing
R el
p ower
ë¶Ģ ìĹĲ
Ġëį ķ
Ġëģ Ĭ
ãħĭãħĭ ãħĭãħĭ
Ġoccup ied
end ar
lect ed
ì¡° íĬ¸
Be fore
ìģ ĺ
l aw
Ġë²ķ ë¥ł
Ġlog ical
Ġsac red
Ġcert ific
Ġë¯¸ ëĶĶìĸ´
ĠëĶĶ ì§ĢíĦ¸
ĠìĤ¬íķŃ ìĿĢ
Ġceleb rate
S ub
i ro
Ġp ill
ĠP u
ĠF ield
Ġë¶Ħ ë¥ĺ
ĠìĦ± ê²©
T E
ĠV an
ìĭł ì²Ń
Ġê°ľ ìļĶ
Ġapparent ly
4 00
Ġc ul
Ġf rust
ĠSt ation
Ġdevelop ments
Ġfac ulty
su pp
Ġimmig rants
ĠT own
Ġal arm
Ġdiscuss ions
Ġs oph
ĠD iet
ĠG all
Ġreal ized
Ġdev ast
s k
ë¬¸ ìĿĺ
Ġdevelop s
Ġë¹ ¼
T ER
Ġc ran
al so
Ġre aches
Ġwe igh
ĠìķĪ ìĹĲ
ĠInc re
Ġecosystem s
Ġt ack
ĠìĤ¬ ëĿ¼
íļĮ ìĽĲ
Ġ8 5
Ġemp ire
Ġtransfer red
ĠSen ate
ad vant
ĠM ur
ĠìķĦ ë§Ī
ful ness
Ġhand ling
Ġelect ions
Ġenjoy ed
ĠL im
Ġìļ° ëł¤
ĠìķĪ ìĭ¬
Ġneur ons
9 4
Ġd airy
Ġìŀ ĥ
us ive
Ġê³ ¡
ater al
Ġper mit
ìĽĲ ìĹĲìĦľ
Ġíĥ Ŀ
Ġìŀħ ìŀ¥
Ġm ature
il st
ĠR ail
Ġar med
ĠìĿ¸ ëıĦ
íħ į
ĠìłĢ ëħģ
Ġpil ot
íĮĲë§¤ ìŀĲ
âĦ ¢
b r
as m
Ġì²Ń ìĨĮëħĦ
Ġë´ Ĳ
m ia
Ġto b
Ġg athered
ĠN ob
ĠìŀĪ ìĹĪìĬµëĭĪëĭ¤
ĠJac ob
Ġì§ Ĳ
Ġher self
ì°¬ ê°Ģì§Ģ
C opyright
s ub
Ġsp an
ous es
íĺĦ ìŀ¬
ĠìĿ´ ë
Ġmil it
Ġìĸ¸ ê¸ī
Ġìĺ ·
Ġover l
Ġê·Ģ íķĺìĿĺ
9 1
ĠB al
ĠF DA
Ġsh orter
Ġcomp os
Ġíķĺ ìĿ´
Ġbu ff
200 4
acks on
Ġsu it
ĠH im
ĠF air
The n
ĠO ffic
ĠIn vest
Ġíķĺ ëĬĶëį°
ìĹĪ ëĬĶëį°
ĠìĿ´ìľł ëĬĶ
R S
oc a
Ġpre y
aw n
ëĭ¨ ìĿĺ
200 2
Ġcoun cil
B A
Ġë° ĸ
ĠAs k
Ġv ibr
ĠíĮĮ ìķħ
ĠIm pro
Ġinvolve ment
ivest ock
u ity
ĠA ff
Ġde er
ìĪĺ ëĬĶ
Ġd ict
ĠC apt
ĠC reek
Ġjoint s
ĠB ang
Ġinv asion
ĠMex ican
Ġd ress
ĠB uilding
ĠìĦľë¹ĦìĬ¤ ê°Ģ
ĠBe ing
Ġvolunt eers
f riend
ëĮĢ ìĹĲ
Ġsur prise
ĠìĹ¬ ìŀĲ
Ġ( âĢľ
Ġinf ants
Ġspec ified
ì£ ½
ĠHer itage
ore r
ass ium
iss ance
íı ´
Ġorig ins
Ġpow der
Ġg um
ë© ĺ
Ġbu ying
ĠíĨµ íķĺìĹ¬
Ġdocument ed
ã İ
ĠA k
ĠH um
olog ically
Ġadv ances
Ġele ph
ì¤Ģ ëĭ¤
Ġì±Ħ ëĦĲ
ĠWik ipedia
Ġp ets
Ġë¶Ģ ìłķ
ĠìĥĿ ìĦ±
Ġëıħ ë¦½
en h
il a
íĻĶ ìĿĺ
Ġread ily
Ġallerg ic
Ġh at
om al
op l
ìĬµ ëĭĪê¹Į
Ġê³µ ê³µ
Ġpen al
Ġp ace
ë° į
Ġcont ents
Ġcho osing
ira ble
Ġwithd raw
T C
d ep
ìĦľ ê´Ģ
ĠìĿ´ ëĤł
Ġfore cast
Ġì¡ ¸
Ġgard ens
Ġê¸Ģ ìĿĦ
ĠãĢ İ
se x
Ġì² ¨
Ġco operation
Ġdef ault
ĠíķľêµŃ ìĿĺ
R eg
ìĸ´ ì§Ħ
act ions
Ġ4 4
ĠêµĲ íĻĺ
ĠPer haps
ĠConf ed
M I
d i
ay er
ĠF arm
c ut
chn ology
Ġë°Ķ ëĢ
Ġ8 00
Ġunlike ly
Ġcl ients
ë³¸ë¬¸ ëĤ´ìļ©
Ġê´ľ ì°®
b ury
ĠS everal
if er
ìĬ¤ ìĹĲ
ĠìĪĺ ìĥģ
Ġfund ed
Ġë¡ľ ê·¸
ë¹ Ļ
Ġpurch ased
Ġm unicip
Ġìķ ī
ĠG DP
Ġë³´ íĨµ
ëħĦ ë¶ĢíĦ°
Ġent hus
Ġz ones
Ġreflect ed
C lick
R L
v ation
Ġc ow
Ġë ĩĮ
ë§ ŀ
íĸĪ ì§Ģë§Į
ëª© ìĿĦ
Ġlimit ations
ĠM id
ĠM ajor
ì°¨ ë¥¼
Ġclass ic
ìłĲ ìĹĲìĦľ
Ġsong s
Ġsu g
Ġch ocolate
Ġrec re
Ġref used
ĠCent ury
Ġcolon ial
Ġdri vers
Ġ Ù
Ġwe aring
Ġê°Ģ ë¥´
Ġevery where
Ġassoci ate
T H
Ļ ëĭĪëĭ¤
Ġb orrow
Ġbe ars
ol ph
ĠE ll
ĠR NA
Ġëı ¼
Ġperson nel
ĠMed iterranean
Ġowners hip
ëı Ī
ĠV itamin
Ġadd iction
Ġland ing
ĠíĪ¬ ìĸ´
spec ific
a fter
Ġ %
Ġìĺ¤ ë¥¸
Ġdi pl
aterial s
200 3
ĠìĤ¬ì§Ħ ìĿĦ
âĺ ħ
Ġtob acco
ëĵ¤ ë¡ľ
ys ical
ĠìĿ¸ ì¦Ŀ
Ġvar ied
Ġf et
ĠìķĬ ëĭ¤
Ġend ing
íĶĮ ëłĪìĿ´
Ġpen et
S ource
Ġth roat
ĠH a
Ġê²½ ë¡ľ
Ġìĺ¤ íŀĪëł¤
ĠíĻĺ ë¶Ī
AT ION
Ġut ility
II I
ĠìºĲ ë¦ŃíĦ°
ĠAngel es
ìĬ¤ íĮħ
Ġann ually
ê°Ļ ìĿ´
ĠA ction
ë³´ ëĭĪ
ë¬¼ ìĿĺ
Ġeng ines
ĠíĽ ¨
Ġê´Ģìĭ¬ ìĿĦ
ĠâĨ ĳ
Ġs aving
ê²½ ìĺģ
ĠíĥĢ ê³ł
Ġsudden ly
ic ts
om eter
am ps
ĠM oses
us cript
ĠD ie
Ġcl othes
Ġë§Ī ì°¬ê°Ģì§Ģ
ĠEn cyclopedia
Ġperfect ly
Ġpreval ence
ĠK al
Ġpartners hip
r ons
ë³´ íĹĺ
Ġíķ´ ìĦĿ
ĠìĿ´ê²ĥ ìĿĢ
ëľ »
ĠHaw ai
d is
Ġg ate
Ġche ap
ĠHistor ical
o a
Ġt ension
Ġvar ies
Ġident ical
Ġíıī ê·ł
ĠíħĮ ìĬ¤íĬ¸
Ġther m
Ġd ating
pl ate
ĠìĹ¬ ë¦Ħ
Ġìµľ ì¢ħ
af e
ane ous
ëĭĺê»ĺ ìĦľëĬĶ
ĠTem ple
Ġs hed
ê°Ģ ëĬ¥
Ġíĸī ìłķ
bo oks
Ġrul ed
Ġcontroll ing
Ġdisplay ed
ĠìłĦ íĻĺ
ãģ ®
Ġcalcul ate
ĠTreat ment
ĠC H
ĠWe ek
Ġcur rency
ìĿ´ëĿ¼ ë©´
Ġë¶Ī êµ¬íķĺê³ł
ĠìĹĦ ì²Ń
T rans
h an
Ġs ale
Ġê² ª
un ar
Ġìĭł ë¶Ħ
Ġcirc ulation
ĠíķĦìļĶ ê°Ģ
Ġcomplex ity
Ġsus pect
íĬ¹ íŀĪ
Ġvill ages
f unction
ĠìľĦ ìĹĲ
Ġstr ange
Ġrest ore
Ġabsor b
Ġê± ±
Ġacknow led
ĠS on
ĠE PA
Ġì¢ĭ ëĭ¤
sh aped
ĠNe xt
. ),
or ters
ĠìĤ¬ ìłĦ
Ġsw elling
Ġemer ged
Ġbur den
st ru
oc ument
Ġunder ground
ĠComm ons
a is
Ġc able
Ġor ange
Ġch urches
ĠAnd rew
Ġrepresent ing
Ġreve als
ĠíĹĪ ìļ©
Ġattract ive
Ġat oms
Ġ4 3
ì§Ī ìĿĦ
Ġreplace ment
Ġen zym
Ġwork er
Ġimag ination
Ġtong ue
A ut
¯ ¤
Ġ æ
ra ine
ìĤ¬ ë¡ľ
Ġman ual
Ġ4 1
ĠìĹ¬ ìłĦíŀĪ
Ġasse mb
Ġmamm als
Ġd il
ĠìĪĺ ê°Ģ
ì° Į
Ġlight ing
anc he
Ġmax im
Ġfif th
Ġtel esc
Î ±
ĠC ode
iz ers
ìłķ ëıĦ
ĠìķĦ íĮĮíĬ¸
Ġins ights
reg on
Ġgradu ate
M e
ëĤ ¼
ëĵľ ê°Ģ
ĠíĻľ ìĦ±
m ble
Ġun cle
ĠTr ust
f irst
Ġc ited
Ġsc at
Ġcould n
Ġgra des
az z
Ġíİ¸ ì§ĳ
ë¦¬ ìłģ
ru b
Ġìĸ µ
Ġro oms
ĠëĤĺ ë¬´
Ġdist ant
Ġê±´ ìĦ¤
ĠíĻĺ ìĺģ
Ġmeaning ful
Ġrefuge es
Ġvir al
ĠAre a
Ġê¸° ê³Ħ
Ġdist inction
Ġju ice
å ¤
at us
it ting
ĠP oly
ab out
ìĿ¸ ê³¼
Ġinhabit ants
Ġ( "
Ġab ol
ĠíĺĦ ê¸Ī
Ġspace craft
Ġ198 8
Ġpay ing
íķĺëł¤ ë©´
p age
íļĮ ëĬĶ
âĸ ł
Ġpack age
Ġpray er
w estern
Ġo l
ĠF ed
ê»ĺ ìĦľëĬĶ
Ġ198 6
Ġsepar ation
ĠPhil adelphia
L S
Ġê²ĥ ìĹĲ
ë§Į íķľ
Ġprov ision
Ġsurve ys
re f
em ies
Ġêµ¬ ì²´
ĠíĶĦ ëŁ°íĬ¸
ĠíĮĮ íĭ°
âĸ ¶
Ġabsolute ly
Ġt ort
ĠU V
Ġpres erved
Ġcre am
Ġexpl oring
ĠìłĪ ëĮĢ
Ġdiv ine
et he
Ġv ig
Ġcl ay
erv ing
ĠSm all
Ġconvers ion
P lease
Ġs ending
Ġinv asive
ìĤ° ìĿĦ
Ġbas ically
Ġdiscipl ine
ìºłíį¼ ìĬ¤ëĬĶ
Ġapp lies
íķľëĭ¤ ë©´
ëŁī ìĿĦ
Ġcompet itive
Ġscen ario
! "
; ;
ĠN utrition
ìļ´ íĭ´
Ġveget able
Ġestablish ing
ĠíĽ¨ ìĶ¬
Ġth read
ìĦ Ń
Ġas h
Ġìĺ ®
ìłķ ìĿĢ
ĠíķĦìļĶ íķ©ëĭĪëĭ¤
ĠGu ard
Ġpaint ings
ĠDan iel
Ġbutter f
ê ¿
ig ious
ĠâĢ Ŀ
ok ed
ang el
Ġrequ iring
Ġattempt ed
F ig
N ational
Ð ¸
ĠL ater
Ġun em
Ġneu ro
Ġlib eral
ë¦¬ ìĸ´
Ġìĭľ ì¦Į
Ġinv ention
Ġfil ms
Ġëª» íķĺê³ł
Ġpup ils
S cient
j i
Ġs ons
Ġpract ition
ĠMar ine
Ġelectr ons
Ġstream s
t rans
íķĺ ìħ¨ìĬµëĭĪëĭ¤
ĠN O
Ġê²ĥ ì²ĺëŁ¼
Ġinst ances
Ġleg it
Ġbal anced
p os
iss ipp
ĠìĹĨ ê³ł
ĠAr ts
ĠíĻķ ìŀ¥
íĶ¼ ìºłíį¼ìĬ¤ëĬĶ
Ġentit led
Ġs ister
rit ten
Ġë¬´ ìĬ¨
Ġê³µ ë¶Ģ
Ġemb ed
ĠìĿ´ë¦Ħ ìĿĦ
d isc
u is
Ġt ag
ur able
ill ance
Ġen cl
êµ¬ ì¡°
Ġë°Ķ ëĭ¤
Ġtreat y
Ġbi om
Ġaddress es
Ġmagn itude
Ġasse mbly
Ġìĸ´ëł¤ ìļ´
pd f
Ġ ||
ĠC rit
ìĬ¤ íħĶ
Ġëĭ¤ ë§Į
Ġmer ch
ĠìĺĪìłķ ìĿ´ëĭ¤
Ġoutbre ak
ic ating
ĠìłľíĴĪ ìĿĦ
Ġíĸ¥ ìĥģ
R ep
Ġsc iences
Ġult imate
Ġminor ity
Ġsurg ical
ment al
ĠO s
ĠëĮĢ ì²´
Ġìĭľ íĹĺ
Ġë²Ī íĺ¸
Ġprecise ly
Ġbot tle
í Ģ
Ġen forcement
ìĤ¬ ìĿ´
Ġbreak s
Ġwood en
ĠCor por
ãħ¡ ãħ¡
est ions
ĠìļĶ ë¦¬
Ġben e
reg ular
ĠAnt ar
Ġsav ings
Ġaccompl ish
Ġt ap
ĠT ool
ter ior
ĠL i
Ġproduct ive
Ġëª© ìłģìľ¼ë¡ľ
Ġcitiz en
Ġprepar ing
Ġdepos its
Ġh al
ĠH D
ĠR am
Ġinc ent
app ed
ino is
Ġreven ue
ĠN orm
Ġê°Ģ ëĵĿ
ĠìĨĮ ìļĶ
Ġt ends
Ġbe ll
ol k
ĠC ost
ĠìĿ¼ ìľ¼
Ġpers u
ĠìĺĪ ë¥¼
ê°Ĳ ìĿ´
Ġspecial ist
u ro
Ġ à¤
ë¹ Ľ
Ġìĵ ¸
Ġregist ered
l av
w orth
Ġ ^^
oc ity
ĠF er
ëħĦ ê°Ħ
. :
Ġc odes
ot ion
Ġal ign
ĠJ ava
íĬ¸ ë¦½
ĠìĤ¬ìĭ¤ ìĿĦ
ugh t
R em
Ġen zyme
Ġsc r
íĸĪ ëĬĶëį°
ĠOf ten
Ġì±ħìŀĦ ìĿĢ
Ġflex ibility
Ġpand emic
êµŃ ê°Ģ
Ġre ef
Ġcan al
Ġsp atial
Ġíķĺ ë©´ìĦľ
Ġw al
Ġìľł íĺķ
Ġ198 7
Ġtot ally
Ġw ise
ĠN eed
ë³Ħ ë¡ľ
ĠTw itter
T wo
Ġì§ §
Ġìłľ ì¶ľ
Ġmed ieval
Ġë§ĪìĿĮ ìĿĦ
M an
in ces
Ġl ob
Ġde mentia
Ġê° Ĵ
ĠJ r
Ġover view
ĠëĤĺ ìĺ¤ëĬĶ
ĠìĥĿ ëªħ
Ġìĭ¤ íĮ¨
ned y
rolog ical
Ġë° ĸìĹĲ
ĠWh ich
Ġ0 2
ĠìĻ¸ ë¶Ģ
ĠV iew
ãħ ľ
âĢ¦ âĢ¦
íĨ ¡
Ġdimens ions
á ¹
or i
Ġam ino
ĠëĲĺ ìĹĪìĬµëĭĪëĭ¤
Ġbar riers
Ġì¸¡ ìłķ
Ġchick en
ĠK ids
ìĿ¼ ë³´
ë¯¼ ì£¼
ìī ½
Ġb ought
ro se
Ġh oly
Ġwork place
Ġnut s
Ġaccept able
Ġcandid ates
Ġmetabol ism
Ġbene ath
ĠS qu
Ġposs ibilities
ĠPl ace
Ġalgorith m
F S
Ġt ill
Ġd imin
ĠëĤĺ ìĿ´
Ġref lection
Ġsol ving
Ġë ·
ig er
ist ed
ìłľ ëĬĶ
ì£¼ ìĦ¸ìļĶ
Ġra ys
Ġìµľ ìĭł
ĠëĤ¨ ìķĦ
ĠP ope
ĠH ence
ĠìķĦ ëıĻ
ĠUn ivers
Ġvis its
ìĭ¬ ìĿĦ
ĠìĤ¬ì§Ħ ìĿ´
ĠíĿ¬ ë§Ŀ
Ġf t
ĠLe vel
Ġpr ime
Ġìĺģ ìĥģ
ĠìĹĲ ëĦĪì§Ģ
Ġexc lud
Ġbul lying
Ġë¶Īê°Ģ ëĬ¥
Ġìľłëªħ íķľ
el ing
ĠD am
Ġcell ular
Ġsurround ed
ĠOb ama
z er
Ġë ¿Į
ĠC op
iv ation
olog ic
Ġreg ister
ĠëĮĢíķľ ë¯¼êµŃ
ĠBl ood
Ġcy cles
Ġtur b
Ġchann els
c ule
Ġin herent
Ġgl obe
ĠAb raham
Ġdeb ris
Ġdistingu ish
Ġw ings
Ġn oun
qu ality
ĠF riday
Ġë² ½
E G
â Ĩ
Ġout door
Ġrec all
Ġprof ound
Ġbro ke
Ġsal mon
Ġaccur ately
b ow
ĠìĿ´ìļ© íķĺìĹ¬
Ġanaly zed
ov es
ne um
ì§ĳ ëĭĪëĭ¤
omet ric
ĠTra de
Ġsurpris ing
k er
Ġw ing
Ġin ev
ac les
Ġìĭľ ê°ģ
Ġcons ent
ĠìĤ¬ëŀĮ ìĿĺ
Ġhop es
Ġathlet es
quir y
e em
ĠC trip
ĠJ ackson
ìļ° ëĬĶ
Ġtre m
Ġcop ies
Ġlic ense
N E
l ock
ĠB ased
Ġrob ust
ĠBudd ha
ĠK ent
Ġatt ributed
Ġaut o
Ġìµľ ìłģ
Ġì¶ľ ìŀ¥
ĠíķĦ ìĪĺ
íķĺìĭľ ê¸°
Ġê²Ģìĥī íķĺìĹ¬
He alth
Ġwid th
A c
U se
g a
Ġì ¤
ĠI ce
ê° Ķëĭ¤
od ed
th ur
ĠE mer
Ġë¯¸ ëĭĪ
Ġê²Ģìĥī íķĺìĦ¸ìļĶ
Ġíĺĳ ëł¥
ĠWhe ther
Ī ëıĦ
Ġl ingu
th od
ê·ľ ëª¨
Ġevolution ary
ĠAsse mbly
v i
Ġp airs
Ġl akes
iv ate
Ġassign ment
igh th
Ġdis ag
Ġìłľ ì£¼
te b
Ġìħ Ķ
ĠìĨĶ ë£¨ìħĺ
Ġb onds
Ġsum mar
Ġstat istical
Ġì½ ľ
Ġancest ors
d a
ĠL ew
ê´Ģ ëł¨
Ġput s
ëĥ Īëĭ¤
or us
Ġh ier
ĠS C
Ġst er
íķĺ ëĿ¼
ê´Ģ ìĿ´
ìħ Ģ
Ġmem or
Ġmeet ings
Ġ9 78
Ġdiet s
a que
Ġ ion
íĸĪëĭ¤ ëĬĶ
o ons
Ġìĭľ ëıĦ
ict ions
Ġpass es
Ġspecial ized
ëĬĲ ëĥĲ
Ġdistur b
Ġsc hem
ĠìĿ¼ ìĸ´
Ġinflu ences
Ġìķł ìĻĦëıĻë¬¼
Ġëª¨ëĳĲ ê°Ģ
Ġsem i
C he
K e
Ġpro x
ë¶ Ļ
Ġdis k
ìŀ¥ ê³¼
ìłĦ íĻĶ
ìłĦ ë¬¸
Ġrel ate
ov ing
Ġsurv ived
IS T
Ġillness es
aus es
ĠSupp ort
M D
s we
ĠH it
Ġse al
Ġsh r
per t
Ġê²ĥ ê³¼
Ġ4 6
Ġworks he
ĠìĿ´ëģ Į
ab b
Ġsh oes
ìķĦ ëŀĺ
Ġmin imal
Ġhy gien
Ġopt imal
Ġíĳľ ì¤Ģ
ĠM aster
ĠO regon
Ġar ise
Ġgen ome
ëŁ¬ ìĬ¤
ĠíĻķ ìĭ¤
Lear n
Ġshe ep
Ġcal m
Ġê°Ģê¹Į ìļ´
Ġsp ons
Ġë¯¸ ìĪł
Ġmotiv ation
Ġiniti atives
Ġíķĺ ëĵľ
Ġreg ulate
Ġtransl ated
ĠRem ember
w a
Ġm ail
gh an
H z
Ġper t
ĠìĨį ìĹĲ
Ġefficient ly
Įĵ ê¸Ģ
Ġb ags
Ġcontin ent
ĠëįĶ ë¶Īìĸ´
Ġíİ¸ ë¦¬
Ġì¹´ ë©ĶëĿ¼
Ġallerg ies
Ġgram mar
Ġelder ly
ìĿ´ ëĦĪ
ĠB ern
ìłķ ì¹ĺ
ê´Ģ ìĿĢ
Ġve ctor
Ġíı¬ ìĿ¸íĬ¸
ĠPh D
Ġhy brid
Ġpay ment
Ġìĭ¤ìłľ ë¡ľ
Ġdram atically
Ġorient ation
Ġsimultane ously
ĠS D
ĠC r
ê³Ħ ìĿĺ
Ġsed iment
ë¿Ĳ ë§Į
ìŀĲëıĻ ì°¨
Ù Ħ
ur se
ìĿ¼ ë¶ĢíĦ°
ìļ´ ìŀĦ
ĠíĽĦ ìĹĲ
Ġsatis fact
g ments
Ġs ulf
Ġc ough
Ġf an
ĠD yn
Ġbl ank
ĠìĿ¸ ê¸°
Ġë§Ĳ íĸĪìĬµëĭĪëĭ¤
Ġdi arr
Ġcut s
Ġsch olar
Ġo ceans
Ġì§Ģ ìĭĿ
ric ks
ĠRe al
eg in
ĠHel p
Ġto mat
ul ed
Ġper pet
Ġaddress ing
Ġcontribut ing
Ġtum ors
ĠMiss issipp
Ġelev ated
. -
Ġle cture
Ġëį ĺ
Ġret ail
Ġappro val
Ġjud gment
el a
iv ities
ast ics
Ġëĭ¤ ë¥´
Ġro d
ëĶĶ ìķĦ
Ġprop osal
Ġreason ing
Ġì´Ī ê¸°
Ġpros per
P ub
ac le
Ġaltern atives
ĠO nt
ick ing
ĠìĨĮ ìľł
Ġcomb ine
ìµľ ê·¼
ĠBer lin
Ġtheore tical
Ġo ste
ĠSc ript
Ġsever ity
Ġmist akes
ot ing
res hold
rop ol
Ġhum idity
ĠAl aska
Ġpass word
Ġhorm ones
C al
ê·¸ ë£¹
Ġcor on
ĠëĤ¨ ìŀĲ
Ġadop tion
Ġvary ing
Ġìĸ¸ìłľ ëĵłì§Ģ
Ġthy roid
Ġë§º ê³ł
ëľ ¨
ol er
ch ain
ĠR ather
Ġcomp ass
ĠëĤĺ ìĦľ
Ġ20 22
ê²ł ëĭ¤ê³ł
An y
ĠìĿ´ ìĻĢ
ìĺ µ
ìĿ¼ ê¹Įì§Ģ
ë¬¸ ìĹĲ
ath an
íĹ ¤
Ġë²Ħ íĬ¼
íķĺìĺĢ ìĬµëĭĪëĭ¤
Ġphilos oph
Ġminim ize
in ch
Ġdis advant
ĠPro ble
Ġoper ated
Ġm ira
Ġas ide
ĠM ap
ard ed
Ġë°ĺ ìĺģ
Ġencoura ging
ĠP DF
Ġì§Ģ íķĺ
ĠìĬ¤ ìľĦ
Ġend angered
Ġconf usion
Ġëªħ ëł¹
Ġwind s
ìĥ µ
Ġsub sc
Ġrest ricted
Ġ 01
Ġprison ers
ĠìĦ ¼
Ġìłĳ ìĨį
Ġtend ency
ĠíĻľëıĻ ìĿĦ
Ġreprodu ctive
Ġjur isd
Ġsuscept ible
ic ut
el ly
ĠB est
ì§Ģ ìĹĲìĦľ
ĠN eg
ìĽĲ ìľ¼ë¡ľ
Ġì§Ģ ë°°
Ġíĺ Ī
Ġsystem atic
Ġsym pt
Ġengine er
Ġdiv ide
Ġrepe at
con f
Ġíĭ Ģ
Ġpip e
Ġfasc inating
Ġoccasion ally
Ġl ivestock
ĠF ish
Ġê¸°ìĪł ìĿĦ
T able
Ġwas h
Ġë°ľ ê¸ī
Ġprec ip
Ġelement ary
Ġadministr ative
Ġt ab
ĠH ard
Ġne ural
ĠìłĦ íĪ¬
ĠPro duct
ë²ķ ìĿĦ
Ġpain ted
ĠCor ps
Ġp ose
ĠM ain
ìļ© íĴĪ
Ġvis iting
Ġleg end
Ġbus y
aut hor
Ġatmosp heric
Ġbrother s
ëŀ« íı¼
U C
Ġh urt
ĠL t
ëŀ Ħ
Ġimp air
ì¶ ¤
Ġ9 9
Ġcandid ate
ĠìĬ¤íİĺ ìħľ
i y
Ġinc idence
ìĦ¸ ìĬ¤
Ġëĭ¨ ì²´
Ġcreat ivity
Ġneigh b
Ġt ough
Ġf ant
ig m
ist ing
íķ´ ì§Ħ
Ġë³´ ìĿ´
íĤ¤ ëĬĶ
Ġbi as
Ġhon est
ĠëĮĢë¶Ģë¶Ħ ìĿĺ
Ġíĺľ íĥĿ
ra it
Ġrese mb
Ġrespons ibilities
Ġkilomet ers
ĠS elf
ĠìŀĪ ìľ¼ë©´
Ġar c
Ġdesign ated
ib bean
ĠëĲ Ĳëĭ¤
eng ers
Ġê±´ ë¬¼
ĠIll inois
ĠT urn
Ġal umin
qu es
ĠL ine
Ġenc ounter
Ġreflect s
Ġsurpris ed
Ġhosp itals
ĠP L
ë° ¥
ĠìĹħ ì²´
red it
Ġcl ouds
Ġë¬ »
íĬ¸ ëĭĪìĬ¤
ne a
Ġìĥģ ìĬ¹
ĠCol on
Ġsect ors
ĠìľłìķĦ ìļ©
íĬ¸ ë¡ľ
ĠìĬ µ
Ġêµ¬ íĺĦ
pect ives
Ġdischar ge
ĠB u
ĠN ic
Ġpl asma
ord inary
ub ble
Ġamong st
ĠUr ban
y es
it us
Ġm issions
Ġre vers
ìĿ´ ìĿĺ
ĠW riting
un ning
Ġar thritis
êµ¬ ìĿĺ
ĠAn cient
ê»ĺ ìĦľ
ucle ar
Ġíľ´ ëĮĢ
Ġâĸ ²
P P
d ate
ĠS us
du ate
ĠìĹ¬ ìľł
Ġdem ocratic
Ġìłģ ìłĪ
ĠKen nedy
Ġal ert
ik a
Ġíķĺ ëĬĺ
ĠSt ory
Ġsc ales
Ġoil s
ì¶Ķ ì²ľ
Ġfav our
Ġê° ¤
ĠL G
Ġìĭ ±
Ġwhen ever
ë¥¸ ëĭ¤
Ġë§ŀ ëĬĶ
Ġdynam ics
Stud ents
st ep
ĠA h
Ġdo ors
ater nal
ĠìŀĲ ëŀĳ
Ġëħ¼ ìĿĺ
Ġcra ck
Ġf raction
ĠT el
exp ected
Ġguarant ee
ot ypes
ĠD ue
ĠUn like
Ġrece ives
Ġsuggest ing
Ġemploy ee
Ã ¨
Ġëĭ¤ ëĭĪ
Ġrel ating
ĠìŀĪìĸ´ ìļĶ
Ġseason al
Ġinsp iration
Go ogle
eli hood
ĠR en
Ġk g
Ġthem es
ĠìŀĲ ë³¸
Ġ5 7
Ġcollect ing
Ġë³ĦëıĦ ë¡ľ
ay lor
Ġdis h
ĠTh ird
ĠìĻĦ ë£Į
Ġcorpor ate
c or
e ven
Ġ @
Ġg est
Ġê¸° íļį
Ġpopular ity
Ġmag azine
ìĦ ¯
um ns
os aur
ĠìĿ´ íķĺ
Gen eral
ìķĦ ëıĻ
ìĭ¬ íŀĪ
o is
it le
ph al
Ġì£¼ ê³ł
ìĦ¸ ë¥¼
Ġchar ges
Ġalong side
Ġì±ħìŀĦ ìĿĦ
ĠBudd hist
Ġmetab olic
6 00
W ind
Ġman agers
row th
Ġdescrib ing
Ġê²¨ ìļ¸
C R
en za
ab ling
ĠG r
Ġk nee
íĮ Ķ
Ġë§¤ ìĽĶ
Ġexhib ition
Ġinstall ation
Ġs elling
is ations
Ġp or
ê¸° ëĬ¥
ì¹ĺ ê³ł
Ġë§İ ëĭ¤
Ġassoci ations
ĠëĤ´ìļ© ìĹĲ
Ġcam eras
Ġrain fall
ĠëĮĢíķ´ìĦľ ëĬĶ
Ġëĭµ ë³Ģ
ã Ħ
Ġíķĺ ìĺĢëĭ¤
ple x
Ġexp ort
cept ions
ĠìĥĿê°ģ ìĿĦ
istic ated
Ġìķŀ ìĦľ
Ġconsequ ence
Ġprev ents
ĠMississipp i
in ite
Ġh ung
ĠC N
ĠF A
Ġ4 9
rib le
Ġpredict ed
Ġrhyth m
ĠTurk ish
ob ic
ĠComp uter
Ġadj acent
Ġconflic ts
ĠGard en
u ct
Ġre nt
ĠH ig
ëł¤ ëĬĶ
Ġspread ing
Ġconsist ently
Ġquant ities
Ġincorpor ated
Ġm ask
ĠB ell
ĠìŀĪëĬĶ ì§Ģ
Ġìĸ´ ë¨¸ëĭĪ
Ġstru ck
imens ional
ag le
ĠJ ack
Ġìĭľ ë¦¬ì¦Ī
Ġíķĺ ê²Į
form ed
ìĹĲê²Į ëĬĶ
ĠíĬ¹ ìĦ±
Ġì°¨ ìĿ´ê°Ģ
Ġarr ival
ĠChar l
es ium
ĠH indu
Ġr ough
Ġmor ph
Â ©
as hed
Ġexpand ing
ĠPhys ical
Ġp roud
Ġd oses
ĠH aving
íĥ ĳ
Ġ4 7
ĠíļĮ ìĤ¬ëĬĶ
Ġexc av
ĠCons ider
Ġburn ed
Ġswim ming
D is
e fficient
Ġv om
ĠD esc
iet h
ìĭĿ ìľ¼ë¡ľ
ë¶Ħ ìĹĲ
Ġext ens
ëĭĺ ìĿĢ
pro fit
Ġtoler ance
Ñ Ĥ
Ġsh ade
ìĭľ íĤ¨
ìķĪ ìĹĲ
ĠAd am
Ġfib ers
Ġv ag
ĠìĤ¬ ë§Ŀ
Ġê·¸ ëĵ¤ìĿĢ
Ġíķľ ëĭ¤ê³ł
lect ric
Ġisol ation
ĠBet ween
v ol
âĢĿ )
erm at
Ġìĺ¤ ìłĦ
Ġn inet
In tern
itz er
it ic
ou lt
ĠL at
du ction
ì² ¨
Ġìĭľ ìłĪ
Ġì¡° ìłĪ
rid ges
Ġê¸Ī ìķ¡
ĠApp le
Ġplatform s
ĠJeff erson
on ly
ĠìĦ± ê³¼
Ġëĭ¹ ìĹ°
b urn
íĸĪ ìľ¼ë©°
ì¤ĳ êµŃ
Ġer osion
ê½ ĥ
F A
Y es
ou ri
Ġwe aken
Ġtrans plant
Ġcap s
Ġcam ps
ĠCult ure
ĠC all
Ġsub mit
Ġnum er
Ġaband oned
Ġconclus ions
et ically
Ġpro l
ĠH em
Ġìłľ ê¸°
Ġrep et
ëĭ¨ ìĿĦ
êµĲ íļĮ
Ġweek ly
Ġfa ult
Res earchers
Ġfertil izer
ct ors
ĠI de
ĠH an
êµ¬ ëĤĺ
Ġprov isions
Ġmy ster
ĠìļĶ ì¦ĺ
Ġìķ½ ìĨį
Ġë¹ł ë¥¸
Ġpestic ides
M od
T I
Ġ1 01
Ġthan k
Ġenzym es
it ate
ì¡° ê±´
gen er
Ġpu zz
Ķ ìĬµëĭĪëĭ¤
Ġl oud
íķ´ ìļĶ
ìłģ ìĿĦ
ëĤ´ ê°Ģ
com p
Ġaff airs
ustain able
Ġtw elve
ĠEm peror
ĠìķĦëĭ ĻëĭĪëĭ¤
Ġabund ance
Ġclust er
. ]
u ce
Ġre nder
nt il
ìĿ¼ ë¶Ģ
Ġopt ical
Ġsoil s
ĠApp lic
ĠëĤĺíĥĢ ëĤĺ
Ġalg ae
ĠëĬ¥ ëł¥
M B
P s
Ġp ale
ff e
ìłľ ëıĦ
Ġdigest ive
if ting
ĠìĤ¬ ëĬĶ
Ġcivil ization
ĠJer sey
ìĬ¤ëŁ½ ê²Į
Ġanalys es
Ġadolesc ents
ĠC T
ìĬ¤ ìĻĢ
íĭ° ë¸Į
ĠArab ic
c al
ĠH yd
ëħ ¼
Ġë°ľìĥĿ íķł
Ġë²ł ìĿ´
ĠíĮĮìĿ¼ ìĿĦ
ĠìĿĳ ìļ©
Ġsacr ifice
re ens
Ġf iction
Ġr anges
Ġman uscript
Ġapp l
ĠK ansas
Ġoff ices
Ġconf ront
Ġê°Ĳ ìĥģ
Ġsynt hetic
Ġmur der
c ase
Ġì Įĵ
Ġp ap
Ġth irty
ì§Ģ ìĻĢ
ê³Ħ íļį
Ġpat ent
Ġë³µ ìŀ¡
! )
Ġout l
ĠInd ones
Ġpost ed
ëĵ± íķĻêµĲ
Ġìĵ ´
sec urity
Ġê·¸ê²ĥ ìĿĦ
riz ona
Ġ ]
Ġm ile
ĠM onday
ĠP rom
ĠF le
Ġse gment
ìĸ´ ì§Ģ
íĺĦ ëĮĢ
epend ence
Ġbra ins
ĠìĿ´ë ¤Ħ
Ġn odes
Ġê°Ģ ìĬ´
ian ces
ious ly
Ġcomple ment
Ġconsist ing
.... ....
Ġstri king
Ġinvent ed
Ġphenomen a
v ae
Ġc ourage
le ar
om ous
ìĿ´ ë©´
ìĺĢ ëįĺ
Ġoffic ially
Ġtherap ies
Ġlik elihood
ĠClin ical
Ġh o
âĢ »
Ġatt itudes
Ġclass ification
ug s
Ch rist
ĠìĻĦ ìłĦíŀĪ
Ġpart ly
Ġph ones
ĠëĶ ±
ĠìĺĪ ë°©
ĠIs sue
Ġfore ver
Ġtherap eutic
B ack
ë Ń
Ġdel iber
Ġpun ishment
j ud
Ġ 00
ow ered
Ġv ice
íĻ Ģ
ĠEn ter
ĠTe xt
Ġflu or
Ġcollect ions
ĠSy ria
Ġëĸł ëĤĺ
rep rene
U D
Ġb orders
Ġth row
ĠS av
the y
ĠìĿ¸ê°Ħ ìĿĺ
as ia
ĠB on
ĠW W
êµŃ ìłľ
ëĤ´ ê³ł
Ġê°ĢëĬ¥ ìĦ±ìĿ´
Ġcr imes
Ġëģ ¼
W ell
Ġë¶Ģ ìĤ°
Ġìķŀ ìĹĲ
Ġspeak er
f ire
Ġo z
ĠR isk
Ġdes k
Ġìļ° ìĪĺíķľ
ĠHis pan
Ġabsor ption
ĠëĲ Ĳ
Ġsuggest ions
Ġeat en
ĠT enn
ìŀ Ķ
ĠM ind
Ġch amber
Ġent rance
Ġë´ ¤
ĠWilliam s
Ġbound ary
ĠWil son
Ġb its
ìľ¼ë¡ľ ëıĦ
Ġê°Ģ ìĥģ
Ġmin ister
Ġret urning
Ġì¶ľ ìĭł
Ġrepresent atives
ĠìŀĪìĹĪ ëįĺ
Ġwel come
ì ¯¤
Ġpro long
ëł Ģ
Ġ19 00
ree ment
Ġref rig
uss ion
de velop
ĠOther s
Ġâħ ł
ĠU k
Ġass ault
As s
j a
ri um
Ġê¸° ìĤ¬
Ġtra ding
Ġrep utation
ĠìĬ¤ íħĮ
ĠEx ec
str ate
icro soft
Ġì¢ħ ë£Į
Ġì¹´ ëĵľ
ES T
P DF
Ġm uc
ct s
th ood
Ġr h
ëĤ Ļ
Ġë§Į ìķ½
ĠìĻ¸ ìĹĲ
ĠStand ards
Ġl ibraries
Ġal tered
Ġë¬¼ ì§Ī
Ġachie ving
nes ota
ĠThe ory
Ġtra il
ì£¼ ì°¨
Ġgra d
ĠìĦł ë¬¼
Ġì¶ľ ìĹ°
Ġreview ed
an ium
ĠP ut
ry pt
Ġso y
Ġaward ed
P L
Ġc ig
ĠS n
ĠL ocal
ìķ½ ìĿĦ
Ġlast ing
ĠAm endment
Ġ197 9
Ġsurv iv
ĠLin ux
Ġë ĺĳ
st ers
Ġon set
ĠCar ibbean
ĠPol and
Ġp ediatric
st ic
Ġst abil
ĠD ub
Ġ5 2
ê°ľ ë¥¼
ĠìĿĺ ë¬´
ĠëĬ ¦
ĠëłĪ ìĿ´
Ġarg ues
ĠInt roduction
ĠDi abetes
Ġdut ies
Ġë ļ
Ġsome where
Ġgl ob
Ġorgan ism
Ġimpro ves
OR D
Ġë¿Ĳ ë§Į
Ġabund ant
Ġw ax
old s
Ġpur sue
Ġê²Ģ íĨł
!! !
ĠíĽ Į
Ġenh anced
Ġincorpor ate
Ġê³¼ìłķ ìĹĲìĦľ
ĠíĽĪ ëł¨
ĠìĪĺ ìĿµ
Ġprodu cers
Ġel ig
p m
Ġf les
ro le
ĠW ed
ê·¸ ëĬĶ
Ġcontain ers
Ġdefin itions
Ġíŀĺ ìĿĦ
Ġvot ing
ra id
ĠB ol
Ġcont rad
ĠSchool s
ĠìķĪìĭ¬ íķĺê³ł
Ġíĺ¸íħĶ ìĹĲ
Ġm arch
ê¸° íĥĢ
Ġdevelop ers
Ġsens es
Ġirrig ation
ìľĦ ìĿĺ
Ġê±° ë¶Ģ
Ġpot assium
Ġì¹´ íİĺ
d ess
Ġin ch
ìĺĪ ìļĶ
Ġemploy ers
Ġtow er
W ill
y r
ìķĦ ìķ¼
ìłĢ ìŀĳê¶Į
Ġë°Ľ ìķĺ
ĠìŀĪìĸ´ ìķ¼
ìĶ¨ ëĬĶ
comm un
Ġcontamin ated
M L
ĠH ay
ĠPh ilos
Ġaccount ing
ëŁī ìĿ´
Ġconnect ing
Ġmob ility
ĠNet her
ìĸ´ëĵľ ëĿ¼ìĿ´
Ġcos m
ĺìĿ´ìĬ¤ ë¶ģ
D ef
in ery
ct u
Ġì´Ī ê³łìĨį
erg art
ëĵ¯ ìĿ´
Ġë¹ĦìĬ· íķľ
Ġh am
ĠH op
ë¦¬ ê¸°
ĠìĤ¬ëŀĮ ìĿĦ
ĠPr ince
Ġrout es
Ġantib odies
ĠOnt ario
y o
Å į
Ġst ere
od a
Ġso vere
uls ion
Ġphysic ians
ĠMars h
ĠìķĬ ìľ¼ë©´
Ġgra ms
ìĿ´ëĿ¼ ëıĦ
Ġ194 5
ĠìĿ¸íĦ°ëĦ· ìĿĦ
Ġì¼ Ģ
ĠíĹ¤ ìĸ´ëĵľëĿ¼ìĿ´
] [
Ġh ol
ĠëĤ´ ìĹĲìĦľ
ĠAs h
Ġêµ¬ ê¸Ģ
Ġb uck
ist ically
Ġë¦¬ ì¡°íĬ¸
Ġcoll apse
Ġì§Ģê¸Ī ê¹Įì§Ģ
Ġìłķì±ħ ìĹĲ
id ers
ĠM other
ĠW ales
Ġíĥ ģ
Ġval ley
Ġë¶Ī íİ¸
ĠëĨ ĢìĿ´
Ġevalu ated
ĠDem ocratic
Ġattribut es
Ġd ying
ec onomic
ĠTh anks
ìĭĿ ìĿĺ
Th rough
atch ing
for ced
ëıħ êµĲ
Ġeth ics
Ġfing ers
Ġth reshold
ĠF ram
ĠìĪĺ ëĬĶ
ì¡° ìĦł
ĠìĦ± ê²½
ĠSh ould
Ġin ver
ĠìĿ´ íĥĪ
reat ment
Ġì§Ģ ì¼ľ
ëĲĺ ê¸°
Ġhealth ier
ues day
Ġdevelopment al
Ġëª» íķĺëĬĶ
ĠëĨĴ ìķĦ
Ġpoll ut
Ġimmun ity
Ġthe sis
ĠS ud
ĠìĨĮ ìĦ¤
Ġmem ories
Ġíĺ¸íħĶ ìĹĲëĬĶ
Ġë¬¸ìłľ ëĬĶ
ĠìĿĮ ë£Į
ĠìŀĪìľ¼ ëĭĪ
Ġmal aria
Ġabsor bed
Ġdiag ram
P D
ĠJ im
Ġpart ial
com pass
Ġret ain
Ġìłģ íķ©
urs day
Ġobvious ly
Ġflav or
Ġkit chen
ĠHit ler
Ġt y
ch ron
ĠP ain
ĠJ on
Ġìĺ ¥
ap ing
ons in
ĠInd igenous
Ġconf used
Ġfat al
ĠT ib
Ġatt ended
ĠSo ft
G S
R NA
d d
Ġcont rary
ëıĻ ìĤ°
best os
Ġo w
Ġp ests
ĠëĮĢ íĻĶ
Ġë°Ķ ê¾¸
Ġed ges
ë¶ģ íķľ
ĠGovern or
ĠRom ans
Ġsoph isticated
f ound
Ġp od
Ġf irms
ìľ¼ ë©´ìĦľ
ìĽ ħ
Ġpart ially
ĠK n
ìłĦ ê±°
ĠìĿ¸ ìĤ¬
ĠCon stant
ëĭ¬ ëŁ¬
Ġexc ited
Ġbroad er
Ġsett lers
Ġimmig ration
i ac
Ġp est
ĠT ree
ìĦ¸ ëĮĢ
Ġ198 5
Ġìļķ ì¡°
Ġconstitution al
Ġsucceed ed
Ġh arsh
ut ical
Ġpl acing
ear ly
ĠìĿ¸ ë¬¼
isc onsin
ë¦¼ íĶ½
Ġspeak ers
Ġë¹Ħë¡¯ íķľ
Ġê±° ì³Ĳ
Ġconsum ing
Ġreview s
Ġì·¨ ìĨĮ
Ġox ide
Ġagg reg
Ġe rect
ĠK im
hed ral
k g
Ġb ron
ĠT ro
Ġpl ates
ì¹ ¼
ìŀ¥ ìľ¼ë¡ľ
ĠPro per
Ġeconom ics
Ġpar ks
Ġëĵľ ëĿ¼ë§Ī
Ġw ake
Ġint r
ĠCh ap
Ġcirc les
Ġarr ive
wh o
Ġê°Ŀìĭ¤ ìĹĲìĦľ
Ġstrugg ling
ac on
Ġìłľ ìķĪ
Ġval ve
Ġë°©ë²ķ ìľ¼ë¡ľ
Ñ Ģ
ĠT ar
ĠA rizona
Ġv ine
ĠO cc
Ġall ergy
Ġ5 1
Ġìŀĳ ìļ©
ĠCar l
F inally
h ard
ot ten
ĠF ac
Ġìĺ¤ íį¼
Ġdist ribut
Ġëª© ìĨĮ
Ġpred omin
Ġvel ocity
G u
Ġtrans formation
íĴĪ ìĿĦ
íĹ ĺìĿ´
Ġdrop s
ĠAssess ment
ìĿ´ ê¸°ëıĦ
ĠA ud
ĠC ook
íļĮ ìĹĲ
Ġatt ain
rel s
Ġutil ized
Ġregul atory
ìĬ¤ íĶ¼
TM L
ĠB ush
Ġêµ¬ ë¶Ħ
orig inal
Ġd ivers
Ġint ra
ĠìĽĲ ìĿ¸
ari os
Ġapprec iate
Ġë°Ķíĥķ ìľ¼ë¡ľ
Ġd ried
Ġapp et
Ġtra cks
Ġacqu ire
Ġn ort
ĠS ep
ĠF uture
ìĭľ íĤ¬
ĠìķĦ íĶĦ
Ġpe ers
ìłĦ íķľ
yp ically
Ġprot est
ĠíĺĦ ì§Ģ
( )
k o
Ġwh ales
ĠP A
Ġíķľ íİ¸
Ġear ned
Ġeduc ated
ĠíĿ ĺ
Ġ198 4
ĠíĶĮ ëŀ«íı¼
Ġshel ter
Ġê·¼ì²ĺ ìĹĲìĦľ
is ition
Ġb inding
ĠR ay
ĠN E
Ġinf lation
Ġì£¼ ëª©
Ġcy l
ĠíĻķìĿ¸ íķł
Ġmole cule
ĠìĤ¬ìĿ´ ìĹĲ
Ġhoriz ontal
A nt
Ġt ied
ul ates
Ġë¹Ħ ì¹ĺ
Ġinvest ments
ĠPr im
Ġstret ch
um bers
ĠN a
ĠY es
Ġ5 6
Ġfound er
ĠìĭĿ ìĤ¬ê°Ģ
ios ity
gra de
Ġìł ĬìĿĢ
ê¹ ¨
Ġca ve
ĠWith in
Ġinj ured
Ġconven ient
d on
ĠN OT
Ġworks hop
ĠìķĦëĭ Ĳ
ĠF ull
ëŀ Ĳ
íĴ Ģ
Ġlo an
Ġë°ķ ë¬¼ê´Ģ
Ġë¨¹ ê³ł
, âĢĻ
ow ed
Ġex ch
ip ation
Ġcar ries
Ġprevent ed
Ġtradition ally
Ġì²Ń ëħĦ
ê° Ĵ
ĠJ ones
ĠCh ile
Ġìłľê³µ ëĲĺë©°
ê²© ìĿĦ
Ġcirc ular
sp ring
ĠìķĦëŀĺ ìĿĺ
ĠScient ific
ĠConnect icut
n ames
ĠB at
Ġsh ares
ell er
Ġimp ressive
ĠìĿ¼ ìłķ
ĠìĿ¼ ìĸ´ëĤĺ
ìľł ìĿĺ
Ġdev oted
Ġë²ł ìĬ¤íĬ¸
Ġcommand er
ĠíĻį ë³´
ĠMount ain
ins ula
ì¶ľ ìŀ¥
200 1
ĠOr der
Ġstra ins
ĠíĨł ë¡ł
Ġê°Ģìł¸ ìĺ¤
Ġsurve illance
Ġcarbohyd rates
å ®
im edia
Ġart istic
Ġdirect ory
ĠìĤ¬ëŀĮ ëĵ¤
íĿ ¡
Ġavoid ed
Ġconcent rated
Ġp ink
ĠN S
ìĭľ ëĭ¤
Ġun expected
ĠMin nesota
Ġê²°ê³¼ ë¥¼
H igh
Ã §
Ġí Ģ
Ġde leg
est one
Ġìłķë¶Ģ ìĿĺ
ĠìĿĢ íĸī
ĠMary land
quar ters
, ,
ìĭľ ëĮĢ
ĠìĪĺ ì¶ľ
ĠJ ean
Ġ7 2
inc ome
Ġìĥģëĭ¹ íŀĪ
v y
Ð ½
ĠD uke
ìĤ¬ ìĭ¤
Ġcont amination
ĠV ar
ĠìľĦ ìĽĲ
Ġmonth ly
Ġir regular
Ã³ n
at oes
is ons
oc ent
ĠìĿ¸ ìĥĿ
Ġê¸Ī ìĹ°
Ġattack ed
Ġdecre ases
Ġst ems
ĠTh ink
Ġmin i
ĠTe aching
Ġfit ness
do i
on ing
Ġw ages
Ġp ond
Ġìŀ Ĭ
ĠëıĦ ìĽĢìĿĦ
Ġì§Ħ ì§ľ
Ġê¹ Ķ
Ġassess ments
ĠCle an
ecess ary
W he
Ġìĭ¤ ëĤ´
ê²° ê³¼
Ġavoid ing
ult ure
ĠSt ill
Ġhistor ians
ĠPr int
ĠProt est
Ġtal ks
f old
Ġm ercury
Ġr ib
Ġfact ory
ê·¼ íĺľ
ric ane
Ġbl o
ëł¥ ìĿĺ
ìĿ´ëĿ¼ ë©°
Ġoper ational
Ġparticip ating
Ġimpl ies
Ġhun ger
å ħ
ĠíĶ¼ íĬ¸ëĭĪìĬ¤
ë²ł ìĿ´
Ġì¶©ë¶Ħ íŀĪ
ade qu
Ġlaw n
Ġsens ory
Ġdispl ays
ĠëĪĪ ìĹĲ
Ġcol umns
Ġgovern or
Ġequ ipped
Ġdr ives
Ġindic ating
Ġcamp us
ĠCD C
Ġdial ogue
ar ks
ĠC ase
ĠW alk
pl an
Ġì§Ģ ê¸ī
own ers
ì¡° ìĤ¬
Ġfem in
Ġcry pt
Ġìĭłìļ© ì¹´ëĵľ
t ype
ol lo
ĠM rs
ub le
ì° į
Ġassess ed
ëĪ Ī
Ġtim ing
Ġsubsequ ently
Ġn ick
ĠJ un
ace utical
Ġì§Ģ ë¶Ī
Ġke ys
Ġfree ly
Ġsam pling
Ġsitu ated
Ġnurs ing
Ġalgorith ms
D ep
F urther
ĠM uch
ĠP R
Ġíķľ ê¸Ģ
ìłĦ ëŀµ
Ġpres ervation
Ġ18 00
Ġupd ate
Ġtrib e
Ġdent ist
Ġh ills
em or
Ġsp ark
Ġres olve
Ġper mitted
ric s
Ġshe ets
ĠëĲĺ ëıĦë¡Ŀ
Ġfin ance
ëįĶ êµ°ìļĶ
Ġimplement ing
health y
W ater
n ia
ĠM arc
ist ent
ë¦ ħëĭĪëĭ¤
Ġat omic
ĠN ap
ĠL uther
ĠëĤĺ ë¥¼
ran ch
Ġhistor ian
Ġadapt ation
ĠMiss ouri
ĠD aily
Ġìłķ ìĽĲ
ëĵľ ë¦´
Ġë°ĺ ë³µ
u ction
ol ves
ê·¸ ëłĪìĿ´
ĠMat hemat
Ġth inks
Ġy es
th al
ë§Į ìĹĲ
Ġpr one
akes pe
Ġaccompl ished
Ġthor oughly
Ġìĺ¤ ëŀľ
Ġsoc io
Ġcal endar
Ġindepend ently
Ġstra w
Ġfert ility
on in
ly n
ĠC it
ĠI C
ob s
Ġobs er
ĠìĹ¬íĸī ìŀĲëĵ¤ìĿ´
Ġreserv oir
G A
ĠS her
ĠOr d
W orld
ĠF ollowing
ĠO il
ë¯¸ ëĶĶìĸ´
ĠìĨĮ ìĨį
Ġìĺ¤ íĶĪ
Ġsk ull
ris k
Ġgent le
ip h
ì¹ ¸
Ġdisc l
Ġdisc om
ĠìĤ¶ ìĿĦ
ĠëĤ® ìĿĢ
ĠSimilar ly
Ġaccord ance
Ġhygien e
ĠN Y
ĠStud ent
Ġinteg rity
Ġbroad cast
Ġb ull
Ġre h
Ġê²° íķ©
ĠìĽĲ ì¹Ļ
ĠInt eg
och ond
or b
Ġcon g
íĦ° ë¥¼
Ġìĭł ê²½
ĠRes earchers
ĠMat thew
akespe are
i ography
Ġbe et
ê°Ģ ìŀħ
ĠN ation
Ġìľ ¼
ë©´ ìĹĲ
Ġlar vae
Ġdef ines
Ġìĺģ ìĸĳ
Ġprom ising
Ġcalcul ations
Ġappoint ment
Ġalph abet
u v
un s
Ġcount ies
ëĭ¨ ê³Ħ
Ġname ly
Ġinfect ious
Ġj aw
Res earch
Ġpresc ription
Ġembed ded
r int
Ġg ear
Ġan throp
Ġv on
ĠF ront
Ġsp ine
ĠMe an
ĠìµľìłĢê°Ģ ìĻĢ
Ġb ite
Ġg ran
ĠB rain
ìĸ´ ëĬĶ
ĠëĤ ©
ĠìĨĮ ë¦¬
ik i
Ġë¶ģíķľ ìĿĺ
ĠNether lands
Ġc ensus
Ġb ark
au c
ĠëĴ ·
Ġìĸĺ ê¸°
f ront
z ant
í Ī
Ġ Ï
Ġb er
Ġd ow
ĠH om
ĠF ord
Ġgen etics
Ġbu gs
ĠìĬ¤ íģ¬
Ġess ays
Ġë¦¬ ëįĶ
Ġìĭ¬ ê°ģ
Ġaccomp any
Ġreject ed
L O
Ġh ide
ë¦¬ ìĺ¤
Ġë¶Ģ ìĹ¬
ĠBe ach
Ġsw allow
Ġ198 3
Ġtravel ing
Ġmanufacture r
Ġpros pect
ĠS leep
ĠW isconsin
ìĿ¸ ëĵ¤ìĿ´
íĻĶ ìĻĢ
ĠAf ghan
ĠGerm ans
Ġdisp ers
Ġshall ow
Pro f
Ġterrit ories
Ġpip es
Ġresident ial
u ine
in th
as a
Ġwas hing
Ġë¶Ģ ì°©
ator ies
Ġess ence
Ġcompl iance
Ġvacc ination
ĠìĭľìĬ¤íħľ ìĿĦ
ĠPhys ics
Ġpersist ent
i ating
ĠM and
Ġsh ipping
Ġen abled
Ġì¤ĳ ëĭ¨
Ġlab els
Ġdoct rine
ĠDiff erent
a ver
Ġh ack
ĠS em
ĠS ource
ĠH ung
ìĭł ìĿĦ
ë¥´ ê¸°
ë°° ìĨ¡
Ġpred ators
Ġrecomm ends
Ġtour ism
ĠCE O
b age
ê°Ģ ê³ł
Ġr ide
íĬ ľ
ëĲĺ ë©´ìĦľ
ĠAl tern
Ġimportant ly
Ġgr ants
ĠDav is
Ġqual ified
D R
Ġle ak
Ġcons ensus
íķĻ ìĿĦ
ìĭĿ ìĤ¬
ĠEx amples
íĭ° ì¼ĵ
ĠìĥĪ ë¡ľ
ĠRepublic an
ĠWork ing
Ġë³´ì¦Ŀ íķĺì§Ģ
ĠScient ists
ê°Ģê²© ëĮĢ
r ise
ĠM ong
Ġr ats
ĠìĪĺ ìŀħ
Ġcomp aring
tern oon
Ġì¡° íķ©
ĠLew is
E l
Ġbl adder
Ġë§Ī ìļ´íĭ´
Ġdiagn ostic
ĠOb ject
ĠEss ay
Ġdefect s
greg ation
effect ive
J an
h igh
Ġgener ating
ĠIs a
Ġë´ Ħ
nes day
Ġcontrovers ial
ĠBuddh ism
Ġl unch
Ġbe aring
ìĿ´ ëŁ°
ë¥ Ń
Ġinter medi
Ġche ese
Ġpar liament
Ġê³¼ ìłķìĿĦ
Ġì±ħ ìĿĦ
Ġdemonstr ates
Ġg aps
Ġind oor
Ġì°¨ ìĿ´
íıī ê°Ģ
roph ic
ĠPy thon
b one
ĠT raining
ĠB ridge
ìĭľ ë¥¼
Ġë¬ ĺ
Ġunder go
Ġê³ł íĨµ
ĠìĤ¬ëŀĮ ëĵ¤ìĿĺ
Ġel abor
ĠUS D
Ġì¢ħ íķ©
Ġì°½ ì¡°
ĠW in
ĠìłĦ ìĨ¡
íĻĶ ìĹĲ
Ġì¢ĭ ìĿĦ
Ġterm in
iot ic
Ġspeed s
Ġprogress ive
Ġsearch ing
Ġê³¨ íĶĦ
p o
ce eds
ĠP ay
Ġ5 3
ë¥´ íģ¬
ĠíļĮìĽĲ ëĭĺê»ĺìĦľëĬĶ
Ġdead ly
ĠPhil ip
s ome
Ġse w
ĠìĿ¼ ëĭ¨
Ġmed itation
ĠTe achers
Ġtrack ing
Ġdistingu ished
st orm
ol it
ëĵ Ń
ĠO pp
ps on
ì¦Ŀ ìĿĦ
ĠìĹ´ ìĭ¬íŀĪ
Ġdefe at
ĠPract ice
feed ing
Ġì¶ľìŀ¥ ìĭľìĹĲ
or ney
ìĿ´ ê³³
Ġhigh lights
Ġext rem
Ġìĺģ ìĹħ
Ġcap ability
ole cular
Ġport ray
Ġadvert ising
Ù Ĩ
Ġf ate
ver ages
ose x
Ġinv ited
ĠíĻĶ ìŀ¥
ĠMc C
Ġë²Ķ ì£Ħ
Ġafford able
Ġëĭ¤ ê°Ģ
ê°Ħ ìĹĲ
Ġìľł ìļ©
gg ed
Ġprotect s
Ġê·¼ ê±°
Ġnucle us
Ġoccup ation
Sp ec
rolog y
Ġaf raid
Ġl ying
ĠE nt
ëıĦ ìĻĢ
Ġsp erm
ìĭĿ ìĿĢ
ropri ate
Ġexpress ions
atur day
ĠíĻį ì½©
ĠìĹĲìĸ´ ì»¨
ìķĦ ë²Ħ
Ġìĭ¤ ì²ľ
ĠíļĮ ë³µ
Ġdest ination
Ġpoll en
EC T
Ġcontinuous ly
ĠDar win
Ġinequ ality
Ġw ed
ent ieth
Ġcol ored
Ġart if
Ġmult ipl
ox ide
sequ ently
Ġign ored
e av
Ġt anks
ĠM os
ĠP H
ĠW ars
ê¸° ê³ł
og ram
ìŀĳ ìļ©
Ġë°° íı¬
Ġê¸Ī ê³ł
Ġflood ing
inf lamm
Ġíİ¼ ì³Ĳ
in ition
Ġm ud
Ġl oyal
ĠA N
ĠAr m
ĠìĽĲ ëŀĺ
port s
ĠMar ia
Ġflu ids
Ġpath ogens
Ġdoll ar
ĠNaz i
Ġconfig uration
h ot
ow a
ĠU lt
Ġexpl ored
ock et
Ġë°Ľ ìľ¼
Ġrul ing
Ġbox es
Ġì»¨ íħĲì¸ł
c led
ĠL ind
Ġsp ir
Ġwor n
Ġprog ression
Ġdesign ing
Ġíħ į
Ġmyst ery
is ible
Ġcl oth
Ġ5 4
Ġë¶Ī ëŁ¬
Ġmet res
Ġhome work
Ġbul k
Ġexec ution
Ġìĭ¤ìĭľê°Ħ ìľ¼ë¡ľ
Ġbrows er
Ġoverwhel ming
y ard
el d
Ġen emies
Ġext inction
Ġdist ract
Ġrest ored
ĠArch ived
Ġantibiot ic
Ġdefe ated
ê º¼
Ġh ang
Ġgra y
yl on
Ġb or
Ġre nd
ra red
Ġse asons
ëĲ ¨
Ġem peror
ë¶Ħ ìĿĦ
Ġcond em
ĠìłĲ ìĿĦ
ĠìłĢìŀĳê¶Į ê³¼
Ġextra ordinary
Ġcompens ation
Ġo ught
or ient
id ae
ĠëĮĢ íĺķ
Ġout line
Ġíķĺ ìļ°ìĬ¤
ĠìłĦ ë°ĺ
ond ition
Ġrel atives
Ġpub l
Ġì¢ĭ ìĬµëĭĪëĭ¤
ĠëĤ¨ ìĦ±
Ġcr ust
Ġrefer ring
ĠInt erest
Ġutil ize
ê·¸ëŀĺ ìĦľ
r ange
ĠW HO
ĠF low
ìĸ´ ëĸ
ëł¥ ê³¼
ë°Ķ ë¡ľ
az e
ogn ition
Ġhard ly
Ġterm inal
Ġsust ained
ĠSch olar
Ġsequ ences
ĠPsych ology
Ġimper ial
Ġgather ing
Ġexped ition
Ġê º¼
ĠB h
Ġr ings
form ance
Ġê²° ë¡ł
ik ing
Ġpath ways
Ġnewsp apers
ĠMove ment
ë ķ
em ed
ëĮĢ ëĬĶ
Ġacc idents
ëĭ¹ ìĿĺ
ES S
Ġassist ant
ĠFore ign
Ġinject ion
ĠTib et
N et
ĠT y
Ġë§ ¨
Ġëĭ¤ ìĿ´
Ġwrit ings
Ġíļ¨ê³¼ ë¥¼
Ġdin ner
Ġye ast
ĠSym ptoms
Scient ists
B D
ĠH u
ìĭľ ì¼°
Ġfeature d
Ġìĺ¤ëĬĺ ëĤł
friend ly
L ook
ĠS ens
Ġde hyd
ĠìĿ´ ìĬ¤
Ġshould n
Ġop ens
ĠEx erc
ì¹´ ìĺ¤
Ġmass es
isp here
Ġl apt
ĠT aylor
im en
Ġnot able
ì²ĺ ë¦¬
Ġdiscom fort
Ġ es
Ġ1 30
ĠP ath
Ġen act
Ġen lar
ust er
Ġins pect
Ġlo op
Ġë³¸ ê²©
Ġê³łê°Ŀ ìĿĦ
Ġconduct ing
Ġmut ations
íķĺëł¤ ëĬĶ
Ġax is
I O
n on
Ġt rick
on ent
ĠT an
ìĿ´ ìĥģ
ĠS A
ĠD om
Ġdep r
sc reen
Ġìķ½ ê´Ģ
Ġtele phone
Ġarrange ment
ĠC ensus
Ġsub mitted
ues e
Ġ197 5
iv als
ĠF a
ĠìĤ¬ ìľł
Ġattract ed
Ġmir ror
Ġb ills
Ġcomm ands
Ġsur re
ĠëıĻ ìĺģìĥģ
Ġìŀ¥ ì¹ĺ
Ġfol k
Ġë£¸ ìĦľë¹ĦìĬ¤
' '
ĠC ore
ĠìĹĨ ëĭ¤ëĬĶ
ĠíķŃ ëª©
Ġadminist ered
ì¤ įëĭĪëĭ¤
Ġwire less
B oth
at re
ë¦¬ ì¼ĢìĿ´ìħĺ
Ġcomple tion
Ġê°Ļ ìķĦìļĶ
Ġì°¨ ë³Ħ
Ġmut ual
ĠVol ume
Ġë¹¨ ë¦¬
ergart en
c at
Ġg ains
ĠP aper
ĠH as
íĶĦ ëĿ¼
ĠGu id
Ġì£¼ìĿ¸ ê³µ
ĠS earch
Ġëħ¸ íĬ¸
ëĳĲ ê³ł
ĠìĹĲ ìĦľ
Ġceleb ration
ĠíĴĪ ì§Ī
Ġthor ough
Ġelectron ics
Ġì§Ħìĭ¤ ìĦ±ìĹĲ
ĠS a
are r
ress ing
Ġìłģ ìĿ´
Ġëĵ±ë¡Ŀ ìŀĲìĹĲê²Į
m akers
v als
ĠH ong
ĠìĪĺ ë°±
Ġê°ľ ìłķ
Ġ7 00
Ġ198 2
ĠìķĦìĿ´ íħľ
Ġë°©ìĭĿ ìľ¼ë¡ľ
Ġdiarr hea
s ized
ìĤ¬ ëŀĳ
Ġres on
ber ries
Ġìŀ¥ ê¸°
âĢ¦ .
Ġíļ į
Ġê°ķëł¥ íķľ
Ġal ien
ĠDe ath
Ġfrequ encies
Ġíģ¬ ë¦¬ìĬ¤
Ġì¹¨ íķ´
Ġprec ision
Ġê¸¸ ìĿĦ
Ġhaz ards
Ġmarg inal
S P
ĠS ac
ìķ Ĭ
ĠìĿ´ ìĻ¸
Ġê² ģëĭĪëĭ¤
ĠìłĦ íķ´
ë£ ¡
ìļ´ ìĺģ
ran k
Ġê°ķ íķľ
ê´ĳ ê³ł
Ġ196 9
Ġê¸°ì¡´ ìĿĺ
Ġê± ·
êµ¬ ë§¤
Ġfro zen
Ñ ģ
ĠArch itect
ĠëŁ °
Ġrub ber
i ens
i atric
ĠC R
ë¥ Ļ
ess ional
Ġapp s
ĠìľĦ íĺĳ
Ġë¶Ī ìķĪ
Ġë¹ł ë¥´ê²Į
ĠëĮĢíĨµëł¹ ìĿĢ
Ġtox ins
Ġintellig ent
Ġsympt om
ĠLt d
Ġ rom
Ġb ind
Ġy ard
ìľĦ ë¡ľ
Ġris es
ĠCent ers
Ġfall en
Ġpay ments
ĠìĻķ ë³µ
ch a
Ġë° ĳ
ag ger
Ġdis put
Ġz inc
ĠEth iop
M E
Ġs le
Ġp ine
Ġhe al
Ġê¸ į
Ġdi ver
Ġdeterm ination
Ġdom inated
Ġlib erty
Ġmist ake
osa urs
g ram
ar ians
om on
et erm
art icles
ë³´ ìĦ¸ìļĶ
Ġun ity
Ġì§Ħ ì¶ľ
Ġoccur rence
ĠLe ague
Ġdig it
ĠAust ria
ĠíĮ¨ íĤ¤
Ġreserv es
oult ry
h r
Ġimp ression
Ġëį §
Ġì¡° ìĦ±
ìłĲ ìĹĲ
% ),
F ind
o il
Ġbo ards
Ġge ographic
Ġcateg or
ëĿ¼ìļ° ìłĢ
ĠStep hen
ĠSwed en
role um
il ly
Ġre ar
ĠH ur
ur up
ĠìĦ ¹
Ġinflu ential
Ġhyper t
Ġincl usion
ĠStat istics
Ġtrem end
p ost
ìł ¤
au nd
Ġaccess ed
ì½ ¤
Ġmosquit o
ĠCorpor ation
A g
ì§Ģ ê²Į
Ġrem emb
Ġsub tle
Ġbat tles
AR T
Ġlif t
ìĶ¨ ê°Ģ
at ile
ĠD id
ĠK ong
Ġìľł ìĿ¼
inc ial
ĠAll ah
do ors
H is
Ġp ushed
ĠN umber
art s
Ġìĥģ ì§ķ
Ġillust rated
bur gh
Ġvom iting
b et
u z
ĠM i
ĠThe rapy
íļĮ ìĹĲìĦľ
ĠAn imal
ĠëŃ Ķ
Ġdisapp ear
Ġunem ployment
b ro
n ings
ĠT alk
ê² Ĳ
ov ed
Ġpr iest
ìħ ĺìĿ´
ĠInd ividual
Ġir re
Ġt ired
ĠG er
ry ing
Ġover look
Ġìĸ´ ì©
Ġdrain age
onym ous
n i
y an
Ġ ic
le ton
Ġn ic
ig ration
êµŃ ë¯¼
Ġent reprene
app y
Ġê±¸ ì³Ĳ
ìĭľíĤ¤ ê³ł
ig ma
Ġan at
ĠN ep
Ġsh ield
ìĸ´ ìĿĺ
Ġì§ ľ
Ġdiscover ies
Ġstorm s
Ġê´ ´
p y
Į į
Ġh ill
ur ated
ĠN ame
Ġnecess ity
Ġíģ´ ëŀĺ
ĠInt ellig
Ġpromot es
Ġëį°ìĿ´íĦ° ë¥¼
Ġtransform ed
Ġgun s
an ol
Ġg ums
ĠI ron
the ning
Ġport ions
Ġê¶Į íķľ
Ġmom ents
Ġa ster
Ġ1 10
ĠH unt
Ġgra ce
Ġìŀ¥ ë©´
ĠRes erve
Ġ197 3
ĠIm port
Ġemer ge
Ġaccept ance
ĠíĸĪ ëįĺ
Ġemp ower
Ġscen es
Ġalle ged
Î ¿
st ud
íķĺ ìĿ´
Ġal ike
Ġch ron
ìĸ´ ëĵ¤
Ġíķ´ ë³Ģ
Ġpat ri
con n
els on
Ġteac hes
Ġgre y
ush ing
ëĳ ¥
ĠBel g
Ġfurn iture
Ġepis ode
d imensional
ĠN C
ìłĦ ìĿĺ
ĠìĿ¼ ìĥģ
Ġloc ally
Ġcor al
Ġê²½ìļ° ëĬĶ
Ġë§¤ ì¶ľ
az a
Ġleg acy
Ġscen arios
O b
Ġf illing
ĠH on
ĠG iven
ë£ ©
Ġorgan isation
ĠCon c
ĠLe on
ĠìŀĲìĭł ìĿĦ
Ġchap ters
p en
Ġp ec
Ġg erm
Ġhe pat
ĠH P
Ġencoura ges
Ġsevere ly
Ġweap on
Ġstead y
n atural
ĠS QL
ay ing
ìĦł ê³¼
ĠRep resent
Ġarr anged
ê´ Ħ
ick ed
ìľĦ ê°Ģ
Ġëħ¸ ì¶ľ
Ġê°Ħ íİ¸
ìķł ìĻĦëıĻë¬¼
Ġsynt hesis
D C
f are
Ġc ope
ar ter
Ġg ifts
ĠC hemical
ê° Ķ
Ġad mitted
Ġinst ant
gen eration
Ġìŀĳ ê°Ģ
dom inal
Ġíĺ¼ ìŀĲ
Ġarrest ed
M on
Ġ ç
re ll
Ġf rog
ĠC old
Ġë§Ĳ íķĺëĬĶ
Ġfle et
ëĿ¼ìļ° ëĵľ
Ġdegrad ation
Ġto mb
ëĿ¼ ë©°
In ter
Ġpublic ations
Ġë§¤ ëł¥
Ġgold en
Ġê½ ¤
Ġì¡¸ ìĹħ
urup Island
¼ ìª½
ar ium
Ġm art
Ġfor b
ĠB ow
ĠB alt
ĠH o
Ġcomp at
ì£¼ ë¥¼
Th ough
Ġmet er
Ġì¶Ķ êµ¬
Ġdistinct ive
Ġthick ness
ĠìĨĮë¹Ħ ìŀĲ
Ġincred ibly
Ġninet eenth
e ared
Ġdist ances
íķĺìĺĢ ê³ł
lar ation
Ġnerv es
Ġt ang
as se
Ġen compass
ine a
íĬ¸ ìĿĺ
we et
Ġmon ument
the re
Ġmult ip
ĠëķĮë¬¸ ìŀħëĭĪëĭ¤
Ġmodel ing
I E
Ġde ce
Ġse iz
ëĿ¼ ìĦľ
ëĤĺ ëĭ¤
ĠCh all
ne g
ĠìĻ Ķëĭ¤
Ġë¶Ī ê³¼
Ch ildren
Ġê³³ ìĹĲ
Ġ196 7
Ġconserv ative
Ġdim ension
ĠExec utive
n als
Ġí Ĩ
Ġorgan ize
Ġcontribut es
Ġassum ptions
ĠìĹ¬ê¸° ìĦľ
M ake
Ġ !
Ġn urse
ĠP arents
ge red
ëĵ ¬
vel t
Ġíĺ Ĳ
Ġco inc
Ġreal istic
Ġdiscuss ing
Ġíĸ¥ íĽĦ
Ġê°Ī ëĵ±
Ġtim ber
Wind ows
ê² ģ
Ġê·¸ ëķĮ
Ġëª¨ ëĭĪ
ĠìĿ´ìļ© íķľ
Ġser vers
Ġcat ast
Ġinteg ral
Ġìĭłë¶Ħ ì¦Ŀ
Ġto ys
ĠM ission
ĠR us
au g
Ġpres um
ê±° ëĵł
ivers ary
ìħ ī
ĠSh ort
Ġpath s
Ġexec uted
Ġsusp ected
Ġod d
h uman
ĠS el
ìĦ ¬
ë¬´ ë¦¬
ĠìĿĺ íķĺìĹ¬
Ġflow ing
ĠëĿ¼ ëĬĶ
ĠPr ime
ĠÂ °
Ġexclus ively
A ug
he astern
Ġp anc
Ġin adequ
Ġm apping
Ġl y
Ġë¶Ģ ëĵľ
Ġtrans f
Ġdet erior
Ġê· ł
ĠIm per
new s
Ġëĭ¹ìĭł ìĿĺ
ĠVis ual
Ġepid em
u ilt
Ġ âĢĻ
Ġv ow
vel ength
Ġë¹Ħ íĸī
Ġpolit icians
ĠíĶ¼ ë¶Ģ
Ġcat aly
ĠQu estions
Ġshad ow
ĠNever theless
Eng lish
Î ½
ĠE vent
Ġen abling
Ġ5 9
ĠUn it
ĠBy zant
Ġdang ers
Ġëī´ ìļķ
Ġdism iss
Ġë©ĶìĿ´ ì»¤
ìĿ´ ìķ¼
ĠëĮĢ ìĦł
ĠìŀĲ ìłĦê±°
ëŁ¬ ë¦¬
Ġexp end
Ġca ffe
ĠAn ne
Ġìĭ¤ íĺĦ
eg u
íĺķ ìĿĦ
Ġcolle ges
ĠPol ish
Ġrepeated ly
P M
or se
Ġshould er
Ġë© °
ĠSh akespeare
ĠBar b
Ġê´Ģìĭ¬ ìĿ´
Ġaf ternoon
Ġcritic ism
Ġincred ible
Ġì»¤ë®¤ëĭĪ íĭ°
ac ular
ĠR A
ĠQ ur
Ġìĺ¬ ëł¤
Ġemp ir
Ġthr ive
Ġê²½íĹĺ ìĿĦ
ĠVictor ia
ĠF ig
ĠìĿ´ ìĿµ
ìĭľ ìĿĺ
Ġì§ ĵ
ĠK at
Ġcare g
ĠëĤ¨ ê²¨
Ġillust rate
ĠSam uel
íĶĦë¡ľ ê·¸ëŀ¨
Ġsole ly
H ave
W S
i ors
Ġm i
ĠP as
ĠV ill
ĠìŀĲ ëħĢ
Ġ5 8
Ġunt o
ìĺĪ ìĪł
Ġparticip ated
Ġtext ure
Ġcat al
Ġbreak fast
Ġbr ill
ĠUnder standing
ĠíĥĦ ìĥĿ
F l
Ġas ks
ìŀĲ ë¦¬
ount ered
ìĿ¼ ë°ĺ
ìĦ¸ íķľ
Ġbeh alf
Ġì¤ĳêµŃ ìĿĺ
Ġign ore
Ġhazard ous
Ġcorrel ation
Ġappet ite
l ings
p ers
Ġg au
ĠY ears
Ġvot es
ĠBook ing
ĠMount ains
Ġgalax y
ê·¸ëŁ° ëį°
Ġë°ĶëĢ Į
Ġm es
ra c
ĠB ru
Ġem it
íĽĦ ê¸°
ĠComm and
Ġê·¼ ë¬´
l ink
s ur
v asive
he res
st ead
Ġhe ter
ĠF all
ak h
te enth
Ġfe ather
Ġìľł íĨµ
ĠìĦ¸ ìĥģ
Ġinvest ors
Ġì²´ ê³Ħ
Ġíı¬íķ¨ íķľ
Ġcook ed
are st
ìĽĶ ìĹĲ
Ġìłķë³´ ëĬĶ
Ġìŀĳ ëıĻ
Ġstim ulate
Ġdream s
ĠDou gl
Ġresc ue
D L
ĠE dition
ë¦¬ íķĻ
act ic
Ġres erve
int on
Ġgen uine
Ġpr ies
Ġpr ide
Ġdec ent
up iter
ĠBe havior
ãģ Ħ
ĠìĨĲ íķ´
Ġsil icon
Ġbott les
ĠT ok
Ġover se
Ġclass rooms
Ġê²Ģ ìĤ¬
Ġstop s
Ġíģ´ ëŁ½
Ġfif ty
Ġacknow ledge
Ġelectro ly
Ġtub es
Ġfles h
ab etic
Ġpass ive
ëįĶ ë¥¼
Ġenc ountered
ĠFre edom
ĠCapt ain
e ous
s un
Ġl ith
Ġl unar
ìĦľ ìĿĺ
ke ys
ĠN at
Ġins u
ik es
Ġë°Ľ ìķĺëĭ¤
Ġpoor ly
ĠM es
ose velt
ê³µ ê°Ħ
Ġì£¼ ë°©
Ġorgan isations
Ġmet eor
Ġpick ed
ĠíĽĮ ë¥Ń
ĠM oh
ĠìĹ ĺë¦¬
ë¹Ħ ê°Ģ
ìłĦ ìĿ´
íķĺìĹ¬ ìķ¼
Ġsk illed
Ġmark ers
Ġdecl ined
âĳ ł
Ġconj unction
Ġalumin um
H ar
e z
op t
ile y
ĠY ellow
Ġpres chool
ĠìĿ´ìļ© ìŀĲ
ash ing
Ġê³Ħ ìĤ°
ĠëĮĢíĨµëł¹ ìĿ´
ëĳ ĺ
Ġë©ĭ ì§Ħ
R ed
id ge
ĠS ix
ĠìķĮ ê²Į
Ġ197 6
ĠPM ID
S E
il ateral
ol as
ĠC C
Ġsk et
Ġsaf er
Ġë°° ì¹ĺ
ìħĺ ìĿĦ
Ġindic ators
Ġinher ited
thod ox
¾ ¼
Ġre n
Ġfollow ers
Ġëĭ¨ ì§Ģ
Ġëıħ íĬ¹
Ġang ry
ĠGra de
ë Ĵ
Ġs au
or ie
ĠB io
ìĥ ¤
Ġë³´ íĹĺ
íİ ľ
Ġmet ap
Ġoper ators
ëģ Ĺ
Ġinvestig ated
Ġrevolution ary
F T
w orm
ĵ Ĵ
ĠA T
ìĹĲ ë§Į
Ġê°ľ ë³Ħ
ps y
in ian
ëį ´
Ġê¸° íļĮë¥¼
Ġbl acks
ĠíĮĮ íĬ¸
Ġrecept ors
B el
s l
¤ ë²Ħ
Ġcomm od
Ġgen etically
ëģ Ħ
Ġìķ½ ê°Ħ
Ġdiagn ose
Ġê°ĸ ì¶ĺ
Ġìłķë¶Ģ ê°Ģ
ht m
O U
g rim
ī ìŀ¥
ĠT ax
ĠR and
ĠG reg
ìłľ ìĹĲ
Ġsee ks
ĠBas ic
Ġpu pp
Ġshop ping
N ext
ĠD un
ĠìĤ¬ ìĥģ
Ġë¹ ħ
Ġconvers ations
Ġepid emic
ĠDen mark
Ġrelie ve
b acks
ro b
ê³ł ë¥¼
Ġë° ¥
ord an
Ġqu ote
ĠíĨµ ìĿ¼
Ġcheck ing
Ġvot ers
ìĿ´ ë¡ł
ĠF OR
Ġk ings
ì¹ĺ ë£Į
Ġ6 6
eng u
Ġlo ans
ĠìĹ´ ê¸°
Ġì§ĳ ëĭ¨
Ġcheck ed
Ġtravel ed
Ġë°ľìĥĿ íķĺëĬĶ
ĠAv ailable
Ġreprodu ction
Ġt orn
un cture
sh ore
Ġrot ation
Ġphr ases
ĠCP U
+ +
Ġc od
ĠC ru
Ġas bestos
Ġgen us
Ġëª¨ ìķĦ
ug ar
Ġfac ial
Ġnob le
ograp her
Ġs el
ab ama
Ġëĭ¤ ëħĢ
Ġanal og
Ġfar mer
ann a
go vern
ĠìĿ´ìľł ë¡ľ
Ġmicrob es
swe red
it ored
Ġb eds
íķ Ģ
ro ck
as al
ĠP ow
Ġab road
ìĽĲ ê³¼
ìĭĿ íĴĪ
ëĭ¹ ìĿ´
Ġret reat
Ġfil ters
Ġ197 2
Ġorigin ated
ë°Ľ ìĿĢ
Ġpreval ent
ĠìĿ¸íĦ° ë·°
E urope
as ures
ĠL ic
ĠK it
Ġexp enses
ëħĦ ìĿ´
Ġdam aging
Ġê·¸ëŁ¬ íķľ
Ġpack aging
Ġvac uum
f ather
o en
ë ļ
Ġst uck
ìĭ ¼
ĠìĪĺ ìĪł
ors hip
Ġìłľ ìĿ¼
ê´Ģ ê´ĳ
Ġexpl aining
ĠíĺĦ íĻ©
Ġ197 4
Ġassum ption
ĠST EM
Ġì¢ĭìķĦ íķĺëĬĶ
Ġinflamm atory
ëĿ¼ ìĹĺ
Ġê¸° ìĹ¬
ëª ½
ë§Ī ìĿĦ
Ġì¡° ìłķ
ĠëĶ° ëľ»
Ġeconom ies
Ġvol umes
Ġëĭ¬ ìĦ±
Ġtit les
Ġincor rect
Ġë¬´ìĹĩ ìĿ¸ê°Ģ
u f
ĠB ah
ĠR ose
ĠF ive
ĠG rant
ìĬ¤ íĦ´
ĠSt one
oth y
íİ¸ ìĿĺ
Ġsurv iving
ì¡Į ìĬµëĭĪëĭ¤
íĺ¸íħĶ ìĹĲìĦľ
h ops
Ġìĺ Ľ
Ġwar mer
O ct
il er
om ical
Ġbe am
ĠS ite
Ġch a
ĠN i
Ġpo ems
íĮ ©
ĠìĦľ ë¡ł
ê¹Įì§Ģ ëĬĶ
ĠMar g
Ġden ied
Ġbelong ing
Ġcoord ination
ĠAcc ount
Ġ icon
ic ides
ëį° ìĿ´íĦ°
Ġposs ession
Ġeduc ate
ìķĺ ëįĺ
Ġíĺ¸íħĶ ìĿĺ
Ġë°©ë²ķ ìĿĢ
Ġmount ed
ĠMark et
Ġcounter part
Ġlic ensed
y t
Ġint ensive
pl us
Ġë¬¸ ìĦľë¥¼
ĠìķĦëĭĪ ë©´
Ġdra g
Ġì§ģ ìĹħ
Ġìĭľìŀĳ íĸĪëĭ¤
ĠìĤ´íİ´ ë³´
ĠDie go
ic ul
ĠG ir
íĬ¸ ê°Ģ
Ġë³Ħ ë¡ľ
Ġdiv or
ĠLar ge
ĠFred er
ìĬ¤ íħĮ
ìĿ¼ ê¹Į
Ġsupp lied
Ġgu ides
íķ¨ ìĿ´
Ġthr one
ĠIndust rial
on ics
th s
Ġch ip
Ġme ets
ĠWh it
Ġì²´ ê²°
ĠëĬĲëĤ Ħ
Ġprotocol s
> >
M M
d am
ĠL ower
ard ing
Ġag enda
ëħĦ ìĹĲëĬĶ
ĠìķĬ ëĤĺìļĶ
ĠêµŃ ë¦½
Ġview ing
Ġìĵ° ëĬĶ
ĠProt ocol
ĠíĻĺìĺģ íķ©ëĭĪëĭ¤
ĠC opyright
ĠP ap
op ath
ĠB an
ĠO pt
ph ones
ì¡° ì§ģ
Ġnorm s
Ġ197 8
ĠìłĪ ì°¨
ĠAD HD
T ake
ìĹĲ ìļĶ
íķĺ ëĭĪ
íķľ íħĮ
ak i
Ġëĭ¤ ë£¨
Ġph ases
ĠìĤ¬ìļ© íķĺê³ł
Ġê°ĢëĬ¥ íķĺëĭ¤
Ġindic ator
Ġstress ed
Ġcross ing
Ġdisp ute
ëįĶëĿ¼ êµ¬ìļĶ
ĠìħĶ íĭĢ
P at
h our
qu in
ĠU C
Ġev ac
ëħĦ ìĿĺ
Ġ6 3
ĠëĪĦ ëĿ½
ĠEduc ational
Ġfresh water
ë¥´ê³ł ìĬ¤
Ġfra ud
Ġcompass ion
ol ly
ĠC ape
em et
Ġê·¸ ë¦°
Ġsim ulation
ìŀĪ ìĬµëĭĪëĭ¤
ëĲľëĭ¤ ë©´
Ġìŀ¥ìĨĮ ìĹĲìĦľ
Ġdepart ments
H T
Ġs ore
Ġë ®¤
Ġan ch
Ġv iable
ĠL ove
Ġê¸° ëıĦ
ë¶Ħ ìķ¼
Ġsec ular
ĠíĶĦ ëłĪ
sp e
Ġprop os
ĠMill er
Ġvolcan ic
Ġìĭ «
ìķĦ ëĳĲ
ëª ĩ
Ġtra ged
ì¹ĺ ì§Ģ
Ch ar
is hers
ut y
ĠS ex
Ġwh ilst
ĠD VD
Ġfe e
ĠëĤĺ ìĻĶ
Ġpers pectives
Ġë¡ ł
ĠAp ollo
ĠìĿ´ëĤ´ ìĹĲ
Ġrac ism
Ġcas ual
B L
el and
ë¡ ±
Ġle ct
Ġar bit
Ġob sc
ìĿĮ ìĿ´
Ġread s
Ġë¶Ħ ë¦¬
Ġcy cl
ĠìłĲ ìłĲ
Ġharm ony
ĠìĿ¼ë°ĺ ìłģìľ¼ë¡ľ
Ġê°ľìĿ¸ìłķë³´ ë¥¼
ĠDec laration
Ġwealth y
Ġinstitution al
Ġp neum
Ġm akers
ĠU RL
Ġê¸° ëıħêµĲ
Ġkid neys
Ġcardi ac
abil itation
ĠâĨ Ĵ
Ġcryst al
Ġrefrig er
) )
es see
Ġìĭ Ń
Ġfl ed
Ġwell s
Ġë°Ķ ê¿
Ġìłģ ë¦½
ĠëıĪ ìĿĦ
s or
ur as
ìķ ¤
ĠìĿ¸ ê³µ
Ġgovern ance
ĠìĤ¶ ìĿĺ
G od
ë¡ľ ë¥¼
ìĥģ ëĭ´
ĠV ers
ef its
íķĺê¸° ë¡ľ
Ġì§ĢìĹŃ ìĿĺ
P oint
Ġpart ition
Ġequ ity
amm ad
Ġë§Įëĵ¤ ê³ł
ĠëıĻìĿ¼ íķľ
ĠPortug uese
Ġprolong ed
N ET
t r
Ġa esthetic
ĠR ub
ĠìĹ¬ ê¸°ìĹĲ
Ġprof its
Ġìŀ¬ ìĥĿ
ì¹´ ìĿ´
Ġê°Ģê²© ìľ¼ë¡ľ
ĠìŀĳìĦ± íķĺìħ¨ìĬµëĭĪëĭ¤
Ġpra ise
D ec
ra ge
ap ore
Ġëĵ± ê¸ī
Ġíİ ĺìĿ´ìĬ¤ë¶ģ
ãĢ Ĥ
Ġlater al
Ġëª© ë¡Ŀ
ìľ¨ ìĿ´
Ġextra ction
Ġcoord in
gra duate
ĠMil itary
Ġinterpre ted
Ġstake holders
Ġphilosoph ical
h ome
s chool
Ġf oster
ĠT ri
Ġy oga
em an
Ġmain stream
less ly
Ġê¹ ĬìĿĢ
Ġ196 5
ĠìŀĳìĹħ ìĿĦ
Ġingred ient
Ø ±
ê°Ģ ê¸°
igh ters
Ġint u
ìķĦ ìĭľìķĦ
Ġëĵ ł
Ġdec omp
Ġrelig ions
Ġì°½ ìĹĲìĦľ
Ġvo ices
íķĺëł¤ ê³ł
Ġpul led
ĠìķĦë²Ħ ì§Ģ
st ration
ĠT uesday
ìĿ´ ìłľ
ĠC ut
ĠM C
ĠN ort
ĠG ro
ìĿ¸ ìĹĲ
ìĸ´ ìł¸
Ġab d
Ġj ew
ang ers
Ġbet a
ìĭł ìĿ´
ĠíĿ ĳ
Ġapplic able
ìłķë³´ ê°Ģ
Ġë²Ħ ìĬ¤
ĠìłĪ ìķ½
________ ________
ĠPers ian
al in
ĠB apt
Ġsp elling
ĠTh ursday
ĠZ e
Ġíĥľ ìĸĳ
Ġì¸ µ
Ġmeth ane
Ġê±± ìłķ
ìĦ °
Ġch ains
ĠL iving
Ġpur ple
íĿ Ĳ
Ġground water
rict ion
ĠMon itor
Ġarchitect ural
Ġunn ecessary
ĠD omin
Th ose
Ġsl ope
Ġëĵ¤ ê³ł
Ġhar ass
ĠTor ah
ëħķ íķĺìĦ¸ìļĶ
t wo
ge bra
ìŀĲ ìľł
end ers
Ġìĥģ ìĥģ
Ġend eav
Ġdeterm ines
Ġë¨¹ ëĬĶ
Ġdocument ation
ĠTreat y
ĠCreat ive
Ġm urd
Ġpro sec
Ġ18 0
ĠEn c
Ġëł Į
Ġë§Įëĵ¤ ê¸°
Ġquant itative
ĪëıĦ ìļ°
Ġc el
Ġb om
ĠT B
Ġí ľĺ
ĠS E
Ġst rand
og l
Ġsy ll
ause a
ĠìĬ¤ íĤ¤
ãģ Ĺ
Ġë§ŀ ì¶°
Ġë³µ ì§Ģ
wh ite
Ġconclud e
Ġastron aut
ĠScott ish
Su pp
p ur
am ous
th a
ë© ¸
Ġad ul
vious ly
Ġê´Ģê³Ħ ìŀĲëĬĶ
ëĲĺìĹĪ ê±°ëĤĺ
ĠSpec ies
inflamm atory
A v
Ġì¤ĳ ìĿ¸
íĸī ìĿĺ
ëł¥ ìĿĢ
Ġext ends
ĠìķĪ ìĹĲìĦľ
Ġmat rix
Ġì§Ħ ëĭ¨
ë§¤ ìĿ¼
ĠìĭľìĦ¤ ìĹĲ
ĠìĭľìĦ¤ ìŀħëĭĪëĭ¤
Sec ond
C urrent
Ġt ape
Ġg aining
ĠW atch
Ġout doors
ier ra
ĠCl ark
Ġ198 1
Ġceremon y
k h
ĠM aking
Ġper ipher
ê¸Ī ìľµ
ather ine
ê¶Į ìĿĺ
ĠíĽĦ ê¸°
Ġdam ages
Ġens ures
Ġhistor ically
ëĳ Ķ
âĹ ı
war f
r ative
ra de
Ġan swered
ĠInd ex
iot ics
ĠSer ies
Ġcollabor ative
Ġìĸ» ìĿĦ
Ġì»¬ ëŁ¬
Ġcertific ate
ĠíĹ¤ìĸ´ëĵľëĿ¼ìĿ´ ìĸ´
Ġt ear
Ġc in
Ġc erv
Ġad mit
Ġê·¸ ë¥¼
ìĨĮ ê°Ģ
Ġprogram mes
Ġlim iting
ê²ĥ ëıĦ
ĠTrans port
c r
ë¡ľ ìĿĺ
ĠR aj
Ġëı ķ
íĮĮ ìĿ¼
Ġhead aches
Ġmembers hip
ĠCount ry
Ġmagn et
ĠMal ays
ĠíĿĲ ë¦Ħ
Ġexplicit ly
Ġsug ars
in us
im als
ĠìĪĺ ìļĶ
ang ular
Ġconsider ably
Ġfail s
ĠíĻķìĿ¸ ìĹĲ
Ġneigh bour
Ġpoly mer
ĠëĽ° ìĸ´ëĤľ
ĠCre ate
Ġs orts
Ġb ars
Ġg el
ot yp
Ġy ields
ĠH TML
ĠD at
ĠF lu
act ivity
íŀ Ĳ
íģ¬ ë¦¬ìĹĲ
Ġmon itored
Ġent ity
ĠQ uality
Ġë°ľìĥĿ íķľ
Ġê¸°ìĹħ ìĿĺ
Ġrespond ed
Ġrob ots
Ġmut ation
Ġpharm ac
ĠM IT
ĠR E
ĠO m
ëį° ìĿ´
Ġmen u
ĠÂ »
Ġ196 8
Ġpow ered
ĠíĿ¥ ë¯¸
Ġglob ally
d eg
e u
Ġw ra
Ġb rick
Ġl ig
ĠT en
ĠC ass
Ġover t
Ġëª¨ ìĹ¬
In f
ĠëıĦ ìłĦ
ëĭĺ ìĿĦ
Ġìĭ¶ ëĭ¤
Ġê·¸ê²ĥ ìĿ´
Ġsubstant ially
Ġdescend ants
Ġcaffe ine
emet ery
Ä «
â Ķ
Ġ q
ou ch
Ġst iff
ĠP oll
ĠJ ane
Ġra ces
Ġher bs
Ġbas ics
ê±´ ìĿĺ
Ġprec ious
Ġê°Ŀìĭ¤ ìĹĲëĬĶ
Ġmotiv ated
w all
Ġfe as
Ġgra ve
ĠVir t
Ġgraph ic
Ġupd ates
Ġë½ ĳ
ìŀ ĸ
ëŀ Ĳëĭ¤
Ġê·¸ ëŁ¼
ĠAl abama
Ġ9 7
ĠíĹ ¬
ĠPer iod
ĠArch ives
ĠRo osevelt
Ġb ay
os ity
ë¦¬ íĭ°
ĠëĮĢ ì¶ľ
Ġrep ublic
ruct ive
let ter
Ġëħ¼ ëŀĢ
Ġëĳ Ķ
ĠEv olution
ĠMem orial
ĠìłķíĻķ íķľ
ĠIndones ia
P T
m outh
w ill
op ing
Ġep it
ĠëĮĢíĳľ ìłģìĿ¸
ĠBro ok
ĠCult ural
il ty
ĠR og
ell o
ì¡° ë¥¼
ĠAr thur
ĠíķĦìļĶ íķĺëĭ¤
Ġattempt ing
Ġmel an
w ind
ĠP rize
Ġat om
oc hemical
Ġì§Ģ ì¹¨
Ġinter vals
Ġexam ining
Ġë°© ì§Ģ
ĠíĶĦ ë¦¬
Ġpromot ed
Ġëĵ£ ê³ł
==== ====
Ġsubstit ute
w hen
ë »
Ġhe ated
og ene
Ġê³ł ìļ©
Ġtest im
Ġgu ided
Ġrespect ive
Ġwa velength
Ġë¹ł ìł¸
Ġteach ings
Ġcorpor ations
ĠìĿ´íĥĪ ë¦¬ìķĦ
P res
ĠP resent
ĠIn iti
Ġìľł ìĦł
Ġhead ed
ĠìĤ´ ê³ł
AN D
Ġê¸°ì¤Ģ ìľ¼ë¡ľ
Ġëĭ¹ìĭł ìĿ´
ĠCap ital
Ġpollut ants
or ious
Ġb ats
Ġbe ef
ĠB ob
ĠR oss
Ġinc idents
Ġdis hes
íĬ¸ ëĬĶ
arm a
Ġpass engers
Ġ0 9
Ġoper ator
Ġheart s
å ı
Ġm im
Ġd ual
ur red
ail ing
Ġreg ulated
Ġmach inery
Ġste ep
y ers
Ġb es
ĠM ental
íķ´ ëĵľë¦½ëĭĪëĭ¤
rou ps
Ġcomp ress
Ġapp le
ĠëĶ° ë¡ľ
Bl ack
ĠAff airs
D ata
W ork
ìĿ´ íķĺ
im b
ĠM un
ëĤ ©
ë¬ ĺ
ĠTh or
Ġfound ing
Ġbo ats
Ġrad i
Ġver se
Ġdevast ating
B ased
å Ń
Ġb ands
Ġto ile
ur b
ĠB oy
Ġso ap
ìĥģ ìľ¼ë¡ľ
Ġed ited
ĠìĪ «
Ġspeak s
EC D
Ġpig s
Ġantioxid ants
Ġelig ible
Ġê¸į ìłķ
he ld
Ġb old
ĠA IDS
ĠC ert
em ail
ëĵľ ìĹĲ
Ġsoc ially
Ġtem pt
ĠDep ression
Ġpath way
ĠìŀĲëıĻ ìľ¼ë¡ľ
Ġìŀł ìĭľ
Ġuncertain ty
Ġdescript ions
D es
h is
er ness
an as
ìĿ´ ìĻĢ
Ġcon vention
Ġan ten
ĠP ear
iff erent
Ġrec overed
we alth
ĠSh ow
ĠìķĦëĭĪ ê³ł
Ġmanufact ured
O rig
Ġ ions
ir s
Ġpro claim
ĠìŀĲ ê²©
Ġrel ates
ert o
ëªħ íķľ
Ġsmall est
Ġimm ense
co very
ĠMar x
ĠIndian a
ĠAdv anced
C ent
se ud
ìŀĲ ì¹ĺ
Ġper sec
Ġsym met
Ġì²ĺìĿĮ ìľ¼ë¡ľ
Ġom ega
j amin
ë ĩ
re strial
Ġb ip
Ġd irt
Ġst atic
00 00
Ġë² ¤
ëªħ ìĿĢ
ë¬¼ ë¡ł
Ġphys iological
Ġpot atoes
ìŀĲë£Į ë¥¼
ĠKnow ledge
Ġnurs es
Ġnegot iations
ìŀ¥ìķł ìĿ¸
ĠTenn essee
E m
c re
ro ach
Ġìķ ¨
Ġr ic
ĠìĪĺ ë°ĸìĹĲ
Ġdis asters
Ġ19 18
ë¹Ħ ìļ©
201 8
Ġcost ly
Ġsing ing
Ġíģ¬ ê¸°
Ġstay ing
ĠPat ients
Ġarchae ological
ropol itan
it ance
ag ine
Ġê·¸ ëıĻìķĪ
ìļ° ê³ł
Ġperson ally
ì¢ħ ìĿĺ
Ġìłķë¶Ģ ìĹĲìĦľ
ĠìĿ¼ë³¸ ìĿĺ
Ġcompar able
Ġfulf ill
ĠAuthor ity
Hist ory
g ood
u i
ĠD or
Ġch im
ĠO R
ë¬¸ ìĿ´
Ġco ating
Ġbas ket
ĠìĥĪ ë¡Ńê²Į
êµ° ìĿĺ
Ġaccum ulation
Ġconstra ints
op athy
ĠR od
ìĥģ íĥľ
Ġìłķ ëĭ¹
Ġmean ings
osy nt
Ġcampaign s
f at
Ġì ¿
is er
ĠB or
ĠB all
Ġbut t
Ġover weight
ote chnology
Ġrepl acing
Ġì°½ ìĹħ
Ġneighb ors
ĠNap ole
t est
Ġp oultry
ĠB ody
ĠB road
Ġproject ed
Ġrad ar
Ġvirt ue
Ġrecy cled
ĠA F
ĠM aterials
ĠJ upiter
ass es
Ġoff spring
íŀĪ ëĬĶ
Ġindu ced
Ġprop he
ann el
Ġann ounce
Ġsn ake
Ġeffic acy
P ar
et on
ĠE le
Ġr ating
ĠO N
Ġk in
ew ater
Ġíķľ íķĺìĹ¬
ìĨĮ ìĹĲ
Ġ6 7
Ġimag ery
Ġbelong s
Ġâĸ ³
Ġê¾¸ ì¤Ģ
S ocial
w he
il ib
Ġl ighter
Ġbe er
Ġpro state
Ġcomp act
ĠSt aff
ìĭĿ ìĹĲ
ĠAl bert
ìĹĪ ìĿĦ
Ġshort ly
Ġdraw ings
Ġaff il
Ġsymb olic
Ġpeace ful
est het
ìĹ¬ ëŁ¬
Ġpo le
ĠìĹĨ ëĭ¤ê³ł
ĠInd ependence
ĠZ h
app ropriate
ĠíĶĦë¡ľ ìĦ¸
Ġë¬¸ìłľ ìłĲ
Ġmagn esium
Ġdecre asing
ĠëıĦ ìĽĢ
Ġdef ining
ven ue
osp here
Ġ197 1
ĠëĪĦ êµ°
Ġdisp osal
Ġautom ated
ethe less
S C
Ġf art
ĠR ab
ĠìŀĪ ìĿĮìĿĦ
ìĬ¤ ëĭ·ì»´
ĠìĿ¸ ìĥģ
Ġfl ies
ĠëķĮ ê¹Įì§Ģ
ĠRe qu
ĠíĨµ ê³¼
Ġë§Ĳ ê³ł
Ġdesign ers
ĠCol lection
ãĢ ģ
Ġcontract s
ĠíļĮìĿĺ ìĭ¤
M us
Ġf ool
ic iency
ĠP ersonal
ĠW y
Ġsp ell
Ġê·¸ ëĵ¤ìĿ´
Ġìĭľ ëĤ´
Ġj et
ĠCon n
Ġmethod ology
Ġì°¾ ëĬĶ
Ġ194 8
Ġimpl ant
ĠìĥģíĻ© ìĹĲ
Ġmiss ed
Ġë§ĲìĶĢ íķ´
indu ced
Ġb in
ĠìĿ´ ëĵ¤
ĠN an
Ġ6 1
Ġcomb inations
for ward
augh ters
ĠPark inson
Ġëª¨ëĭĪ íĦ°
C or
ou b
ĠS O
ĠS ant
um ing
Ġë§İ ìķĦ
Ġbas in
ĠìĥĿê°ģ íķĺëĬĶ
Ġíıī íĻĶ
ĠìĻ¸ êµĲ
Ġabs ent
Ġê³³ ìĿ´
Ġcust oms
ĠDef ense
T HE
g iving
u ana
ĠìķĦ ëĬĶ
Ġsc al
Ġqu ad
ĠìłĦ ìĦ¸ê³Ħ
ë£Į ìĻĢ
Ġpublic ly
Ġpract iced
ĠLaw rence
ĠRel ations
Ġpal m
Ġp itch
Ġb inary
Ġis ot
ì§Ģ ê¸°
un es
ĠG ames
ëĵ¤ ìĸ´
ë¬¸ íķĻ
Ġprov inces
Ġfre ed
Ġë¬¼ ê±´
Ġdark ness
Ġconstit ute
ĠHistor ic
= "
M at
ĠI b
ĠN GO
Ġsp here
ë² ¼
Ġfe es
ĠìķĬ ëıĦë¡Ŀ
ĠìĹ° ì¶ľ
Ġelect rom
Ġmen stru
Ġâ Ĺ
ĠCar bon
Ġfoot print
Ġë§ĪìĿĮ ìĹĲ
ĠëĤĺíĥĢ ëĤ¬ëĭ¤
Ġêµ° ìĤ¬
Ġpresident ial
ĠElect ric
Ġaqu atic
ĠCast le
Ġgalax ies
Ġtransp arent
Ð¾ Ð
h ave
Ġin quiry
ĠT ai
id el
Ġr ou
ĠJ oh
Ġexp ense
Ġìľł ìĤ¬
ê²ĥ ìĿ´
sw er
Ġsatell ites
ĠFrank lin
B ar
ĠW rite
Ġwor ried
ber cul
ìĭł ìĿĺ
Ġë¬´ ìĹŃ
Ġret ire
Ġprom ised
ĠìĥĿê°ģ íķľëĭ¤
Ġcirc uits
Ġinit iated
Ġëĭ¹ìĭł ìĿĢ
Ġclos est
Ġinterview s
Ġcrow d
Ġë¶Ģíĥģ ëĵľë¦½ëĭĪëĭ¤
7 00
J une
ol is
ĠA ges
Ġv apor
ëŁ¬ ìļ´
Ġaut umn
Ġìĺ¬ë°Ķ ë¥´ì§Ģ
ì§Ģ ë°©
os ures
ĠL ady
ri ends
Ġê°Ģ ìĦľ
Ġar teries
Ġnum b
Ġtalk ed
ë°Ľ ëĬĶ
ras ound
ĠOtt oman
íģ¬ë¦¬ìĹĲ ìĿ´ìħĺ
n ut
Ġ19 14
ĠìķĦ ëĵ¤
Ġind ication
Ġem ission
Ġfound ations
Ġâ Ī
æ ĸ
ot hel
Ġread ings
ĠìĺĪ ì¸¡
ĠìłľíĴĪ ìĿĺ
ĠìĨĲ ìĿĦ
Ġcross ed
D id
l og
m us
Ġb ases
Ġin k
Ġl iability
Ġst ack
ĠB ad
ĠF at
Ġë³´ ìĪĺ
Ġìĥģ ê´Ģ
Ġpress ures
Ġseem ingly
Ġ14 0
Ġinflu enza
ì¤ ĺ
B ook
it ives
Ġh ip
ĠS ong
ĠR out
Ġdo zen
erv es
Ġ6 2
Ġinter val
Ġpat ch
Ġclust ers
Ġsacr ific
ĠAst ron
Ġfest ival
Ġasp ir
ur ally
ìĹĲìĦľ ë§Į
Ġimp osed
Ġë§ĪìĿĮ ìĿ´
re ts
Ġc er
al o
Ġn ode
ë£ ¬
aw ay
ë¶Ħ ìĿĺ
Ġ8 8
ì» µ
ĠìĿ´ê²ĥ ìĿ´
Ġp ix
Ġb iblical
st an
Ġê² ¸
Ġ6 8
ìķĪ ìłĦ
ë²ķ ìĹĲ
ĠíļĮ ìĤ¬ìĿĺ
ìĤ Ń
Ġut er
Ġdyn asty
ìĿ¸ëį° ìļĶ
Ġcast le
Ġattach ment
ìĿ´ ë¸Ķ
ol utions
ĠS U
ĠS aturday
Ġint ens
Ġdist ress
ĠAll en
Ġbreat he
Ġê·¸ëŀĺ ëıĦ
Ġign or
t ics
ç Ķ
Ġh orn
Ġêµ ³
êµŃ ìĸ´
ì£¼ ìĨĮ
ëĲĺ ì§ĢëĬĶ
Ġë§Į ìĹĲ
up uncture
ĠTe le
Ġë¯¼ ê°Ħ
199 8
Ġhost s
Ġpractition ers
is a
ĠM it
ĠB BC
Ġde emed
ru p
ry ption
ĠìłĦ íĸĪëĭ¤
ĠV erm
Ġimport ed
Ġgl ory
ĠCont act
ìª½ ìľ¼ë¡ľ
Ġì§Ī ë³ĳ
Ġê²ĮìŀĦ ìĿĦ
forest ation
g rad
ĠS outheast
ìĦ¸ ê°Ģ
ìŀ¬ ë¥¼
ĠíĺĦ ìŀ¥
ĠìĥĿê°ģ íķ©ëĭĪëĭ¤
ê¸¸ ìĿĦ
Ġsched uled
in ced
Ġg land
Ġal k
ĠF ile
ĠG PS
ib ration
Ġun com
ĠìŀĲ ê·¹
Ġtw entieth
form ing
Ġequ ations
Ġëªħ ìĭľ
ĠëĤł ì§ľ
Ġcalc ulation
Ġwound ed
ĠSoft ware
F eb
Ġt ies
Ġch amp
ìĪĺ ë¡ľ
ĠìĿ¸ ìĽĲìĹĲ
Ġcount s
ĠìĿĺ ìĽĲ
ĠìĤ¬ìļ© ìŀĲê°Ģ
Ġsw ord
Ch apter
Ġë¨¹ ìĿĦ
ĠíĴį ë¶Ģ
Ġdigest ion
S ign
V A
o T
z i
Ġb ore
Ġfor ty
Ġde ple
ĠH art
Ġman kind
Ġinter rupt
Ġent ities
Ġìĭł ê·ľ
Ġcur ious
Ġsatisfact ion
P ublic
å ľ
ĠC ertain
ist ence
Ġsub strate
ì¡° ì°¨
Th us
Ġcomb ining
Ġmov ies
Ġstat ue
Ġelimin ated
ĠGold en
ĠAfghan istan
F ood
Ù İ
ĠT itan
Ġg ay
ad i
ìĦľ ê°Ģ
ĠG h
Ġres idence
Ġcar rier
ëĤ´ ê¸°
ëĭ¹ ìĿĢ
Ġpoint ing
Ġì¶ľ íĮĲ
Ġëĭ¬ ëł¤
ĠìķĮëł¤ ìł¸
Ġcomprehens ion
ëĿ¼ìļ´ ì§Ģ
ĠWed nesday
c ription
f ive
m atic
ĠP ast
em pl
oc ene
ĠG ospel
ĠìŀĲ ìĽĲ
ros ion
Ġìŀ¬ ë°°íı¬
Ġge ometry
íģ´ ë¦¬
ĠìĿĳ ëĭµ
osc ow
Ġrow s
ĠEffect s
Ġperm its
ĠHawai i
as is
ect or
Ġat e
ĠE C
Ġab dominal
Ġar sen
ĠV ien
Ġ7 4
Ġdep icted
Ġë¯¸ ì¹ĺëĬĶ
Ġcomb ust
.... ..
Ġmill enn
Ġnav igation
Ġmit ochond
Ġtremend ous
U p
ë Į
Ġt ender
âĢ ¤
ĠA le
pt on
ĠO t
Ġê²ĥ ìĿ¸ê°Ģ
ìħ ĭ
ĠíĨµ íĻĶ
Ġbuild s
Ġsl ide
ER S
Ġver bal
Ġconsist ed
Ġì§ĢìĨį ìłģìľ¼ë¡ľ
ena issance
Ġì°© ìļ©
Ear ly
ì³¤ ëĭ¤
Ġê°Ģìł¸ìĺ¤ ê¸°
B o
Ĳ ë¦¬
ed ge
Ġh ind
un ct
ĠìĹ Ī
red ict
ĠK y
Ġloc ate
Ġche aper
Ġintrodu cing
Ġì§Ģê¸Ī ìĿĢ
Ġbul bs
uls es
organ isms
Ġê¹¨ ëģĹ
Ġflo ating
ation ally
ĠC ra
ĠI owa
ĠP S
ant e
Ġpl aque
Ġint act
Ġ196 4
ĠCommun ication
Ġenter prise
ĠëĨĵ ê³ł
itzer land
Ġg er
Ġde als
ĠG i
ast ing
Ġìłľ ëıĦ
ëħĦ ìĿĦ
Ġart ic
arc hed
Ġê³łê°Ŀ ìĿ´
Ġê³³ ìĹĲìĦľ
ĠíĸĪ ëĬĶëį°
Ġrock et
Ġvolunt eer
âĳ ¡
ĠPhilipp ines
ëĭ¤ ìĭľ
ul se
ers hip
ĠL A
ìŀĲ ëĵ¤ìĿĦ
ìļ° ë¦¬ëĬĶ
Ġhead ache
Ġê³łê°Ŀ ê»ĺìĦľëĬĶ
Ġann iversary
ĠìłľíĴĪ ìĿĢ
ĠìĥģíĻ© ìĿĦ
Ġwin ning
Ġbrill iant
ë¦¬ ê²Į
Ġê²½ íĸ¥
Ġob ese
Ġslow er
ipl inary
Ġrail road
Ġartif acts
ĠImper ial
ìŀ ł
Ġëĭ «
vers ion
ont o
Ġìŀ¥ ë¹Ħ
Ġìļ´ ìłĦ
D i
b in
b ian
ch ild
ĠH ans
ĠG M
av irus
Ġact ors
Ġatt raction
Ġë§Ī ìĿ´íģ¬
isc al
Ġìķŀ ìĹĲìĦľ
Ġ196 3
Ġanaly zing
Ġdat as
Ġneu rological
Ġë¨¸ ë¦¬
ĠDem ocr
ĠìĹĶ ì§Ħ
Ġì¦Ĳê¸° ìĭ¤
v ance
Ġs emic
ĠS yn
ĠìĪĺ ìĹħ
Ġra ises
íĸī ìĿĦ
Ġmod ify
Ġë³Ģ íĻĶë¥¼
Ġíķ© ìĿĺ
ìķĮ ìķĦëĳĲ
Ġexplan ations
S QL
g roup
s im
ĠS M
ĠC F
ĠG ame
Ġun ions
ìĻĢ ëĬĶ
In stit
Ġrequ ests
Ġstr ings
Ġdiscuss es
Ġconsider ations
Ġë°Ŀíĺ Ģ
Ġtelesc ope
u ly
in stein
Ġc her
Ġb apt
Ġth ou
od ge
ĠP ediatric
ĠE N
ĠG E
Ġle ts
ì° ¾
Ġdes irable
Ġíķ´ ì£¼
Ġë§Ī ìĿ´
Ġadv ised
Ġmar gin
AT E
Ġagree ments
Ġcert ification
ĠF acts
Ġcor ruption
amm a
Ġobserv ing
Ġpen cil
ĠCommun ist
Ġlik es
Ġcann ab
Ġsome how
ĠíĮ ©
ë°ľ ìłĦ
Ġpar ish
ĠëłĪ íģ¬ë¦¬ìĹĲìĿ´ìħĺ
Ġnetwork ing
Ġwaters hed
ì ¾Į
Ġd ia
ì§Ģ ìĸ´
Ġr um
ĠG P
Ġle an
Ġpl ug
lic t
ëª¨ ëį¸
ĠUS DA
Ġfunction ality
sec ond
ĠëĪĦëĿ½ ëĲĺìĹĪê±°ëĤĺ
v ised
Ġë »
Ġp iano
om ething
Ġacc used
Ġì£¼ íĥĿ
Ġfe at
íİ ĺìĿ´
sel s
Ġë¹Ħ ëĶĶìĺ¤
Ġ9 8
Ġspecial ists
Ġchem otherapy
ze ch
Ġstrength s
ìĽł ëĭ¤
Ġhepat itis
V C
m other
p erson
re ach
Ġd ated
íĻ ĺìĿ´
Ġte ch
Ġca ution
hem atic
ĠëĤ´ìļ© ìĿ´
ìĸµ ìĽĲ
oles cent
199 9
Ġmag ic
ĠM aine
iz ational
Ġê²ĥ ìĿ´ëĿ¼ëĬĶ
ced ented
ê¹ Ŀ
ĠìĿ¼ ìĿĢ
Ġrul er
Ġ194 1
ĠPop ulation
Ġsurviv ors
z ens
Ġd rew
ol ia
Ġ19 17
ens ing
int erest
Ġland f
Ġê°ķ ìĿĺ
ĠHealth y
Ġresil ience
âĨ Ĵ
ä »
ĠP a
ìĦľ ìĹĲ
ĠR os
ìĬ¤ íĭ°
Ġcomm emor
Ġrel iability
ĠìľĦ ë°ĺ
Ġter rible
ĠëĪ Į
ãĢ Į
nov ation
ĠMon th
Ġassign ments
Ġtrig gers
Ġforg otten
Ġmosquit oes
ìķĮìķĦëĳĲ ìĭ¤
h as
em io
ë¶Ģ ëª¨
ĠV o
íĦ° ë¦¬
Ġìľł ë¦¬
Ġsec ured
ĠAr gent
Ġì§Ħ ë³´
Ġmob il
Ġvolunt ary
Ġgast ro
) '
on duct
Ġk ne
ìĤ¬ ìĹĲìĦľ
Ġtrans actions
ĠìĿĺ ìĭ¬
ien cies
ë©´ìĦľ ëıĦ
Ġflu ctu
Ġì±Ħ ìļ©
Ġperce ive
Ġlabel ed
ĠStan ford
S ch
t ically
v as
ìŀĲ ëĵ¤
Ġêµ ´
ĠSt ock
ex ts
ĠìĦ¸ ë©´
Ġcomple ting
Ġcontin ually
ì¤ĳ íķľ
ffic iency
ĠìķĦìĿ´ ëĶĶìĸ´
Ġdecl ar
Ġautom atic
Ġbrief ly
B T
p he
Ġ ãħİãħİ
in te
ed ic
ar ms
om ics
ig ion
ĠH ad
ĠìĿ¸ ì²ľ
ĠSc i
ĠTe acher
Ġconcent rate
ĠìĿĺë¯¸ ë¥¼
Ġinput s
Ġrecept or
Ġg ross
Ġwh ites
ist a
ĠH un
Ġìĸ´ íĶĮ
Ġcar cin
Ġenvironment ally
Ġwar rant
St art
Ġge ographical
A f
v ity
ing ham
ch i
all ing
pl ane
ëŀ ¬
íĬ¸ ëĤ¨
Ġëĭ¤ ìĨĮ
ë¹Ħ ìķĦ
Ġmod ules
Ġinform al
com a
Ġsens ation
Ġsure ly
ëĿ¼ìĿ´ ìĸ¸
Ġnan op
Ġreform s
Ġê°ĲìĤ¬ íķ©ëĭĪëĭ¤
T ime
ĠD ate
ĠF isher
ìĭľ ê°Ģ
ph a
Ġì£¼ ëıĦ
ìĹĪ ì§Ģë§Į
ĠìĺĪ ìĤ°
co in
ĠGen esis
Ġcru el
Ġpurch asing
Ad d
RO M
K ey
Ġë Įĵê¸Ģ
im eter
ìĿ¸ ëĵ¤ìĿĺ
Ġdis par
Ġup set
Ġìłľ ìĸ´
Ġìłľ ëª©
Ġìĸ´ ìļ¸
ĠAn aly
ĠìĦ¸ ê¸Ī
ĠìĤ¬ëŀĮ ëĵ¤ìĹĲê²Į
ĠëĬĺ ìĸ´
Ġíĺķíĥľ ë¡ľ
oca ust
Ġhypert ension
T ube
ĠA ward
ul ative
Ġwere n
ord in
êµŃ ìĿ´
Ġtr ies
Ġmod es
Ġë§ŀ ì¶Ķ
Ġëª¨ìĬµ ìĿ´
Ġconv inced
Ġstret ching
Ġdial ect
Ġpush ing
¥ Ĳ
ed ed
Ġd ign
ĠT al
ig o
ìĽ ¹
ì£¼ ë¡ľ
ĠìĻ ĢìĿ´
Ġíĺ¸íħĶ ìĬ¤ëĭ·ì»´
Ġ197 7
Ġvari ability
Ġcompet e
ë°Ľ ê³ł
ĠìĽĶ ëĵľ
ìĿ´ìĹĲ ìļĶ
ĠPub lishing
Ġunp re
ĠPolit ical
D own
Ġm ast
Ġl ux
th ird
Ġch ips
ê¸° ì¤Ģ
ĠN ich
ĠìłĦ ê°ľ
io let
Ġrest ing
Ġsaf egu
ëĲĺìĸ´ ìķ¼
Ġstruct ured
ĠíĻĶ ëł¤
ĠìļĶì²Ń íķľ
S ym
f ol
an ia
Ġm elt
ĠB esides
ìĻ ľ
ê³µ íķŃ
Ġspec imens
Ġë°ľ íĸī
ĠAr ist
ìłĲ ìľ¼ë¡ľ
Ġer ad
Ġsold ier
Ġë©´ ìłĳ
Ġapprec iation
Ġcontrovers y
ĠMach ine
Ġol ive
Ġjurisd iction
d irect
u ate
ĠìĦ Ń
ëŀ į
ìĪĺ ëıĦ
Ġ7 6
Ġì°½ ìĿĺ
Ġjud ges
âħ ł
Ġdiscipl ines
Ġexclus ive
Ġobst acles
Ġprecip itation
f our
w id
ĠS W
Ġinf inite
ĠAr men
Ġìłķë³´ ë¡ľ
Ġge ography
Sc ience
ĠVen us
ĠNob el
Ġenthus i
Ġlegit imate
ac re
ĠW inter
ĠìĿ´ ìĤ¬
Ġse as
Ġcons p
Ġë§Ī ìĤ¬
ĠìĨĮ íĨµ
Ġbel t
ìŀĪ ê²Į
Ġunc ons
ĠêµŃë¯¼ ìĿĺ
M F
S ometimes
Ġas set
ad ian
ok es
Ġmon aster
Ġent ers
Ġanx ious
ĠëĿ¼ìĿ´ ë¸Į
t w
Ġì į
Ġc ups
Ġre vel
ĠH ind
Ġsp ite
ag us
Ġad min
íĬ¸ ë¦¬
Ġrec ru
ĠìĿ¸ ê¶Į
sy stem
ĠIm age
ĠTr ump
Ġbill ions
Im age
ĠíĻľìĦ± íĻĶ
Ġscat tered
Ġintermedi ate
T R
â Ļ
Ġto ll
Ġe ternal
ĠT our
Ġg lands
im ity
ĠS K
ĠD u
Ġì§ ķ
ë³´ ëĵľ
ĠìķĬ ê²Į
Ġ18 80
Ġmod est
ìłģìľ¼ë¡ľ ëĬĶ
ĠìĥĿê°ģ íķ´
ĠSat urn
N C
Ġt ale
ĠM uh
us er
ĠëĮĢ ì±ħ
ëĮĢ íļĮ
ĠìķĦ ìī¬
ĠìĿ¸ ë¥ĺ
tt es
sc ill
Ġì§ģ ìŀ¥
Ġcr ash
Ġsepar ately
Ġtit led
Ġinsp ection
Ġstri kes
Ġload ed
ĠNor way
Ġrail way
Ġlegisl ative
ic ism
Ġwh ale
ke ley
ĠJ ordan
ìķĦ ëĭĪ
Ġíķĺ ìĺĢ
ĠìĹ° ìĨį
Ġless er
Ġë°ĺ ë©´
ĠPl ants
ĠTe am
Ġdys function
ĠObs erv
Ġrememb ered
Ġa ids
ĠIt urupIsland
êµ¬ ëĬĶ
Ġatt ending
Ġsimilar ly
ĠGree ks
Ġblock ed
ĠSing apore
ra ined
ĠE val
ê³µ ìĽĲ
ĠëĤĺ ë¨¸
ìĿĮ ìķħ
Ġplan es
íĪ¬ ìŀĲ
Ġec ology
Ġfoot ball
ĠMc G
Ġfear s
ĠìķĮëł¤ ì§Ħ
Ġbank ing
ĠìĿĺê²¬ ìĿĦ
Ġuncle ar
F e
k ay
p ath
Ġì ³
ìŀ ĺ
ĠG il
Ġê°Ģ ì¹ĺë¥¼
ìĽĲ íķľ
êµ¬ ìĹĲ
Ġê°ľ íĺģ
Ġ7 7
lu x
ê²ĥ ìĿĢ
Ġimpact ed
ëĥ Ī
Ġë¶Ģë¶Ħ ìĿ´
Am ong
ĠIntellig ence
ëĩ ¨
Ł ìķĦ
ĠC e
ĠP erson
Ġnot ably
Ġ19 10
Ġcol ours
Ġref ined
ìĪ į
íĭ ¸
ĠìĦ± ìĿ¸
ëłĪ ìĿ¸ì§Ģ
Ġactiv ists
Ġreal m
ìĽĮ ëĵľ
ëŀĢ ëĵľ
Ġtherap ist
Ġang les
ĠArch ae
Ġpul se
eren n
1 50
B R
V is
z o
â Ĥ¬
Ġ ãħĭãħĭ
ig s
ĠìĤ¬ íĥľ
ĠAl f
ĠìłĢ ìŀĳ
Ġleg ally
Ġfund ament
ĠCons erv
ĠCom mer
Ġhot el
ĠíĻĺê²½ ìĿĦ
Ġalt ogether
ĠC ON
ĠM agn
Ġoff set
Ġì¤ĳ ìĨĮ
Ġë² ¨
ĠìĹħ ê·¸ëłĪìĿ´
ĠPart icip
ĠìĿ´ëĤ´ ìĿĺ
ĠMathemat ics
Ġdow nt
Ġë¶Ģì°© ëĲľ
ed uc
Ġh ate
Ġìķ ¤
Ġsh ifts
ater n
Ġev olve
ê°Ħ ëĭ¤
ëĤľ ëĭ¤
Ġbus h
Ġlo ads
ĠìłķëıĦ ìĿĺ
Ġstay ed
ĠëģĿ ëĤĺ
Ġpromot ion
Ġrein force
Ġhighlight ed
Ġveter in
Ġtut orial
Ġpharm aceutical
Ġwat ched
r ator
ĠS ustainable
Ġwas t
ĠL ive
Ġëª ¬
ĠV iol
ĠY outh
ov a
ĠSp e
Ġphot ography
ĠëĪĦ ê°Ģ
ĠíĸĪ ì§Ģë§Į
ĠíļĮìĽĲ ìĿ´
Ġìłķì¹ĺ ìłģ
ĠëĦ£ ìĸ´
ocy tes
imm une
h ol
Ġw ires
ul iar
ĠH old
reat ing
Ġë¶Ģ ëĮĢ
ĠìĥĿ íĥľ
Ġpredict ions
Ġcoord inate
Ġshell s
Ġearthqu akes
ì¿ Ħ
B et
ad ays
ë¦ ĩ
Ġv oy
ĠR a
Ġíķĺ ê²łìĬµëĭĪëĭ¤
Ġexam s
ê²½ ê¸°
ìŀĳ ìĦ±
Ġ20 30
ĠíĮĮ ê´´
ĠìłĢëł´ íķĺê²Į
Ġalt itude
Ġundert aken
ìĿ´ê³³ ìĿĢ
m ir
m ates
he nd
Ġcon form
ĠR enaissance
Ġr anks
Ġdis se
ìĦ¸ íı¬
ì§Ħ íĸī
ëĭ¨ ìĹĲ
Ġext ending
ĠíĮĮ ìĽĮ
let al
Ġ194 2
Ġë°Ŀíĺ ĶìĬµëĭĪëĭ¤
Ġtri ps
Ġtun nel
N U
P E
Ġto dd
ĠB ot
Ġwe eds
est eem
Ġr ival
Ġê³ ¤
Ġcl osing
Ġmin istry
ĠìĭĿ íĴĪ
199 7
Ġê¼ ¬
Ġdatab ases
ĠLouis iana
ëŁŃ ìĭľ
Ġregist ration
Ġê°ĳ ìŀĲê¸°
D T
G ood
c ount
d ata
e ur
m i
Ù ħ
Ġb icy
ĠT a
ol ith
ĠS ri
ir ie
ĠìĪĺ ìļ©
uc ks
ëį° ìļĶ
Ġë¶Ģ ëıĻìĤ°
Ġtrans cript
ìľĦ ëĬĶ
ĠëĤ¨ íİ¸
Ġì±ħ ìĥģ
Ġìº ĺ
199 6
ĠSw itzerland
ĠIsrael i
Ġacqu isition
Ġillust rations
Ġë³´ìĹ¬ ì£¼
ĠìŀĲì²´ ê°Ģ
Ġunpre cedented
O K
iet al
ê°ľ íĺģ
Ġdepend ence
Ġbow l
b ird
m ind
ê ¾¼
Ġal b
ĠP ra
op ter
ìłĦ ìŁģ
Ġext inct
ex pl
ĠCol lect
Ġgr at
ĠUs ually
ĠìĥģíĻ© ìĹĲìĦľ
Ġfrag ments
Ġpron ounced
H er
M arch
j an
Ġo ct
Ġg ang
ry st
ëħĦ ê¹Įì§Ģ
Ġê³ł ìłķ
Ġë§Ĳ ìĿ´ëĭ¤
ĠìĪ ²
light en
Ġbit ter
Ġë¸Į ëĿ¼ìļ°ìłĢ
Ġëª¸ ìĿĦ
Ġnav igate
ĠBen jamin
Ġadvoc ates
ĠKen ya
Ġinterf ere
ê³łê°Ŀ ìĿ´
en ergy
ar an
ĠP it
ì§Ģ ë©´
Ġch at
av ed
Ġêµ īìŀ¥
eth yl
Ġëį ľ
Ġlong est
Ġplace ment
Ġpresent ing
Ġtravel s
ĠíħĮ ë§Ī
Ġtoxic ity
al ine
ëĭ Ĳ
Ġí ľ
ĠC redit
ĠI BM
ìŀ ī
Ġpro be
um a
Ġqu een
ĠV I
Ġì² Ļ
ì¤ĳ ìķĻ
ĠPh arm
Ġchalleng ed
ĠíĮ¨ ìħĺ
Ġmyth s
ĠSum mer
Ġinterf erence
b ound
m ill
et ry
ĠM oscow
ê°Ģ ìĹĲ
Ġsu ited
ĠìĿ´ ëĵ¤ìĿĢ
ìĸ´ ë²Ħ
Ġê·¸ ìĹĲ
ìĭł ì¦Ī
Ġìľł ìłĢ
ĠëıĻ ìŀĳ
Ġexpl os
Ġident ifies
Ġìŀ¬ ë£Į
ĠìĤ¬íļĮ ë³µì§Ģ
Ġemer gence
mon ary
Ġrev ised
ĠíħĮ ëĿ¼ìĬ¤
ĠëĬĲëĤĮ ìĿ´
ĠProp het
Ġles ions
ĠBulgar ian
V ER
d ec
ìĭ ¶
ĠB it
ê°Ģ ëĿ½
ĠëĿ¼ ê³ł
Ġgas oline
ĠëĤł ìĶ¨
Ġaff irm
ëĨĵ ê³ł
Ġadvoc ate
Ġê·¸ëħĢ ìĿĺ
ĠKent ucky
A ust
Ġc ous
Ġd ot
od s
ìŀĲ ëĵ¤ìĹĲê²Į
ì²´ ìĹĲ
Ġê³ł ìĨį
ë¯¸ íĦ°
ĠAl ways
íĺ¸ ë¥¼
ĠëĳĲ ëł¤
Ġsimilar ities
Ġcoll aps
Ġsat urated
Ġìłķë¶Ģ ëĬĶ
Ġden y
Ġinadequ ate
O ut
Û Į
ìĿ´ ë¯¸
Ġal leg
ĠR ain
Ġse gments
Ġint rig
Ġpre jud
Ġrec ur
Ġrel ies
Ġass ass
ĠAr k
ĠíĶĦ ë¦¬ë¯¸
ëĶĶ ìŀĲìĿ¸
Ġë°ķ ê·¼íĺľ
Ġ194 4
Ġwet lands
ĠLiter ature
Ġdeploy ed
P G
Ġin ability
ĠT erm
res istant
Ġê°Ģ ê²Į
Ġind o
ê³Ħ ìķ½
Ġ8 4
Ġunc omm
ĠëıĮìķĦ ìĺ¤ëĬĶ
Ġstim ulation
ĠExp edia
Ġfoss ils
ĠëĪĦêµ¬ ëĤĺ
Ġcompris ed
Ġaccommod ate
ĠìĿ´ìĬ¤ ëĿ¼ìĹĺ
ĠIniti ative
r ish
Ġm ines
ĠB ed
ru bs
Ġtra pped
lud e
Ġë© ¤ë²Ħ
Ġoper ates
Ġrele ases
Ġcrit ically
ĠëıĮìķĦ ê°Ģ
Ġelev ation
Y et
v o
Ġth rown
ot ive
ĠD ra
ĠìĿ´ ëķĮ
ĠV eter
Ġdes per
ê·¼ ì²ĺ
Ġworks hops
Ġnegative ly
Ġë¶Ģë¶Ħ ìĿĦ
Ġgrass es
Ġnav al
ĠRef erence
Ġastron omers
ĠUt ah
p res
Ġb ridges
ion ed
Ġl iber
ut o
ĠC ro
am bo
ĠW right
ĠL ie
Ġim bal
Ġpl astics
Ġcont exts
Ġì¤ĳ ê°Ħ
Ġinv isible
Ġcare ers
ĠPlan ning
oc occ
ĠN eb
ĠìĿ¸ ì§Ģ
ìĸĳ ìĿ´
Ġbas eline
Ġcreat ure
ĠAll iance
pro of
Ġassess ing
ĠAP I
Ġpoison ing
on omy
it ar
ĠS now
Ġse ats
ìŀĲ ìĿ´ëĦĪ
ĠìĦ¸ íı¬
Ġë¶Ħ ëĵ¤ìĿ´
Ġbeh ave
20 20
ĠìĤ¬ëŀĮ ëĵ¤ìĿĦ
ë²Ħ ìĬ¤
Ġì²´ íģ¬
ëŁ¼ íĶĦ
ĠAb original
Ġdemon stration
ĠCom b
Ġwalk ed
mar ks
ĠSm art
Ġentertain ment
unc iation
Ġextens ively
orient ed
S y
Ù ĩ
Ġs ake
ar se
th an
Ġres ur
Ġtra ins
Ġco ins
Ġë§Ĳ íķł
Ġexpl osion
Ġpract icing
ĠBl ock
Ġjo ining
Cl ass
Ġìµľì´Ī ë¡ľ
Ġinsu fficient
on ut
en c
Ġn ausea
ĠY e
Ġind ivid
Ġcount ing
Ġgu ilty
ĠSe lect
Ġcrit ics
ĠìłĲ ìĹĲìĦľ
Ġì¦Ŀ ê±°
Ġê²Įìĭľ íĮĲ
Ġconstit u
Ġhoriz on
b uilding
Ġd ump
Ġpl ural
Ġar tery
ìĹ¬ ìĦ±
Ġret ained
arc hes
Ġì½Ķ ìĬ¤
íĨ ±
íļ¨ ê³¼
kl ah
anche ster
S everal
an ic
ìĤ¬ ê³ł
Ġì£¼ ë§Ĳ
Ġdel ight
Ġbow el
amil ton
Ġantioxid ant
Ġul cers
t i
est inal
ĠTh ings
av y
Ġpe as
Ġworld s
Ġpat ches
Ġìŀ¬ ìłķ
ë¡ľìĦľ ìĿĺ
ĠKh an
Ġë²Ĺ ìĸ´ëĤĺ
Ġan ts
ëį ¤
ĠìłĦ ë¶Ģ
ìļ´ ëĵľ
Ġì°¨ ëĭ¨
ĠAm b
ĠFin ancial
Ph oto
rosc ience
Lear ning
ĠFram ework
bercul osis
K now
ĠS i
ë¡ ¬
Ġë¬ µ
ĠíĨµ ê³Ħ
ĠDe ep
Ġíģ´ ëĿ¼ìļ°ëĵľ
Ġsn akes
Ġban ned
ð Ł
Ġth umb
Ġsh o
ult ural
ĠìķĬ ìľ¼
ĠìĹ° ê¸°
ê±´ ìĦ¤
Ġìŀ¬ íĮĲ
Ġel ite
ĠëĦ¤ ìĿ´ë²Ħ
Ġreb ell
Ġpure ly
Ġfung i
Ġë¡ľê·¸ ìĿ¸
Ġpries ts
Ġuncons cious
D I
ĠF ox
Ġê¸° ìļ¸
Ġsystem ic
ê·¸ ëłĩ
êµĲ íĨµ
ĠSc he
Ġë¸Ķ ëŀĻ
Ġsettle ments
ĠëĬ¥ ëł¥ìĿĦ
Ġneighborhood s
er k
Ġo ak
ĠD al
ĠL oc
ë¬ µ
ĠìŀĲ ë¦¬ë¥¼
ĠìľĦ ìĦ±
Ġë¶Ģ íĦ°
Ġins ulation
ĠSh ah
Ġpan ic
ĠìĤ¬ìĿ´ ì¦Ī
Ġcert ified
ĠHispan ic
ĠProtest ant
S O
S ur
b led
ĠT ogether
ĠW as
iff s
we ek
Ġëĵ± ìĿĢ
ĠìĦľë¹ĦìĬ¤ ìĿĺ
Ġmix ing
ymn os
ĠíĺĦê¸Ī ìľ¼ë¡ľ
æ Ĺ
Ġs or
ut ers
Ġse af
ĠN ig
ĠL ORD
Ġinter ven
ĠìĦł ìĸ¸
Ġë§¤ ëħĦ
ĠRes ource
ë§Ĳ ë¡ľ
Ġsan ct
names e
A ct
l ades
Ġb on
ĠI l
ĠP ack
Ġex ert
ĠR ap
ĠìĪĺ ìĪĺ
ëĭĪ ìĸ´
Ġunder m
ĠAl cohol
ĠìĹ° íķ©
ier ce
ë³ĳ ìĽĲ
ĠReg ional
b its
ëĭ¤ ëĭĪ
ĠB ron
ard o
Ġ6 9
Ġcent res
ìĦł ìĿ´
Ġíĺ¸ ìĬ¤íħĶ
Ġpress ing
Ġdest ructive
Ġconcept ion
ĠAnt i
Ġradio active
Ġpec uliar
G reen
M in
ar ity
Ġl uck
ĠH ell
Ġr ust
Ġr het
ë¦¬ ìĬ¤íĬ¸
Ġun healthy
ĠK ings
Ġneed le
ĠNew ton
Ġtru ck
Ġë©Ķ ìĿ¼
ĠIm ages
Wh ich
ij uana
Ġmel ting
Ġë´ī ìĤ¬
Ġstrict ly
Ġoccas ions
ĠëıħíĬ¹ íķľ
Ġtraged y
V I
Ġe cl
Ġl enses
ĠM B
ĠP il
Ġë§Į íķľ
ĠLe v
ĠMay be
Ġë§ŀ ì¶¤
ĠHar ry
Ġachieve ments
Ġtable ts
Ġtrig gered
Ġê°Ģê¹Į ìĿ´
Ġappl iances
b en
× Ļ
Ġt ire
on ge
ac cess
Ġê°Ģ ìĿĦ
ĠV ideo
Ġíı¬ ê¸°
ëŁī ìĿĺ
Ġì§ĢìĽĲ ìĿĦ
ĠTra vel
Se pt
Ġprem ature
GB T
Ġtack le
ĠConfed erate
Ġì§§ ìĿĢ
p ack
Ġd ictionary
ìĹĲ ìĦł
Ġtra p
Ġë¬´ ê²Į
ìĸĳ ìĿĺ
Ġìŀ¥ ì°©
We b
Ġkn ock
ĠìĪĺì¤Ģ ìĿĺ
Ġinstruction al
Re view
Ġì¢ħë¥ĺ ìĿĺ
Ġm ul
Ġh ub
ĠC yp
ĠE s
ìĿ¸ ìľ¼ë¡ľ
Ġinf l
Ġë³´ ì¡´
te ch
Ġform ally
ĠìĨĮ ëĵĿ
ĠPro b
St ate
Ġgard ening
Ġì¿ł íĤ¤
ĠImp act
L a
g ic
at is
ol en
ur u
Ġsu cc
ĠIn n
acter ia
ëŀĢ ëĭ¤
pro cess
ĠAg reement
Ġinteg rate
Ġìĵ° ê³ł
ĠëĮĢíĨµëł¹ ìĿĺ
ĠMag azine
Ġexplo itation
ĠStr ateg
Ġëį§ ë¶Ļ
Ġìĭłë¶Ħì¦Ŀ ê³¼
i pt
ĠA y
ĠU pper
ound ing
Ġed iting
ĠëķĮ ë§Īëĭ¤
Ġkey board
Ġdraw s
Ġpet roleum
Ġcitizens hip
Ġlandsc apes
Ġconsult ation
ĠPub l
ilib rium
ĠVien na
st able
am ents
Ġen roll
ĠëĮĢ êµ¬
Ġatt ribute
ãģ Ł
Ġcra fts
ĠTer rit
or ical
Ġl ining
ĠB urn
oc he
ĠL u
ous ing
ĠëĮĢ ë³Ģ
Ġqu ot
Ġê³¼ ìĹ°
Ġsatisf ied
á ŀ
Ġs ink
ĠA B
ĠF em
ĠëĮĢ ëĭ¨
íĬ¸ ë¡¤
ë¬´ ë¥¼
Ġ7 8
ĠìĹ° ì£¼
Ġthreat ening
Ġtransport ed
Ġdiss olved
Ġê°Ħëĭ¨ íķľ
) (
ĠM u
Ġv ocal
ven ile
ĠEx cel
ĠCol omb
ì±ħ ìŀĦ
ĠPlan et
ĠDise ases
Ġextract ed
U M
Ġf ired
th reat
Ġen erg
Ġmon etary
Ġval ued
Ġ0 7
ĠCl oud
Ġíİ¸ ëıĦ
ì½Ķ ë¦¬ìķĦ
!! !!
Ġíŀĺ ëĵł
ĠSim on
Ġflood s
Ġsufficient ly
Ġìŀħëł¥ íķĺìĭľê³ł
Ġëĸ¨ìĸ´ ìł¸
Ġpref erence
Ġarrange ments
Comm on
H el
in ence
ĠA ra
ĠE at
Ġ19 16
ep s
Ġcar go
ĠíĶ¼ ë¥´ê³łìĬ¤
ĠìĻĦ ìłĦ
ĠMe chan
ìĹ°êµ¬ ìĨĮ
ĠAgricult ural
Ġdelay ed
ì¢ĭ ìĿĢ
klah oma
D av
Ġ19 39
Ġnew born
Ġgener ator
Ġ7 3
Ġmark er
Ġ16 0
ĠTe ch
Ġëªħ íĻķ
pro t
cont rol
Ġë°ľê¸ī íķľ
n est
Ġs ends
ĠT rue
Ġst ain
ĠD ak
Ġ19 19
Ġselect ing
Ġscar ce
ra cle
ĠF est
ĠN ut
Ġinf rared
ëħ ¹
Ġtrans it
ĠAl b
Ġland ed
Ġ196 6
Ġinsp ire
íģ´ ëŁ½
F ollowing
N on
S w
x ic
re a
ĠG as
ĠL es
Ġê·¸ ëł¤
Ġout standing
íķĻ ëħĦ
con duct
ê» ı
ĠMed ic
Ġìĭľìŀĳ íķľ
ĠëĪĪ ìĿĦ
Ġfather s
Ġhop ed
íķ´ì£¼ ìĦ¸ìļĶ
B en
I H
Ġì «
it ches
ĠN uclear
ri ans
Ġstr at
ĠHow ard
íĶĦ ëłĪ
Ġwar ned
Ġill um
Ġmaint ains
ë´ ĩ
ìª½ ìĹĲ
Ġoutl ined
Ġd well
ìłķ ìľ¼ë¡ľ
ĠíĻ Ģ
Ġ7 1
Ġbo ot
ĠSh ar
Ġlast ed
ĠSu ccess
ĠëĦĺ ëĬĶ
Ġworth y
Ġdram a
Ġë§Īì°¬ê°Ģì§Ģ ë¡ľ
ĠíĮĮíĬ¸ ëĦĪ
m ans
Ù Ī
Ġf its
ĠëĮĢ ëĭµ
Ġpe at
Ġqu oted
Ġ8 2
Ġíķł ë¨¸ëĭĪ
ê²ł ì£ł
Ġë¡ ¤
ĠMan ager
Ġ196 2
Ġlack ing
Ġplanet ary
íķĺìĺĢ ìľ¼ë©°
Ġtempor al
ê±°ëĵł ìļĶ
d ated
p in
s ight
Ġb od
ĠT s
op en
Ġhe d
ĠD og
Ġun su
Ġcar ing
Ġgener ates
ĠDe b
ìĦĿ ìĿĦ
Ġë°ĺ íĴĪ
ĠDep ending
Ġinvestig ations
íĻķ ìĿ¸
Ġepis odes
Ġíħį ìĬ¤íĬ¸
L P
Ã ¦
ot ional
ĠìĿ¸ ê·¼
Ġactiv ated
ĠêµĲ ê³¼
ĠProv ince
Ġcomprom ise
ĠSqu are
Ġprosper ity
I d
Ġc ock
or rh
ĠC ust
op or
Ġv ascular
Ġdo zens
ë§Ī ì¼ĢíĮħ
ĠíĶĦ ë¦°
Ġìłģ ìĿĢ
ĠìĭĿ ìĤ¬ë¥¼
Ġvari ants
Ġder iv
Ġê¼ ½
ĠìĤ¬ëŀĳ ìĿĦ
Ġmuseum s
ĠNapole on
t em
Ġt ags
ìĿ´ ëłĩê²Į
ĠC hemistry
Ġy og
ud son
ast ed
íİ Ļ
ĠëıĦ ìĦľê´Ģ
ìĹŃ ìĿĦ
Ġcurrent s
Ġê²ĥìĿ´ ë©°
Ġì´Ī ëĮĢ
Ġì·¨ ìĹħ
Ġpack ed
ĠDis order
ĠìĤ¬ìĹħ ìĿĦ
Ġevalu ating
Ġtrib al
Ġê·¹ ë³µ
ĠRad io
Ġoutbre aks
rox imately
Ġfung us
Ġp orts
ĠC ab
ĠB egin
ĠëĤĺ ìķĦê°Ģ
ë¬¼ ìĿĢ
Ġ196 1
íĺĳ íļĮ
ĠPhilos ophy
1 20
? âĢĻ
F ree
Ġm a
ìĹ ½
ìĬ¤ íı¬ì¸ł
Ġimp aired
ĠK l
te in
we ed
oth s
Ġë¹ĦêµĲ íķĺìĹ¬
Ġcryst als
Ġlingu istic
, '
v ar
op oly
ĠB uild
ĠG ive
ëĿ¼ íģ¬
ëĤĺ ìĿĺ
Ġinf o
ãģ «
Ġë³µ ìĤ¬
Ġpip eline
Ġrestaur ants
Ġabd omen
Ġindivid ually
w riting
Ġt ears
Ġst ir
am bers
ĠM anchester
ĠB ishop
Ġat he
oc ide
êµĲ ìĤ¬
íı¬ ìĿ¸íĬ¸
Ġeconom ically
Ġbreak down
Cont in
Ġcav ity
ĠPrim ary
E X
Ġsp ont
Ġìĥ Į
Ġcons olid
Ġbl ame
Ġdec k
ì²´ ëĬĶ
get s
ĠìĥĿ ê¸´
ĠFor um
Ġmet a
Ġanim ation
ĠíķĺëĤĺ ë¡ľ
Ġcy t
ĠChar acter
Un fortunately
p us
Ġd warf
ĠE mb
ìĭľ íĹĺ
Ġfl ags
ik h
Ġrecogn ised
Ġbr ut
Ġi P
ĠìłĦìŀĲ ëłĪìĿ¸ì§Ģ
Ġdisapp eared
J apan
d y
Ġd aughters
Ġj un
ê¶Į ìĿ´
Ġwar fare
ceed ings
ĠìŀĪìľ¼ ëĤĺ
Ġpy ram
Ġì± Ļ
Che ck
f und
s ite
ĠO ak
Ġ18 90
Ġêµ¬ ìĤ¬
Ġdemand ed
Ġpref erences
m id
p g
ĠP ent
ac erb
ê´Ģ ìĿĺ
ĠìĦł íĺ¸
Ġê°Ħ ìĿĺ
Ġneg lect
íĨ ¨
Ġë³´ìŀ¥ ëĲĺì§ĢëĬĶ
Ġbiom ass
Ġw ounds
Ġm ant
ĠH al
ĠL akes
ĠO d
Ġinc ons
Ġsupp ress
Ġmed ian
Ġìĺ¬ ë¦¼íĶ½
Ġìķł ëĭĪ
Ġinvestig ating
Ġíķ´ëĭ¹ íķĺëĬĶ
Ġjud icial
Ġê²½ìłľ ìłģ
Ġinsert ed
M R
b ial
Ġc ram
âĢ ²
ĠC zech
ĠP ict
iz oph
Ġsc reens
Ġconf ined
íķĺë©´ìĦľ ëıĦ
Ġrecon struct
Ġgro cer
ê²¼ ëĭ¤
Ġc ows
Ġint im
Ġ19 12
ë©´ ìĿĦ
ĠV ery
Ġtr illion
Ġìļ° ì£¼
ĠìŀĪìĿĦ ê¹Į
fort able
Ġsurround ings
Ġcontroll er
ias is
ĠOlymp ic
h ad
v ia
ĠC os
am el
ĠL anc
Ġê³ł ëĮĢ
Ġ7 9
Ġgra b
Ġdep ressed
Ġexpl ores
Ġdr um
Ġíı¬ ìŀ¥
Ġcondition ing
Ġinnov ations
Ġjour nals
Ġíİ¸ìķĪ íķĺê³ł
h ouses
Ġm ad
Ġm aternal
im ination
íķĺ ìħ¨
ìĤ¬ ìłĦ
Ġcont ra
Ġíķ «
Ġë§Ī ë¬´ë¦¬
Ġìļ°ë¦¬ ìĹĲê²Į
Ġì¶ľ ì²ĺ
Ġrad ius
Ġillust rates
Ġadjust ed
Ġsynt hes
ĠBas in
t an
¨ ìĿĦ
ĠB ird
ress ions
Ġlear ner
ĠíĨµ ìłľ
acter ial
ĠíĬ¹ ìĪĺ
ĠPer u
ĠìĦ¤ëªħ íĸĪëĭ¤
Ġbirth day
Ġìŀ¡ ìķĦ
Ġemphas ize
Ġgraph ics
Ġgar lic
Ġuncomm on
H ome
st yle
ìĿ´ ëĭĪ
em at
ĠD S
Ġwor ms
Ġê¸° íļĮ
Ġinv al
ìĤ° ìĿĺ
Ġ9 3
Ġemploy er
ĠCo al
Ġpositive ly
ĠPart ners
Ġì¦Ĳ ê±°
Ġtour ist
Ġvulner ability
Ġê¸°ë°ĺ ìľ¼ë¡ľ
M c
ĠE ve
ë³´ ìŀĲ
Ġë³´ ì¡°
Ġac ne
ë§Ī íģ¬
Ġstop ping
ĠíļĮìĽĲ ìĿĺ
Ġund ers
ĠBi ological
Ġinstruct or
Ġcere b
Ġroll ing
Ġacknowled ged
ĠHop kins
izoph ren
c ap
Ġ è
Ġt et
Ġf usion
Ġd olph
ĠB rad
Ġsubject ed
Ġsex ually
cell ular
Ġcos mic
Ġhung ry
Ġt ric
art z
Ġcomp ression
Ġdisc iples
Ġcar p
ìľł ìķĦ
íĸĪ ìĸ´ìļĶ
Ġben ch
ê±´ ê°ķ
ĠìłĲ ìĿ´
Ġstreng thening
Ġì·¨ ê¸ī
Ġì½ ©
Ġcou ples
ëĲĺìĹĪ ê³ł
roph y
ĠQue bec
Ġconsid ers
Ġeleph ant
P I
k rit
s hip
per ature
Ġê´Ģ ì°°
ĠìĭĿ ëĭ¹
ĠGen erally
Ġconcept ual
Ġdiv isions
Ġgod dess
) -
z es
ĠT u
ĠD er
ĠE aster
ĠF are
íķ´ ë¥¼
ë° ¤
Ġsc ans
Ġprodu cer
Ġexam ines
Ġevery body
ax is
Ġter rain
ĠìķĦìĿ´ íı°
mon th
Ġstandard ized
Ġ194 7
Ġrecip e
Ġtraum atic
Ġholid ays
Ġremed ies
Ġexclud ed
Ġspir its
Ġpropos als
Ġre pt
el le
Ġj ar
ê³Ħ ê°Ģ
Ġê³µ ì§Ģ
ĠìĻ ¼ìª½
ros is
Ġë¬¸ ìŀĲ
ĠFl ore
Ġë§Įì¡± íķĺëĬĶ
Ġcryst all
Ġshoot ing
ĠMean while
D oes
l ad
s ource
w ich
íķĺ ìļ°ìĬ¤
Ġcon sec
ĠH ou
ĠH ond
Ġup ward
ĠìĿ¼ë°ĺ ìłģìĿ¸
TS D
Ġembra ce
Ġinev itable
o ard
ra ce
Ġad hes
Ġdes cent
ĠUn iverse
Ġfl ame
Ġactiv ation
Ġhand ful
ãģ ¦
Ġce ment
Ġod ds
l ie
re hend
Ġex acerb
ĠL uke
Ġìľ µ
Ġ3 60
Ġë³´ ìĺĢëĭ¤
Ġtr unk
ìľł ëŁ½
ì§ģ íķľ
íĺģ ëªħ
Ġchart s
dr iven
( ?)
M ean
Ġc ater
Ġ3 50
Ġwork force
ëıĻ ìĿĺ
Ġì½Ķ ëĵľ
ìľ¨ ìĿĦ
Ġsusp ended
Ġparad igm
Post ed
ĠìĦ¸ë©´ ìļ©íĴĪ
ê ¿Ī
re ck
Ġcon ve
ë¦¬ ë©°
Ġwhere ver
Ġmod ification
ĠìĦ¸ ìĥģìĿĦ
uss ian
Ġpass ages
Ġì§ĳ ìĹĲ
ĠìĹ¬íĸī ìĤ¬
Ġsil ent
Ġsculpt ure
ĠEthiop ia
Ġb ike
ic ates
ìĿ´ ìĤ¬
Ġg host
Ġr ash
ìĭľ ê¸¸
Ġqu e
ìĭ¤ ìĿĦ
ìŀ¬ ëĭ¨
Ġrequ ested
Ġlit ter
ĠAd ams
ĠìłĲ ìĭ¬
Ġsuper vision
Ġë°©ë²ķ ìĿ´
Ġê¸°ëĬ¥ ìĿ´
ogen esis
Ġë¬´ìĹĩ ë³´ëĭ¤
Ġì£½ ìĿĮ
Ġrecon struction
Whe ther
Ġlapt op
A pril
C L
H uman
W A
f ood
m ap
n utrition
ion e
ĠS ierra
Ġst ew
Ġì§Ģ íĤ¤
ë¬´ ìĽĲ
Ġdep ict
Ġìļ° ìĪĺ
Ġve ins
ë¥ł ìĿ´
Ġtour ists
ij ing
ĠViet namese
Ġritual s
Ġìºĺ ë¦°
s ues
ë ĩĮ
Ķ íİĺ
Ġst ro
Ġst ocks
ì§Ģ ëħ¸
ìĸ´ ë¦°
Ġafter wards
Ġweek end
Ġconnect s
Ġelimin ating
ĠBer keley
Ġintest ine
ĠëĦĵ ìĿĢ
ĠCub a
D ay
L ife
re as
er ce
Ġw ishes
Ġg ently
ĠM as
ill es
ĠR u
Ġìĭľ ê¸°
ĠìłĦ ê³µ
int estinal
Ġì£¼ ìĭĿ
Ġoff ensive
ë¬´ ìĹŃ
ĠìĬ¤ íĤ¬
ìĹĪ ìĸ´ìļĶ
Ġdr illing
ĠìĹŃ ìĤ¬ë¥¼
ĠSy ndrome
Ġspot ted
Ġë©Ģ íĭ°
d ig
h al
Ġm as
ĠS ound
ĠO klahoma
ìłģ ìĿ´ëĭ¤
au x
êµŃ ëĤ´
íĻĶ ëĬĶ
Ġbu g
ody nam
ìĺģ ìĸ´
ìķĪ ëħķíķĺìĦ¸ìļĶ
com put
Ġë°ķ ìĤ¬
Ġce iling
ĠìĥģíĴĪ ìľ¼ë¡ľ
Ġtrou bles
Ġìķ¡ ìĦ¸ìĬ¤
Ġsurge on
ĠBang lades
Ġfart her
opor osis
Ġs its
Ġb esides
Ġd ive
ĠS ans
us hes
ag a
Ġk et
ìłľ ê³µ
Ġam ph
íģ °
Ġsupp orters
ĠíļĮ ìĤ¬ê°Ģ
Ġmat ching
Ġë¬´ë£Į ìŀħëĭĪëĭ¤
Ġíĺ¸íħĶ ìĹĲìĦľ
Ġíıī ë©´
ë²ł ìĿ´íĦ°
Ġíĸ¥ íķ´
ĠCour se
ĠSwed ish
Ġë¹Ħë°Ģ ë²Īíĺ¸
ĠTok yo
T op
Ġc oding
ĠI L
Ġê° Ķ
ĠG round
ĠYou Tube
Ġpot ent
ĠPre vent
ê°ľìĿ¸ ìłķë³´
Ġadvent ure
Ġempir ical
ĠMuh ammad
V E
Ġ Å
ill er
Ġwas hed
Ġsc rew
cer pt
Ġappro aching
ĠRes ults
ret ion
Ġì¶ľ ìŀħ
ĠAnt on
Ġdemand ing
Ġpet ition
ĠPat rick
Ġworkshe ets
f il
ìĿ´ ë¡ľ
ĠS in
th y
ĠD ick
ĠF ried
ê¸° ë³¸
ĠN elson
ìĿ¼ ìĿĢ
Ġpub lishing
ĠìĬ¤ íĶ¼
ĠNe v
Ġì²ł ìłĢ
Ġincl usive
Ġë³´ì¦Ŀ ê¸ĪìĿ´
ĠSk ills
Ġmand atory
Ġíĥĳ ìŀ¬
ĠMalays ia
Ġwast ewater
f lu
t ar
Ġt ie
ëĬĶ ê°Ģ
Ġìŀ ĩ
ĠP un
ĠB ox
ëį ľ
Ġëª¨ ë¥´ëĬĶ
Ġë°Ķ ëĭ¥
Ġì¡° ìŀĳ
Ġproblem atic
199 0
ĠìŀĪìĹĪ ê³ł
Ġparam eter
Ġphosph orus
Ġbuff er
ĠMarsh all
iv ia
Ġìĥģ ì²ĺ
other mal
Ġche cks
ìĹŃ ìĤ¬
Ġê²½ìļ° ë¥¼
Ġë©Ķ ìĿ¸
ëĵ± ìĿĺ
Ġflu x
Ġport able
Ġëĭ¤ìĿĮ ìĿĺ
ĠíĮĲë§¤ ìŀĲ
Ġharvest ing
ĠMo ore
Ġcultiv ation
Aug ust
ĠFreder ick
ĠL ink
ĠO w
ĠCh air
ĠSp ect
lement ary
ĠìĤ¬íķŃ ìĿĦ
Ġformer ly
Ġneu rot
Ġfro st
ymnos Island
h ttps
w alk
Ġì ĮĢ
Ġe ager
íķĺ ê²łìĬµëĭĪëĭ¤
ĠW at
ĠF ollow
ys ics
ê³µ ìĹ°
ìĨĮ ëĵĿ
ê¹ Ķ
Ġ18 50
Ġtem plate
Ġgr asp
Ġtarget ing
elt a
Ġìµľì´Ī ìĿĺ
Ġchromos ome
J uly
og rams
Ġhas n
ĠìķĦ ë¹ł
Ġpe an
Ġac re
ĠAl ong
Ġ8 1
Ġ8 3
Ġê²½ìļ° ëıĦ
Ġlay out
Ġreact or
Ġblock chain
bre v
ĠEv idence
spec ies
lighten ment
f u
Î ¹
Ġs ul
Ġan a
ĠB ase
ĠL E
ĠK ash
ĠìķĦ ëĤ´
ìĹ¬ ê¸°
we g
ìĽĶ íĺ¸
Ġunt reated
str ong
ãģ §
enn is
Ġê³Ħíļį ìĿ´ëĭ¤
Ġrecip es
Ġìī¬ ìļ´
Ġpenal ty
Ġelectrom agnetic
å Ĳ
ĠìĿ´ ë¥¸
Ġab ortion
Ġres olved
au nt
Ġinf erior
erv ice
hes ia
ë¬¼ ìĹĲ
arm ing
Th ree
Ġ0 8
ĠíĻķ ìĤ°
Ġë°Ľ ì§Ģ
ãģ ¨
Ġë¬¸ìłľ ìĹĲ
Ġsal vation
ĠCommun ications
ĠAnn ual
ĠPen insula
Sim ilar
est ab
pp ers
Ġbl ade
hes s
Ġcount less
Ġê²½ìļ° ëĿ¼ëıĦ
íı¬ ë¥´
Ġëª» íĸĪëĭ¤
Ġur inary
ë©Ķ ìĿ´ìħĺ
ëĨ ĢìĿ´
Ġê¶Į ìŀ¥
ĠCom par
Ġíļ¨ê³¼ ê°Ģ
ìķĮ ëł¤
Ġperman ently
Ġvent ilation
Ġauthent ic
aren cy
ĠWal ter
Rem ember
Ġêµīìŀ¥ íŀĪ
H C
an alysis
ow ing
op sy
Ġwe ed
Ġr iding
ĠTh om
ëĮĢ ìĥģ
ë§Į ìľ¼ë¡ľ
Ġprocess or
Ġprot otype
201 9
Ġschem es
ĠGuid elines
Ġindo ors
Ġp our
ĠT rib
Ġy ards
ĠIn v
Ġpre lim
ĠAn th
Ġret rie
Ġê±¸ ìĸ´
Ġ194 6
Ġprior ities
Ġsod a
ĠìłģìłĪ íķľ
Ġadul thood
M et
S N
h n
ĠO ECD
ë¹Ħ ëĬĶ
ìĦł ê±°
Ġìĭł ì²´
ì§Ī ìĿĺ
Ġprom ises
reg n
Ġut ter
Ġbul b
Ġë¬´ìĹĩ ìĿĦ
ĠBel ow
ĠHol ocaust
Ġauton omous
Ġmunicip al
Ġprelim inary
M r
c op
p ub
Ġl augh
ell ar
Ġun ited
ĠìĨĮ ìĭĿ
Ġë© Ī
aut ions
ĠSy d
Ġbur ial
ëķĮ ë¬¸ìĹĲ
ĠìĿ´ë¯¸ ì§Ģë¥¼
Ġphilos opher
RE E
Ġreprodu ce
Ġincent ives
ĠCit iz
f ile
n ational
ĠT ob
ke eping
ĠR ac
ĠN ight
Ġcomp iled
Ġë°ľ ìĸ¸
Ġfact ories
ĠëıĦ ìĭ¬
Ġë°© ìķĪ
Ġì°¨ ë¡Ģ
Ġê²Ģ ì¦Ŀ
Ch o
Ġfail ing
Ġì¶© ìłĦ
rag on
Un iversity
ĠìĹ¬ìĦ± ìĿĺ
ĠProgram me
De velop
E v
p ose
st ock
ĠìĿ´ ìĬĪ
og ical
ìĭľ íĭ°
ard less
Ġinf est
Ġprov incial
ĠëĤĺ ì¤ĳìĹĲ
Ġcool er
ĠìĿ½ ê³ł
Ġcort ex
Ġë Į
od us
ĠH az
ĠL oss
Ġtrans action
ĠëıĦ ë¡ľ
Ġsol ved
Ġsupport ive
Ġret ired
Ġneighbor ing
ĠSar ah
Ġrig id
Ġparas ites
ĠPalest ine
Ġdisag ree
L Y
p her
p owered
Ø ¯
ï ½
ig e
ĠH ug
ĠìķĦëĭĪ íķĺë©°
Ġê·ľ ì¹Ļ
Ġcru c
Ġì²ł íķĻ
Ġfol ks
Ġfirm ly
ĠColumb us
101 6
Ġimpair ment
v ic
it ated
Ġl act
Ġtra ces
Ġam bit
Ġê°ľ ë°©
Ġìłľê³µ íķł
Ġindu ce
Ġë³¸ ëĭ¤
ĠNorth west
Ġdefin itive
Ġtransl ate
ĠëıĦìĻĢ ëĵľë¦½ëĭĪëĭ¤
p a
p it
é ģ
ar bon
ìĿ´ ëŁ¬íķľ
im ental
Ġv ic
ĠD ocument
ĠF un
ìĿ¼ ìĿĺ
Ġam mon
Ġco in
Ġìĺ¤ íĶ¼
ĠAl ber
ĠPro ceedings
Ġì¡° ê°ģ
ì°¨ ê°Ģ
Ġ9 2
Ġëħ¸ ëł¥ìĿĦ
ë¯ ¹
Ġillust ration
mark et
ĠìµľëĮĢ íķľ
ĠQue ens
Ġwel ding
ĠExt ension
ĠAccess ed
Ġbutterf lies
Ġmetap hor
Ġuncom fortable
G R
p op
Ġn urt
ĠB rand
ì£¼ ê°Ģ
Ġdisc ount
Ġë¹Ħ ëĤľ
Ġ8 6
Ġìĭł ìĨį
ĠëĶĶ ìĬ¤
Ġì§ĢìĽĲ íķĺëĬĶ
ĠAlex and
Ġbare ly
p ret
it ime
íķĺ ìħĶìķ¼
ĠP rior
Ġhe s
ĠE sp
ĠL ank
ìļĶ ì²Ń
Ġ8 7
Ġorgan izing
Ġpost ure
Ġprim itive
Ġbase ball
Ġcou pled
ĠTechn ical
ĠìĿ½ ìĸ´
Ġê°ķì¡° íĸĪëĭ¤
ëĵľë¡ľ ìĿ´ëĵľ
ĠExerc ise
wid th
L ist
ul atory
us ually
ëĥ ī
Ġaccording ly
Ġexc ite
199 5
Ġcivil ian
ĠÃ Ĺ
Ġdehyd ration
ogl ob
% ).
il i
ĠH amilton
Ġad ject
Ġdis abled
Ġê³µ ìłķ
ĠSp orts
âĢ¦ âĢĿ
Ġkind ergarten
ĠìĤ¬íļĮ ìĿĺ
Ġexerc ising
Ġmechan ics
Ġsqu ir
ĠëĴ¤ ìĹĲ
ê²Ģ ìĥī
ĠPortug al
ĠìĹĦì²Ń ëĤľ
Ġmyster ious
à ¸
it ol
Ġf ut
ĠL CD
ĠSt ress
ĠêµŃ ë°©
Ġlight ning
íķ¨ ê³¼
Ġfil ed
ë¸Į ë¦¬
Ġur gent
Ġsix th
Ġdispl ace
ĠPol ice
lim ited
Ġstraight forward
Ġê·¸ëłĩ ì§Ģ
ĠëĵľëĿ¼ìĿ´ ë¸Į
ĠCurrent ly
E duc
l en
Ġa rom
ur ities
ig nt
am ation
if iers
ĠH udson
ĠCh ron
Ġdes ires
Ġform ats
Ġì¹ Ń
íĳľ ë¥¼
Ġê±´ ëĦĪ
Ġê²Ģ ì°°
ĠSy rian
Ġfram es
Ġpil grim
Ġwithdraw al
Ġtomat oes
Ħ ìĥĪ
Ġh ay
ĠT R
ĠT itle
ìĿ´ ëĤł
ag ram
ĠO K
ond er
ĠEurope ans
ëĵ± ìĿĦ
Ġë§Įëĵ¤ìĸ´ ì§Ħ
Ġfriends hip
ĠìĿ´ë¦Ħ ìĿ´
Ġë²Į ìĸ´
Ġê°ľìĦł ëĲľ
Ġintest inal
Ġswit ching
Ġperf ection
Rel ated
ĠPu erto
Ġassemb led
is l
ĠC L
ìĬ¤ íĤ¤
ĠU l
Ġ19 15
ì² «
Ġì§Ģ ìĭĿìĿĦ
Ġpr inter
ool s
ĠìĿ¸ ìļ©
Ġë¬´ ìĭľ
Ġhigh way
Ġ9 6
íķ¨ ìĹĲ
Ġcomb ines
Ġlay ing
ĠAct ive
Ġìłģìļ© ëĲ©ëĭĪëĭ¤
Ġtou ching
Ġhop ing
li hood
ĠíķłìĿ¸ ëĲľ
Ġ Ø§
ct ica
ìĿ¸ ìĹĲê²Į
ìĥģ ê³¼
Ġëĭ¤ ë¥´ê²Į
ê²½ ì°°
Ġpract ically
Ġdel icate
Ġlet ting
Ġë³´ìĹ¬ ì£¼ëĬĶ
ĠEconom ics
Ġrefuge e
ĠDub lin
Ġc ues
ĠC hen
ĠM olecular
ê³ł ëĬĶ
ip se
íĮ ¬
Ġsub mar
Ġë¶Ģ ë¥´
ìĦł ìĿĺ
Ġë§Ĳ íķ©ëĭĪëĭ¤
Ġfree zing
Ġcompan ion
ĠìĤ¬ìĿ´ ìĿĺ
ĠMor ris
Ġwitness ed
Ġprohib ited
ĠDougl as
S um
b es
Ġ ib
Ġp umps
Ġm ol
Ġbe aches
Ġbe verages
ĠS ab
Ġst ating
Ġas ym
ĠM RI
ë¦¬ ìłģìĿ¸
ĠG ord
Ġimp ed
ĠìķĦ ë¥´
Ġíİ ľ
âĢĶ âĢĶ
Ġclin ic
Ġìĸ¸ìłľ ëĤĺ
Ġdeliver ing
Ġëĭ¨ìĪľ íŀĪ
ĠëģĮ ìĸ´
dep th
Ġelabor ate
h ab
Ġc ro
Ġd a
Ġu pt
am an
ĠëĤ Ń
ëĤĺ ê²Į
Ġj ury
Ġshould ers
Ġ8 9
Ġhuman itarian
Ġdesign er
ëª© ìłģ
Ġcr ude
Ġsum mit
Ġap ost
Ġtur tles
ĠìºĲ ëĤĺëĭ¤
Europe an
Ġd ye
el come
ĠP i
Ġê°Ģ ìĿ´ëĵľ
Ġìłķ ê¸°
Ġë³´ ìĿ´ì§Ģ
ë²ķ ìĿĺ
ĠPl us
ES CO
Ġmicro organisms
Ġclick ing
uten ant
F F
W omen
d em
is an
Ġh anging
ìĿ´ ì¦Ī
Ġv iv
ĠF unction
00 1
Ġcomp elling
Ġrec ruit
ob ia
Ġsupp l
ëł¥ ìĹĲ
Ġê±° ì£¼
ë¥ĺ ë¥¼
ĠìĹ´ ìĸ´
Ġê±¸ ìĸ´ìĦľ
Ġì§ĢìĹŃ ìĹĲ
Ġë¸Ķ ë£¨
ĠAng lo
Ġfle e
ĠBet ter
Ï Ħ
Ġb ureau
le ys
il ia
ly wood
un ing
ì£¼ íĥĿ
Ġdet er
any on
ãĢ İ
Ġdra gon
Ġtru cks
ĠSw iss
Ġtri angle
ĠìĿĮìĭĿ ìłĲ
oler ance
ĠíĽĮë¥Ń íķľ
" ;
A IDS
B as
H aving
c ost
g ly
Ġp erenn
ur ban
ĠB eng
ab ase
ĠW rit
ĠU ntil
Ġj ack
Ġbl oom
ê¹ Ĳ
ì¡° íķ©
Ġdef ence
íĥĢ ìĽĮ
Ġret ention
Ġíı¬ ë¥´
Ġterm ed
ĠíĻľ ë°ľ
Ġrev ision
Ġobt aining
pris es
ĠìķĬìķĺ ìĬµëĭĪëĭ¤
Ġperipher al
izophren ia
at to
us ions
ĠH yp
ĠG ate
Ġsh ops
The ir
Ġê°Ģ ê³ł
Ġtime ly
Ġsm ile
Ġconf using
Ġpass enger
Ġsing ular
ĠíķŃê³µ ìĤ¬ìĿĺ
let in
ĠìĺĪìķ½ íķĺìĦ¸ìļĶ
Ġgall ons
ĠIndust ry
Art icle
ĠUnivers al
ir k
ad ers
ĠìĤ¬ ìļ°
íļĮ ìŀ¥
íĥĢ ìļ´
Ġíĺ¸íħĶ ìĿĢ
Ġì¦Ĳ ê²¨
Ex pl
ëĺĲ ëĬĶ
Ġë²Ķ ìľĦ
Ġë¥ ´
Ġëĵ¯ íķľ
Ġnest ing
ĠAntar ctic
Ġtestim ony
ignt y
D E
l aim
t ail
Ġall ies
Ġinc om
ĠëĮĢ ìłĦ
íķĻ ìĬµ
ĠSh are
sp eed
Ġver ify
Ġappropri ately
Ġanaly tical
ĠëĦ£ ê³ł
Ġoblig ations
Ġcompris es
Ġfluor ide
od ia
un ity
ond itions
Ġrel uct
ĠêµĲ ì²´
Ġìłķë³´ ê°Ģ
Ġëĭ¹ ìĤ¬
Ġlower ing
Ġclaim ing
Ġcook ies
Ġqual itative
rep resent
Ġped est
ĠGre ater
ĠEmer gency
R et
in ar
Ġd os
Ġd amp
ol ics
Ġinc ub
Ġsim ulations
ì¦ Ĳ
Ġpub lish
ĠíļĮ ìŀ¥
Ġantib ody
Ġburn s
ĠCle ar
Ġearn ings
Ġê°ĸì¶Ķ ê³ł
Ġoccas ional
Ġfant astic
Ġoz one
ĠìĪĺë°± ë§Į
ĠSyd ney
N O
ce phal
Ġê´Ģ ëŀĮ
Ġcor rupt
anc ies
Ġnut rit
Ġmor ality
Ġnation wide
Ġep ic
ĠCommon wealth
olit ical
Ġcerv ical
ĠëĪĮ ëŁ¬
2 50
s er
Ġ á
es ar
Ġl in
ìĬ¤ ìĹĲìĦľ
ìĭľ ë¡ľ
ĠSt ra
íĸī ìłķ
Ġmod ifications
ë¯¸ ìĪł
ins ic
ìŀ¬ ìĿ¸
ĠìĦ¸ ë¶Ģ
eral d
On ly
Ġêµ¬ë§¤ ìŀĲìĻĢ
Ġìŀł ìŀ¬
âħ ¡
íķŃê³µ íİ¸
D ate
f in
p ublic
Ġf ans
Ġex empl
ore st
ĠE u
Ġ18 70
ê²½ ëĭ·ì»´
Ġê²° ì½Ķ
Ġìłľê³µ ê³¼
Ġfail ures
ĠìĺĪìķ½ ìĿĢ
Ġìħ Ī
W H
Ġo ven
ch y
em en
end ix
ê³Ħ ìĹĲ
Ġ18 60
ĠìĦ¸ ìĽĮ
ĠAnd erson
Ġíı¬ íĬ¸
ĠZ emio
ì§Ī ìĿ´
Ġhead ing
Ġê·¼ ë¡ľ
Ġê·¼ ëĮĢ
bre aking
ĠBC E
Ġlegisl ature
b irds
Ġd ens
Ġexp orts
Th anks
Ġmon arch
ĠêµŃ ìłķ
min ute
Ġíŀ Ĳ
Ġmist aken
Ġfisher ies
Ġrestaur ant
ĠTai wan
S D
od d
ĠG H
ëł Ľ
yp ical
ìŀħ ëĭĪê¹Į
ĠìķĪ ë³´
Ġvot ed
Ġì¶ķ êµ¬
ĠìŀĪëĬĶëį° ìļĶ
Ġëŀ ľ
ĠíĻĺë¶Ī íķ´ëĵľë¦½ëĭĪëĭ¤
Ġcombust ion
g ia
le ans
ĠS kin
am ics
ê³ł ê¸°
est ial
ê¸° ê¸°
Ġwater ing
ĠíĻĶ íķĻ
ĠAct s
Ġcompet ing
ãĤ Ĵ
ĠCho ose
Ġprox imity
ĠBapt ist
F P
Ġt ales
Ġf r
Ġg ig
am er
ìĿĦ ê¹Į
Ġan emia
ab y
ì§Ģ êµ¬
ĠH ope
Ġcl osure
Ġëª ½
ìĪĺ ìĻĢ
Ġatt orney
ĠìĹĨ ì§Ģë§Į
Ġcount ed
Ġresp ected
Ġpot s
Ġbre eds
Ġê³³ ê³³
Ġ194 3
Ġaltern ate
Ġmoment um
Ġdisapp oint
Ġsimpl er
Ġdin osaurs
ĠHy per
Ġtut or
Ġfo am
Ġlect ures
Ġambit ious
Ġo scill
ĠT ips
ĠC M
ĠB os
ill ery
ac ity
Ġíķľ ìłķ
Ġmet all
ĠCon sequently
ĠëĶĶ ìĬ¤íģ¬
Ġvari ant
Ġsn ack
Ġexcept ional
ĠëĦĪë¬´ ëĤĺ
Ġbelong ed
ĠìĿ´ìłľ ëĬĶ
Ġíĺģ ëªħ
ĠMarg aret
ĠArist ot
w ick
Ġëĵ± ê³¼
Ġdifferent ial
Ġ0 6
Ġê³łê°Ŀ ìĿĺ
enn y
Ġíı¬íķ¨ íķĺìĹ¬
Ġagg ression
ĠíĴį ê²½
Ġclar ity
Ġdivor ce
ê ¶
it ational
Ġre ass
Ġst amp
íķĺ ê²łëĭ¤
Ġnot ing
Ġwhe els
Ġres ort
ëĤĺ ê°Ģ
ĠëķĮ ìĹĲëĬĶ
ë°© ì¹¨
Ġpot ato
Ġëª» íķł
ĠëĨĴ ìĿ´
Ġemphas ized
Ġlik ed
Ġdu pl
ĠSaf e
Ġul cer
Ġabol ition
Will iam
osex ual
ĠByzant ine
Ġt ent
Ġw ool
ĠC anyon
am ar
Ġíķ ¸
Ġhand led
Ġexcept ions
ĠVal ue
Ġmicrob ial
Ġfract ure
ĠëģĬ ìŀĦ
Ġeleph ants
ĠìĨĮìļĶ ìĭľê°Ħ
ĠëĤĺë¨¸ ì§Ģ
Ġf riction
op hers
Ġne arest
ë¦¬ ëĿ¼
íķ´ íĶ¼ìºłíį¼ìĬ¤ëĬĶ
ìĭľ ì½Ķ
ĠJ oint
now ned
Ġany way
ĠëĤĺ ê°Ī
Ġíķ´ íĶ¼ìºłíį¼ìĬ¤ëĬĶ
ìľĦ íĤ¤
Ġê´Ģ ê°Ŀ
Ġë¹Ħ ì¤ĳ
ĠëĤ¨ ë¶ģ
Ġrul ers
Ġíķ´ëĭ¹ ëĲľëĭ¤ë©´
Ġêµ¬ë§¤ ìŀĲë£Įë¥¼
Ġkill er
Ġcultiv ated
Ġmanip ulation
Ġsatisf y
Ġtact ics
Ġcompat ible
ĠBanglades h
M icrosoft
V ol
c ard
d ependent
th irds
ëĵ Ī
Ġìľ ĪëıĦìļ°
ë¶Ģ ìĻĢ
Ġë¬¸ íķĻ
ì¤ĳ ìĭ¬
Ġauthor ized
Ġconsist ency
Ġìĸ´ëĶĶ ìĦľ
Ġíļį ëĵĿ
Ġsemic onduct
O h
u ated
ī ìĿĢ
ĠS ky
ĠC art
Ġsh ame
ĠìĦ ŀ
Ġcont est
Ġcl ot
ìļĶ íķľ
ê¸Ī ìķ¡
ìĨį ìĹĲ
ãħ ĩ
Ġant im
ì²Ń ìĨĮëħĦ
ì¦Ŀ ìĿ´
Ġpred iction
Ġspect acular
Ġroutine ly
ĠëıĦêµ¬ ìĻĢ
Ġmaxim ize
t ec
Ġs ie
Ġf right
Ġin exp
ĠA er
Ġal igned
ĠW olf
Ġr ated
ë¦¬ ì¦ĺ
Ġreg ards
Ġfl ights
ìľĦ íĦ°
ĠRe form
de v
Ġëħ¸ ìĿ¸
ĠOr thodox
Ġë¡ ¯
Ġviol ation
Ġprior it
Ġult rasound
head ed
Ġrecommend ation
Ġstrugg les
ìĤ¼ ìĦ±
Ġmicrosc ope
Ġtom orrow
Ð »
as i
Ġh ook
Ġpro c
Ġunder water
Ġco operative
Ġíıī ìĥĿ
ĠìłĲ ì°¨
ì£¼ìĿĺ ìĿĺ
Ġìĭ¶ ìĸ´
Ġ194 9
ê·ľ ì§ģ
Ġgradu al
Ġsyn chron
Ġclim b
Ġhier archy
Ġíķĺëĵľ ìĽ¨ìĸ´
Ġë²ĦíĬ¼ ìĿĦ
Ġê¾¸ì¤Ģ íŀĪ
he art
es y
ĠC as
ĠD raw
ĠE b
ĠR io
ĠN ile
Ġapp les
ĠìĤ¬ìļ© íķ´
ĠZ oo
Ġë³Ģ íĺ¸
ĠëĿ¼ ìĿ¸
Ġveter ans
ĠíĿĶ íŀĪ
Å «
Ġa ug
Ġs ins
ul ic
ĠP os
ĠB rig
ĠL GBT
ace ous
ìĹ¬ ìĦľ
Ġdiff ers
ìĨĮ ëĬĶ
ëĦ ĺ
Ġë°ľ ìĨ¡
ars on
Ġmusic ians
Ġwood s
bl og
Ġarm ies
Ġìŀ¥ìĨĮ ìĹĲìĦľìĿĺ
ìĭ± íĦ´
Ġterror ism
iat ry
S uch
if iable
ag u
pl er
ĠëĮĢ ê¸°
Ġì§Ģ ëĭĮ
Ġact ed
Ġgra zing
Ġ20 23
Ġprof iles
Ġlast s
Ġhead quarters
ĠìĥĿê°ģ íķĺê³ł
ĠReg ion
Ġinvent ory
oub ted
l ab
m ay
o vers
im ore
Ġfor cing
íķĺ ìļ°
Ġan k
Ġor th
Ġex it
ke ep
ĠëĮĢ ìķĪ
êµŃ ìĿĢ
ìĪĺ ìĹĲ
ĠSe attle
ĠChrist opher
ĠInstit utes
ëł¸ ìĬµëĭĪëĭ¤
Ġbreast feeding
ĠCur riculum
Ġtrust ed
Ġtempor arily
Ġëįķ ë¶ĦìĹĲ
D B
S chool
Ï ģ
Ġo un
Ġth ir
ĠT ell
id ency
ĠP ed
ìķ Ĺ
ĠìķĬ ìľ¼ë©°
Ġ9 1
Ġmat ches
ĠAd m
ĠBe ijing
ĠAll ied
ĠìĹĲ ëĦĪ
ĠëĿ Ħ
Ġparticip ant
Ġnorth west
Ph one
Ġguarant eed
ĠProble ms
Ġcounterpart s
Ġd ermat
ro ts
se arch
ê¸° êµ¬
ëŀ ©
ĠIn it
Ġcomm erce
ì£¼ ìĭľ
ì£¼ ë¯¼
Ġed it
Ġmem orial
ĠAnd roid
Ġtem ples
ë°Ķ ë§Ī
Ġê°Ĳ ê°ģ
AR S
ĠMin or
Ġexpress ing
Ġê¸¸ ìĿ´
ãĤ ĭ
ãĥ »
Ġharvest ed
ĠëĽ° ìĸ´
ĠFed eration
Ke ep
Ġharass ment
Ġveterin arian
b oth
c ience
Ġwe ights
ĠR un
Ġhand ed
Ġappro ached
Ġmat urity
Ġlaw yer
ìķĺ ê³ł
Ġlim bs
ĠíķĺëĤĺ ëĭĺìĿ´
ĠëĶĶ ìŀĲìĿ´ëĦĪ
Ġintrodu ces
Ġë¶Ģë¶Ħ ìĿĢ
Ġcra w
ĠProf essional
Ġlov es
ache lor
ĠìĶ¨ íĬ¸ë¦½
ì¤ ¬
amil iar
Instit utions
s ens
it o
ĠJ oe
ĠK ind
ĠìľĦ ë¡ľ
Ġjust ify
ĠìĥĿ ë¬¼
ĠìĥĿ ê²¨
ìĽĶ ë¶ĢíĦ°
Ġide ology
Ġprevent ive
Ġinvest ing
oll en
ĠíĬ¸ ë¦¬íĬ¸
Ġdecl are
ìĤ¬íļĮ ìĿĺ
ĠScript ure
ĠVirt ual
d ose
p iece
x x
im ated
ĠE t
ĠN urs
Ġë¬¼ ìĸ´
ateg ory
pro v
Ġbreak through
ĠTest ing
ĠìķĬìĿĦ ê¹Į
ëĨĵ ìĿĢ
ĠArchitect ure
K E
f ram
Ġn ests
ĠC and
Ġst oring
iv ated
ĠE X
Ġen force
Ġob struct
Ġpres erving
Ġed itors
Ġcommun icating
IN E
ĠIS O
Ġunw anted
supp ort
G iven
Ġp ad
Ġp ile
Ġm asks
ot te
ë¡ľ ë§Ī
um ble
Ġqu otes
ĠWe ight
ĠAd vis
ĠUS S
rate gy
IC E
ev a
urg ical
ë´ī ìĤ¬
Ġalt ar
ĠíĿĺ ëŁ¬
Ġoverse as
b ling
j u
Ġd irty
Ġwh it
ë¡ľ ìļ°
ĠG ram
Ġpl ots
ast es
ê³µ íķĻ
Ġcar ved
Ġë°ľ íľĺ
ĠAd ditional
íĤ¤ íķĳ
ĠOr leans
Ġcontact s
Ġìº ¡
Ġcapital ism
ĠMc K
ĠVol unt
Ġeru pt
Ġìķī ìķĦ
Â »
Ġp ound
Ġd orm
ĠT ower
ĠB ud
ĠB irth
Ġlike wise
ìłĦ ì²´
ìļ° ìĦł
Ġsign aling
Ġtreat s
Ġì§Ħ ìłķíķľ
Ġì¤Ģ ëĭ¤
Ġë²ł íĬ¸ëĤ¨
Ġpack et
ĠTor onto
Ġë¹Ħë¡¯ íķ´
Ġpursu it
ìĺµ ëĭĪëĭ¤
osynt hesis
Ġcannab is
Ġnanop articles
A I
Ġl ion
ĠT aking
ig uous
Ġex otic
ĠG ender
íķ´ ì£¼ëĬĶ
are ttes
Ġ19 29
Ġë³´ ëĭ¤ëĬĶ
ph p
Ġbl end
Ġë¶Ģ íĻľ
ĠìĤ¬ìļ© íķľ
Ġserv ant
Ġequ ilibrium
Ġê°Ĳ ìłķ
There fore
Ġì´Ī ê³¼
Ġë§ŀ ê²Į
Ġìķł ìĭłì¦Ī
** *
Ġutil izing
Ġreh abilitation
ĠBelg ium
ĠNig eria
D NA
s ign
re tt
ing ing
se ts
ĠD anish
ast ically
Ġco h
Ġinst inct
Ġìĺ¤ ë¥´
Ġcur iosity
ron es
ring e
Ġë¬¼ ìĿĦ
Ġprop ri
Ġhost ile
ĠFl ash
Ġdecor ated
Ġgau ge
Ġn asal
ur ate
Ġu mb
âĢĿ ).
ìłľ ìĻĢ
ì§Ħ ìĿĦ
Ġbo om
Ġ15 00
Ġ0 5
Ġê²ĥìĿ´ ìĹĪëĭ¤
Ġlive lihood
ĠPr ice
Ġharm on
Ġmiss ile
ĠExpl orer
ĠBro ther
ĠVictor ian
L ong
Â ²
Ġthe ft
os itory
em ics
Ġse ism
ìĦ¸ ìĿĺ
ĠëĤĺ ë¦Ħ
Ġwhere by
ĠìĨĮ ìħľ
Ġê°ĢëĬ¥ íķĺë©°
ĠíĽĦ ìĽĲ
ĠëĦĪ íĿ¬
ĠíĶĮ ëŀĺ
Ġì¹ľ ìłĪ
ĠMem bers
Ġë¹Į ëĶ©
Ġoblig ation
Ġê¹Į ì§Ģ
oven ant
Â·Â· Â·Â·
teb rates
F O
M ark
Ġs ap
Ġn a
Ġg ospel
ch ildren
ĠN H
Ġen velop
Ġcl ues
ìĦ± ìŀ¥
ric ular
Ġsign ature
ĠìĿ´ìļ© íķĺëĬĶ
Ġê±° ê¸°
mit t
ĠQu estion
Ġacid ic
ĠCom ment
Ġdepos it
ĠClin ic
Ġauton omy
ĠHig her
Ġíķĺìļ°ìĬ¤ íĤ¤íķĳ
m ath
ĠD ental
ĠR on
oc ate
ĠG ab
ail and
Ġìĥģ ìĹħ
Ġcar riers
ë°ĺ ê¸°
Ġimm ers
Ġëħ¸ ìĦłê³¼
ê²ĥ ìĿĦ
Ġbur st
Ġê¶Į ë¦¬
Ġsil ence
ĠAtl anta
Ġcong ress
D esc
e ering
p ot
Ġa pt
ro d
ìĿ´ ìĿµ
Ġv end
ag g
Ġê·¸ ê³³
Ġar ises
Ġíķĺ ìŀĲ
ĠìľĦ ìĿĺ
ĠëıĻ ë£Į
Ġorgan izational
Ġpass words
Ġparent al
ìĺ¨ ëĿ¼ìĿ¸
Ġê·¸ëŀĺ íĶ½
ĠPal ace
Ġinh ab
Ġastron omy
Ġscholars hip
ĠRail road
Ġa rose
Ġì į¼
Ġl ips
ĠS alt
ad er
Ġhe ct
ì§Ģ ë©´ìĦľ
ĠE instein
ĠëĮĢ ë¡ľ
Ġspec ially
ĠìĤ¬ìļ© ëĲĺëĬĶ
ë°ĺ ëıĦ
ĠíĺĦìŀ¬ ìĿĺ
Ġcop ing
Ph ot
Ġpal ace
Ġshar ks
ĠMem ory
Ġvalid ity
ĠMic hel
ĠìĹħê·¸ëłĪìĿ´ ëĵľ
Sept ember
9 00
P N
Ġor ch
ĠW ords
Ġ19 37
Ġspec ify
ìľĦ íķľ
Ġdr ill
Ġeas iest
Ġìĺ¨ ëıĦ
Ġì°½ ì¶ľ
ĠEd itor
Ġminor ities
ĠDi agn
Ġod or
Ġê¿Ī ìĿĦ
Ġmembran es
Per haps
Ġëħ¸íĬ¸ ë¶ģ
Ġìºĺë¦° ëįĶë¥¼
F L
Ġb ol
ëĭ «
ĠB P
iv ic
ĠY ale
ì¹ĺ ê²Į
Ġsm ok
Ġke en
Ġcontin ental
Ġinvest ed
ĠìĤ´ ì§Ŀ
ĠCons ult
Ġdestro ying
Ġemp athy
Ġball s
**** ****
ì į
Ġt ide
Ġê·¸ ê²Į
Ġê·¸ ëŁ´
Ġ19 11
ëĮĢ ìĹĲìĦľ
Ġê¸° ë¶Ħ
ĠK a
Ġunder graduate
Ġìĭł ìķĻ
Ġgl ut
ĠCl inton
arr ass
Ġrespond ing
Ġoccup ational
ĠìķĦë¬´ ë¦¬
Ġsurre nder
L ess
V al
ad ic
ĠD a
ë¦¬ ê·¸
Ġ19 36
ìĨĮ ìĿĺ
Ġêµ¬ ê²½
Ġì¡° ìļ©
ĠìĤ¬ìļ© íķĺë©´
Ġlim b
Ġappear ing
ëģ Ī
ĠComp an
Ġap nea
ĠRec on
Ġconstit utes
Ġpick ing
Ġinstrument al
Ġnob ody
Ġpool s
Ġglac iers
ĠDO I
ĠAntar ctica
Ġerect ed
w elling
ë ±ħ
it ably
Ġl ucky
ê³µ ìĤ¬
íķł ìĪĺ
ê·¸ ëŁ¼
Ġì¡° ì¹ĺ
ĠìĹ° ë°©
Ġê±° ì§ĵ
ĠZ ion
ene z
Ġwild erness
ĠHar bor
Ġê°ĸ ì¶°
Ġë°ĽìķĦ ëĵ¤
Ġrandom ly
Ġimper ative
Ġirrit ation
in ters
on i
en in
ul as
ĠE ric
ĠF eed
ĠìĹ ĳ
ĠO ri
Ġme g
Ġê¸° ìĽĲ
Ġprot ests
ĠJes uits
Un ited
Ġfavor able
Ġinject ed
ester day
Ġdies el
spe aking
is ure
ing e
im eters
Ġhe ll
og g
ìłķ ë§Ĳ
ĠëĮĢ ë¦¬
Ġìļ° ìĬ¹
Ġpresent ations
Ġìŀħ ìŀ¥ìĿĦ
Ġë§ŀ ìķĦ
Ġhom eless
Ġkn ife
Ġrelax ation
Ġhem isphere
Ġradical s
Ġabnormal ities
Ġcub ic
Ġmilit ia
L G
g rass
Ġt une
Ġp onds
Ġor nam
op amine
ĠB lu
ĠìĿ´ ëŀĢ
Ġle ather
ĠL yn
Ġk ern
Ġup coming
íĥ Ĳ
Ġëª¨ ì§ĳ
Ġchar ity
ë°© ìķĪ
ĠPh ase
ĠìĭľìĦ¤ ìĿĺ
Ġpost er
Ġpolit ically
ĠíķĺëĤĺ ëĬĶ
Ġaccount ed
ĠëıĦì°© ìĭľê°Ħ
Ġtri um
Ġì¶ľë°ľ ìĭľê°Ħ
point s
Ġalle v
Ġteen agers
Ġcarbohyd rate
Ġì§Ģíķĺ ì²ł
Ġlith ium
Ġastronaut s
D ig
c hest
e at
Ġn our
ĠH E
ìŀĲ ìĹ°
Ġë³´ ìĿ´ê³ł
ë§Ī ë¦¬
ĠëĲĺ ê¸°
Ġ12 5
ĠAt hens
Ġì¤Ģ ìĪĺ
Ġexhib its
Ġì»¨ íĬ¸ë¡¤
âĹ Ĩ
Ġíľ´ê°Ģ ëĤĺ
Ġnumer ical
c f
j e
ĠC ool
ë¡ľ ìĬ¤
ĠW ould
ĠR ule
ĠìĹ ĺ
cc oli
Ġsc rap
Ġì£¼ ì§Ģ
Ġê³µ íĻĶ
Ġhist ories
Ġflow ering
ĠíķŃê³µ ë£ĮìĻĢ
Ġstrong est
Ġnever theless
ĠìĺĪìķ½ íķ©ëĭĪëĭ¤
Ġhost ed
Ġdiam ond
ĠOffic er
ìī½ ê²Į
m ont
Ġs our
Ġp m
ĠS NS
ìĤ¬ ë¬´
Ġbl ast
ìĭ¤ íĹĺ
Ġdet rim
ĠìĿĺ ìĿĺ
Ġpos es
Ġperiod ic
ler ts
Ġrele vance
ĠìĺĪìķ½ íķĺê±°ëĤĺ
hold er
Ġdry ing
Ġwal ks
Ġrend ered
ĠíĶĦë¦¬ë¯¸ ìĹĦ
threat ening
m aker
Ġì ĩ
al ry
ro st
ĠA qu
ĠC hem
ĠP le
ip ed
ĠëĮĢ ê·ľëª¨
ìĦ¸ íĥģ
Ġê³µ ìĤ°
ĠFor ces
Ġë¶Ī ë¦¬ëĬĶ
ĠíķŃê³µ ìļ´ìŀĦ
êµ° ìĿĢ
íħĮ ìĿ¸
Ġë§ŀ ìĿ´
Ġê·¼ ë³¸
Ġple asant
Ġì¦Ĳ ê¸°ëĬĶ
char ge
Ġclim ates
ĠëĬĲëĤĮ ìĿĦ
ĠíĺľíĥĿ ìĿĦ
ĠUk raine
A lerts
f ly
h um
he it
iz able
Ġ19 13
ĠCh i
Ġtra ced
Ġ- >
ne x
Ġë§Ĳ ìĿĢ
ĠìĤ ½
Ġcolor ful
ìĶ¨ íĬ¸ë¦½
Ġcommerc ially
Ġfert ile
Ġprivile ge
Ġcyl inder
ĠìĶ¨íĬ¸ë¦½ ìĿĢ
ĠíķŃê³µìļ´ìŀĦ ê³¼
C trip
ĠT otal
ĠW ang
Ġ19 33
Ġwell being
ĠìłĢ ìļ´ìŀĦ
Ġdeterm in
ĠíķŃê³µ ë£Įë¥¼
ĠìłĲ ìĿĢ
itud inal
Ã© s
Ġconc ert
ixt y
ĠìķĦì§ģ ëıĦ
Ġê·¸ëħĢ ëĬĶ
ĠìķĬìķĦ ëıĦ
Ġreef s
Ġë· Ķíİĺ
ĠCtrip ìĿ´
ĠCtrip ìĹĲìĦľ
ĠFest ival
ĠFare Alerts
oubted ly
ìĶ¨íĬ¸ë¦½ ìĹĲìĦľ
Ctrip ìĹĲìĦľ
ĠFareAlerts ê³¼
n orm
s ize
ç ļ
ar b
ĠA venue
ĠC rown
ê°Ģ ë¡ľ
ë¦¬ ë©´
ĠëĤ ¸
êµ¬ ìĦ±
Ġgen re
ĠìĤ¬ìļ© íķĺì§Ģ
Ġê±° ëĵŃ
Ġdem ographic
Ġlink ing
ĠìľĦì¹ĺ ìĹĲ
Ġê±´ê°ķ íķľ
ĠFre qu
ĠìĶ¨ ëĬĶ
ĠJud a
Ġadmin ister
J o
m ount
Ã £
ĠP RO
ĠL iver
Ġen rich
ëªħ ìľ¼ë¡ľ
Ġpol es
ëĭ¨ ìĿ´
ĠPh oto
Ġê°ķ ëĤ¨
Ġshort age
Ġì°¾ ê¸°
ĠëłĪ íı¬íĬ¸
Ġì¹¨ êµ¬
ĠìĤ¬íķŃ ìĿ´
ĠìĥģíĻ© ìĿ´
Ġassist ed
---------------- ----------------
M al
c ode
d oc
ĠS ugar
ĠB art
un ks
Ġall iance
êµŃ ìĿĦ
ĠëıĻ ê¸°
Ġve t
Ġmar ijuana
Ġê²ĥìĿ´ ê³ł
ãģ ª
íķ´ìĦľ ëĬĶ
Ġprec autions
Ġsequ encing
Ġload ing
Ġnav ig
Ġfle w
Ġremed y
ĠImpro ve
Ġbutterf ly
ķ ìĭľì½Ķ
ay an
ay ers
ĠB ull
Ġsh ifted
Ġsp ill
Ġgo ver
Ġë¶Ģ ê·¼
Ġpop ul
Ġìłģ ìĿĳ
Ġaccess ibility
Ġremain der
ĠëĮĢíĳľ ëĬĶ
Ġfaith ful
Ġshel f
ĠMethod s
Jan uary
conn ected
1 000
s ky
Ġe ld
ch t
Ġwith stand
ê°Ģ ë£¨
ĠD ark
ĠR at
Ġch ord
Ġen rolled
Ġíķĺ ëĿ½
Ġph on
Ġreg en
Ġë¶Ģ íĴĪ
ĠëķĮ ê°Ģ
ëłĪ ìĿ¼
Ġport rait
ë²ł ìĿ´ìĬ¤
Ġbackground s
Ġincorpor ating
ëĤ¸ ëĭ¤
Ġadvert ise
Aut hor
ĠEvent ually
ĠHou ston
G s
S te
Ġp ist
est hesia
ĠH imal
Ġê°Ģ ë¡ľ
Ġtr ash
ific ant
Ġcor rection
raph ic
Ġìŀħ ê³ł
Ġrun off
Ġìĭľê°Ħ ìĹĲ
ĠPar ks
Ġreflect ing
Ġë¥ ĺ
aud i
Ġentreprene urs
h u
n ote
Ï Ĥ
ĠT her
ĠI R
ìĨĮ ë¦¬
Ġê³µ íĨµ
Ġadv ise
ĠDe ad
Ġëĵ¤ ìĹĪëĭ¤
Ġê°Ĳ ìĹ¼
ëĦ¤ ìĿ´ë²Ħ
Ġrecogn izing
Ġfif teen
Ġpuzz le
ëĴ ¤
ĠDak ota
E lect
ĠS L
ill ary
ĠD A
ĠD E
Ġcan on
ĠìĿ¸ ìĪĺ
ĠëĤĺ ìĺ¬
ë¥´ íĬ¸
Ġë§Į ëĤľ
ĠAn na
Ġ9 00
Ġdi abetic
ĠëĦ Ĳë¦¬
Ġstress es
Ġbroad ly
ĠTra il
ĠRo om
ĠProt ect
Ġterrit orial
ĠÎ ¼
Ġsan itation
Ġtow ers
Ġadministr ators
Ġaband on
F orm
u pp
Ġg olf
ĠP apers
ĠëĮĢ íķĻêµĲ
ìķĦ ìĿĺ
Ġev olving
ìĻĢ ìĿ´
Ġëª¨ ìŀĦ
ëł¤ ìĦľ
Ġì¢ ģ
Ġchar ging
ĠEx change
ìĭŃ ëĭĪëĭ¤
Ġfit ted
ĠìĤ¬ìĿ´ ë²Ħ
ĠAcad emic
Ġtal ent
Ġê¸´ ê¸ī
Ġeru ption
B er
ĠG a
Ġsh rubs
ne ath
ìĽĮ ìĦľ
ĠTr uth
Ġê·¸ëŁ¬ ë¯Ģë¡ľ
ĠíħĮ ìĿ´ë¸Ķ
Ġ195 9
Ġëľ» ìĿĦ
ĠEc ology
ĠNich olas
n osis
s ocial
Ġin ert
Ġst ays
ĠI g
ĠB att
Ġê°Ģ ë©´
ĠSt alin
ĠAmeric as
Ġdown ward
Ġgu itar
ĠíĬ¹ íĹĪ
Ġdel icious
ìŀĪ ê³ł
Ġlif esp
ëĲĺìĹĪ ìľ¼ë©°
ĠEvery one
ĠSol omon
Ġë· °
Ġíľ´ëĮĢ íı°
Ġê°¤ ëŁŃìĭľ
ĠArgent ina
in cess
re port
st ra
ri ages
.. ...
Ġê°Ģ ë²¼
ĠV R
ìĹħ ë¬´
Ġcent ered
Ġgl ad
Ġfun gal
êµ° ìĿ´
Ġfast est
ĠìŀĳíĴĪ ìĿĦ
ĠDel hi
Ġë©Ģ ë¦¬
Ġalign ment
íģ´ë¦¬ ëĭĿ
¼ Ī
es ome
ĠT ypically
Ġg rief
id ation
ĠS eed
Ġsh ots
Ġad mission
ĠTh ank
au coma
ject s
Ġany more
Ġredu ctions
Ġfree ze
Ġë³¸ ìĿ¸
Ġver bs
ë§Ŀ ìĿĦ
ĠAct ivities
Ġut ilities
IT Y
ĠRec ent
Ã¼ r
cons cious
Ġscan ning
lear ning
ìĬ¤íĶ¼ ëĶĶìķĦ
Ġelectroly te
Ġmenstru al
Ġë§ĪìĤ¬ ì§Ģ
E xt
G erman
in formation
is ite
ĠL iber
ri ors
ff icking
ĠìĪĺ ë¦½
Ġover night
aw ning
Ġdist ribute
Ġ9 4
ë°© ìĿĦ
gen cies
Ġâ ĺ
ëģ Ŀ
ĠGu inea
ĠíĥĢ ìŀħ
Ġcred ited
ĠArab ia
ĠIran ian
ĠìĻ¸êµŃ ìĿ¸
ĠFle et
Ġtoile t
B rit
h alf
p ill
Ã Ĺ
at ics
Ġf ox
ĠCh anges
ìĥģ ìĹĲìĦľ
eng ine
Ġê²Į ìŀ¬
Ġëªħ ìĿ´
ãģ Ļ
Ġíŀ ĺìĿ´
ë´ Ħ
ĠRec ord
Ġtou ched
ĠìĤ¬ìĿ´íĬ¸ ìĹĲ
ĠRel igion
Ġglass es
ĠìĻĢ ìĦľ
Ġpull ing
Ġclub s
Ġfeather s
G reat
O ff
c i
Ġh its
ĠS ut
ĠG ib
art icle
ĠSt age
Ġpre st
Ġnew er
Ġrem inder
Ġtrans g
Ġmod er
ëĶ ĺ
Ġserv ants
Ġlaw yers
Ġquestion na
ëłĪìĿ´ ìħĺ
Ġimpl icit
iling ual
Ġìłģê·¹ ìłģìĿ¸
ãİ ¡
íĢ ´
Intern ational
Ġber ries
Ġdisput es
ambo o
ìķĮëł¤ ëĵľë¦´
p ine
Ġt we
Ġb ent
Ġb aking
Ġcom et
um m
iv ism
ĠëĤ ³
Ġar row
Ġdec iding
ê¸Ī ìĿĢ
ì¡° ìłķ
Ġpat ron
ĠìłĢ íķŃ
cl er
Ġsuccess ion
ĠìĿĮ ìĭĿìĿĦ
Ġstress ful
ĠInstit ution
Ġëĸ ¨
ĠÂ ±
ĠêµĲìľ¡ ìĿĦ
AC E
pe ople
Ġenh ancing
Ġesc aped
ii i
Ġë¡¯ ëį°
is ive
Ġh ollow
ĠA A
Ġde alt
Ġse aled
ìĿ¸ ëĭ¹
ĠK er
ë¹Ħ ìĿĺ
ëĭ¨ ìĿĢ
Ġcor rosion
Ġìĭ¤ ì§Ī
sc he
Ġê´Ģëł¨ íķĺìĹ¬
Ġviol ations
AS T
ÃŃ s
Ġdepth s
Cont act
Ġê´Ģê´ĳ ê°Ŀ
Sym ptoms
A tt
a ft
Ġto es
ĠB R
ê¸° ì§Ģ
Ġac upuncture
Ġref use
ëł¥ ìľ¼ë¡ľ
ĠìĥĿ ì¡´
ards hip
ê°Ĳ ìĤ¬
Ġemb arrass
Ġìłĳ ìĪĺ
âĪ ¼
Ġsubsid ies
Ġrecre ational
Ġpredomin antly
Ġnutrit ious
P age
Ġh ob
ĠM R
Ġde forestation
Ġê²½ ê¸°ëıĦ
Ġher bal
ë¯¸ ëĭĪ
íĶĦ ëŀĳ
ĠPl ate
Ġë¹ µ
over ty
NA SA
Ġë§Ľ ìĿ´
Ġmic row
ĠRef uge
amil ies
Ġìĭ¬ê°ģ íķľ
Ġgrocer y
t ings
x iety
Ä ±
Î µ
ar o
le ading
ĠS ic
ĠM oney
ìĭľ ë¯¼
ind ex
Ġright eous
Ġë°© íķ´
Ġëĭ¨ ë°±
ĠSe ven
Ġexec ute
ĠPan el
Ġë¶ĦìľĦ ê¸°
Ġìľ¼ ë¡ľ
Ġseiz ures
Oct ober
i age
Ġd y
Ġê ¿
Ġg amb
Ġde ployment
ĠH T
Ġk ick
ìĤ¬ ë¡Ģ
Ġcomp ly
Ġcomp ressed
Ġtrans m
ĠìĿ´ìļ© ìŀĲìĿĺ
ë°© íĸ¥
ì¹´ íİĺ
Ġëĵ¤ìĸ´ ìĦľ
Ġê³³ ìľ¼ë¡ľ
Ġdefin ite
Ġë³´ê³ł ìĦľ
áĥ Ĳ
Ġsurpris ingly
ĠEconom y
Ġíĺķíĥľ ìĿĺ
aret te
P ort
ë ®
Ġb ubble
ĠG IS
Ġtw in
Ġam endment
Ġìĸ´ ë¥¸
ĠìĤ¬ìļ© íķĺìĭ¤
Ġconclud es
ĠìĿµ ìĪĻ
ĠëĵľëĿ¼ìĿ´ íģ´ë¦¬ëĭĿ
âĪ Ĵ
Ġpursu ing
Ġdeclar ation
Ġp rize
ol o
Ġas leep
em bers
ĠF oot
ĠN ear
ĠG ran
Ġcomp osite
Ġ19 35
Ġdef icit
ĠìĹ° ê³Ħ
Ġopp osing
Ġlist ing
íħĮ ê³ł
Ġcolor ing
Ġë°©ë²ķ ìĹĲ
ĠìĤ¬ìĭ¤ ìĥģ
ĠìĥģíĴĪ ìĿĦ
Ġ195 4
Ġ195 8
ĠìĿ´ìľł ê°Ģ
Ġê³Ħíļį ìĿĦ
ĠìķĶ íĺ¸
Ġmit igate
Ġcounsel ing
Ġaccompany ing
Ġenact ed
Down load
ĠíĬ¸ë¦¬íĬ¸ ë¨¼íĬ¸
b ecause
e lect
h on
× ķ
Ġs q
ĠP s
Ġsh ifting
ëŀ Ń
ĠV ision
ì¹ĺ ìĿĺ
Ġë§Į ëĤł
ìĹ° íŀĪ
íĮĮ ìĿ´
ĠCont ent
Ġdocument ary
Ġë§Ľ ìŀĪëĬĶ
ĠFin land
Ġëĸł ìĺ¬
Ġcommission ed
olith ic
ĠNev ada
) ?
1 10
B O
H R
Ġ 000
ĠA BC
ĠR ow
ĠL ate
Ġsp ider
Ġcomp uls
Ġìľł ëıĦ
ĠAl most
Ġent ries
Ġìłľê³µ íķľëĭ¤
íķĺê¸° ìĹĲ
ãģ ¾
OR E
Ġdemonstr ating
rans mit
Ġfract ures
ĠëĤĺìĺ¨ ëĭ¤
ĠVill age
u o
Ġthe or
at ivity
Ġe cho
ë¡ľ ìĨĮ
ĠP D
ĠP oor
ĠV acc
Ġass im
ìĥĿ ìĤ°
íĥĢ ìŀĦ
Ġì¶Ķ ì¶ľ
Ġopp onents
Ġenc ryption
ì±ħ ìĿĦ
ER E
ĠíĿ¬ ìĥĿ
Ġath lete
Ġsovere ignty
Ġretire ment
ĠObserv atory
he rence
Ġin appropriate
Ġê »
Ġh iding
âĢ ³
im ation
ĠS N
ĠF riends
Ġper me
ĠSt ore
ens is
íİ ĺìĿ´ìĬ¤
Ġ10 5
ĠAl t
Ġìĭł ìĦł
Ġz o
Ġì¦Ŀ ëªħ
Ġemb od
Ġíİ¸ìĿĺ ë¥¼
ìĺ¬ íķ´
ĠCath olics
ĠExp ress
ĠCat hedral
Ġsulf ur
Ġdign ity
A ccess
M W
b irth
ed y
un n
ĠTh ailand
Ġcl ergy
ê°Ħ ìĿ´
Ġve in
ĠìĻ¸ ìĹĲëıĦ
ĠMan ual
ĠíĬ¸ ëŁ¼íĶĦ
Ġì²Ń êµ¬
ĠReg ister
atur ated
Ar ch
Ġadequ ately
ĠEth ics
Ġcontamin ants
ĠSil ver
Ġscr atch
Ġëļ ľ
Ġm aj
le m
Ġg low
op ard
ìĿ¸ ëĵ¤ìĿĢ
ĠìŀĪ ëĤĺìļĶ
Ġk ills
ìĭĿ ê³¼
Ġmar ry
ĠAct ivity
ĠìłľíĴĪ ìĹĲ
ĠNor weg
Ġdipl omatic
Ġinexp ensive
f a
Ġt ended
il age
ĠS ad
ĠI F
ir ts
ìķ ±
ëĵ Ģ
ĠCh annel
Ġë¬´ ê¸°
Ġë¶Ģ ë¬¸
Ġêµ¬ ìĨį
Ġë§Ĳ íķ´
ĠìĦł ë°ľ
íĮĮ íģ¬
Ġdeb ates
ĠRec ords
Ġdecl ining
Ġíķ© ê²©
Ġê²Įìĭľë¬¼ ìĿĺ
Ġcourt esy
ĠíıŃ ë°ľ
Ġcomprom ised
ĠìķłíĶĮ ë¦¬ì¼ĢìĿ´ìħĺ
Ġt ires
Ġre wards
Ġn ights
el ong
ud a
Ġr ip
ĠìĿ´ ë¥´
ĠG rowth
Ġman eu
Ġper ceptions
Ġun h
ìłľ íķľ
ìłľ ìŀĳ
ov al
ĠìĿ¸ êµ¬
ne ver
ĠHe aven
Ġìĺ¤ íĶĦ
Ġsoc ietal
Ġmon ks
Ġë¬¸ ìĿĦ
Ġend less
Ġgl oss
ĠíĬ Ģ
Ġcle ared
Ġele g
ì¢ Ģ
lo ads
Ġcollect ively
Ġbat t
Ġcompl aints
Ġsou ls
Ġì±Ħ íĥĿ
Ġaud iences
ara oh
Ġhon our
Ġëªĩ ëªĩ
Ġunf ortunately
Ġround ed
ĠìķĮìķĦ ë³´
Ġì¦Ĳê¸¸ ê±°ë¦¬
Ġanticip ated
Ġturb ine
Ġnort heast
ĠA round
ĠM BC
ac ies
ĠF if
Ġqu iz
Ġì£¼ ê´Ģ
Ġìľł ìĹĶ
ĠëıĦ ë©Ķ
ĠìĹ° ìĬµ
ĠìĺĪ ë¹Ħ
ĠíĺĦ ìĥģ
Ġfin ite
Ġê°ľìĿ¸ ìĿĺ
ores cent
Ġmicro bi
ìµľ ìĨĮ
ĠProg ress
ĠìŀĪìĹĪ ëĬĶëį°
ias m
Ġpray ers
Ġacceler ate
Ġe co
ĠìĿ´ ëĵ¤ìĿ´
iz ard
Ġapp ar
Ġê²ĥ ìĿ¸ì§Ģ
Ġsome body
Ġê²½ ê³ł
Ġëį ®
Ġur ge
Ġcommand ed
Ġ195 5
Ġìī½ ì§Ģ
Ġtransc ription
Ġbron ze
ĠOcc up
Ġìķ¨ ë²Ķ
ĠKash mir
P op
ĠM ercury
ĠP TSD
ight ing
Ġint ric
Ġê¸° íļĮê°Ģ
Ġì§Ģ ëĭĪ
Ġtr im
Ġam end
ĠìĿ¸ ìŀ¬
ĠìĿ¸ ê¸°ë¥¼
Ġfe eds
Th ank
ìĭ¬ ìĿ´
Ġpress ed
icult ural
Ġur ged
ĠìķĦìĿ´ ëĵ¤ìĿ´
Ġcred its
Ġrespond ents
Ġfol iage
Ġìĺ¤ë¥¸ ìª½
L ondon
b ridge
ä ½
ĠD R
ĠD eg
ĠE L
ìĸ Ģ
ĠìĿ´ ê±´
ëª ¸
Ġì§Ģ íĸ¥
rit ical
ì²´ ìľ¡
Ġdef ensive
Ġelect oral
ĠBl og
ĠAust in
Ġë³ĳ ìĽĲ
Ġadjust ments
ĠRober ts
ĠÎ ²
oster one
flow er
Ġhun ters
Ġvolcan o
Ġpestic ide
Ġê¹Ķ ëģĶ
Ġvoy age
íħĮìĿ¸ ë¨¼íĬ¸
. âĢĶ
f ields
ĠB Y
ĠF u
ĠìĿ¸ íķĺìĹ¬
Ġsupp ose
Ġëĵ¤ ìĹ¬
Ġmar ble
ĠíķĦìļĶ ë¡ľ
Ġë°Ŀ íŀĪ
Ġë¸Į ëĿ¼
ĠìĿ´ë¦Ħ ìľ¼ë¡ľ
Ġêµ¬ìĦ± ëĲľ
Ġauto immune
Ġpneum onia
G M
S outh
m ination
Ġc ables
le vant
ĠSt rategy
ound ed
Ġfl ora
Ġher d
ìķĪ ëĤ´
ĠJohn s
íĻľ ëıĻìĿĦ
Ġge ological
ìĭľìĦ¤ ìĿĦ
Ear th
ë´Ĳ ìķ¼
äº º
ĠOpp ortun
Ġd ip
ul ator
ìĿ¸ ì¦Ŀ
ĠìĪĺ íķĻ
Ġëĵ± ìĹĲìĦľ
ĠëıĦ ëįķ
ĠìļĶ ìķ½
Ġlaw su
íĮĲ ìĿĦ
Ġëģ ĵ
Ġsqu ee
Ġexpect ancy
Ġblock ing
Ġquar ters
ĠGal ile
ëĲĲ ìĬµëĭĪëĭ¤
ĠíĹĮ ë²ķ
B re
g ard
ìĿĺ ë¡ľ
Ġr ush
ĠìĪĺ ìĤ¬
ĠëĮĢ ìĹ¬
ê·¸ ë¦¼
ìĦł ìĿĢ
Ġser um
Ġgu ests
Ġëĵ¤ ëł¤
ĠíĿ °
Ġsubject ive
verse ly
Ġë´ ħëĭĪëĭ¤
ĠDis covery
ĠìĿ´ë²Ī ìĹĲ
Ġgar bage
ĠMont ana
ĠìĿµ ìĬ¤íĶ¼ëĶĶìķĦ
Ġreject ion
Don ald
Ġtransp arency
ĠìĬĪ íį¼
ĠRus sell
ĠSans krit
ro it
ĠT ow
ĠS V
Ġal gebra
Ġex clusion
ìľ Ī
ĠE ye
ìĥģ íĻ©
ĠV ice
êµŃ ìĹĲ
ific ent
ĠìĿ¸ íĶĦëĿ¼
ĠAust rian
ëĨ Ģ
ĠìĥģíĴĪ ìĿĺ
Ġmis under
ĠTechn ologies
bl ack
Ġadvoc acy
Ġhem orrh
Ġstead ily
ĠImm un
Ġarsen ic
Ġs lic
Ġd ots
Ġìľł ì¹ĺ
Ġë¬¸ ìĦľëĬĶ
Ġìµľ ìĦłìĿĦ
Ġbirth s
ĠProg rams
Ġë¬´ìĹĩ ìĿ´
ĠìĤ¬ìĿ´íĬ¸ ë¥¼
ĠRel igious
Ġnovel s
Ġprompt ed
Ġë©Ķëª¨ ë¦¬
pos itive
ãħ¡ãħ¡ ãħ¡ãħ¡
ĠNorm an
Ġspons ored
H P
Ġh ired
ìĦľ ë¡ľ
ĠD ur
íķ´ ìł¸
ìĹĲìĦľ ë¶ĢíĦ°
ì¡° ìĿĺ
less ness
ì²ĺ ìĿĮ
Ġëıħ ìŀĲ
Ġì²Ń ìĻĢ
Ġíı¬íķ¨ ëĲľ
Ġì¶© ì¡±
Ġfast ing
Un like
Ġcoc onut
Ġspr ink
Ġpropag anda
ĠGall ery
ĠApplic ation
f amily
Ġt sun
ro v
Ġor ph
ĠW a
Ġse am
ĠV II
Ġìľł ëĭĪ
Ġref lex
ĠAl ban
the ir
ìĹŃ ìĭľ
ah ren
ĠPh ill
Ġtre asure
Ġcr imin
Ġcomment ary
ĠFa ith
Ġdis ruption
ĠëķĮ ëıĦ
Ġbenef ic
Ġë³µ ìļ©
Ġhous ed
Ġcorresp onds
Ġëľ¨ ê±°ìļ´
Ġëĭ¹ìĹ° íŀĪ
ĠìķĦëĭĲ ê¹Į
Ġexcite ment
t ain
he um
Ġthe ology
Ġfor um
ĠM O
íķľ ìĿĺ
us c
ile m
Ġreg ulating
Ġdisc ourse
Ġë¦ ´
Ġdom ains
ĠAb d
ëĦĪ ë¬´
Ġê·Ģ íķĺ
ĠêµŃê°Ģ ìĿĺ
ĠSim ple
ãĥ ¼
Ġê¸°ë³¸ ìłģìĿ¸
Ġê¸°ë³¸ ìłģìľ¼ë¡ľ
ĠFood s
ĠCat al
ĠMult iple
ĠKal ymnosIsland
disc iplinary
ĠProble m
f s
i w
w ritten
an th
ĠM s
ìĿ¼ ìŀĲ
Ġra m
ê¹ ¥
ì¡ ¸
ĠêµŃ íļĮ
Ġê°ĢëĬ¥ ìĦ±
ê²° ìłľ
Ġlif ting
Ġaud itory
Ġê°ľìĿ¸ìłķë³´ ìĿĺ
ĠìķĦëĭĮ ê°Ģ
ìĻĶ ìĬµëĭĪëĭ¤
Ġaqu arium
Ġgrav itational
Ġìłģíķ© íķľ
ì§Ħíĸī ìŀĲ
T ype
m o
Ġ é
Ġf ost
ra ulic
Ġcon gest
ĠL ang
ìľ¼ ìĭł
Ġad olescent
Ġoff shore
ĠIs sues
ik ipedia
Ġter r
ĠìĹħ ê³Ħ
Ġdro ve
Ġíĺ¼ ëŀĢ
Ġancest or
Ġstimul us
Gl obal
Ġa ver
Ġp osed
an ical
ê°Ģ ìŀ¥
ĠìĿ´ ëĵ¤ìĿĺ
ĠG and
du e
Ġout lines
Ġac ou
Ġjust ified
Ġhum id
ë¬¼ ë¡ľ
Ġend urance
ash i
Ġì¶Ķ ìłķ
Ġsal ary
Ġíħ Ĳ
Ġì¶© ê²©
Ġìłķì±ħ ìĿĦ
Ġê°Ģê²© ìĿ´
Ġconv ince
Ġsimpl est
Ġchromos omes
Ġaster oid
Ġcel estial
fol io
Dav id
Ġb ites
Ġf iscal
Ġre nowned
ĠH erm
Ġab oard
ëĿ¼ ìĿĺ
ĠìĤ¬ ê³¼
ĠëĮĢ ì²ĺ
Ġê¸° ë¶Ģ
Ġdisc ont
ë¸ Ĳ
Ġel astic
Ġel imination
ĠíķĺëĤĺ ê°Ģ
Ġmot if
Ġrecogn ise
ĠStud io
Ġple ased
ĠìľĦì¹ĺ íķĺê³ł
199 3
ĠUN ESCO
Be ing
Ġjournal ists
Ġinterpret ations
âĳ ¢
Ġrein for
ĠíĶĮëłĪìĿ´ ìĸ´
Ġhur ricane
ĠResp onse
ĠIsa ac
ĠëŁ° ëįĺ
ĠìĹĺë¦¬ ë²łìĿ´íĦ°
ĠëĶ°ëľ» íķľ
Ġtrium ph
R ad
X X
Ġ ãħłãħł
Ġì Įį
ìĿ´ ê±°ëĤĺ
ĠI Q
ëĤĺ ìĿ´
ê³µ ëıĻ
Ġconst ell
Ġíĺ¸ ì£¼
Ġì§Ħ ìŀħ
Ġter restrial
Ġê°Ħ íĺ¸
Ġcivil ians
Ġë¶ģíķľ ìĿ´
Ġembry o
Ġobser vers
T reatment
r aska
y on
Ã º
ê ±
or o
Ġv ivid
ri pp
Ġ19 38
ĠK u
ìĻĢ ìĦľ
ì£¼ ìĭľê¸°
Ġìľł ê¸°
Ġpop ulated
Ġë°Ľ ê²Į
ĠëĤ¨ ìĿĢ
Ġpast e
Ġselect ive
ĠíħĮ ëŁ¬
ìħĶ ë¦¬
Ġadapt ive
Ġswe at
Ġwond ering
Ġpartners hips
Ġgraph s
ĠAp ost
Ġprem ium
Ġped ag
Ġìłģê·¹ ìłģìľ¼ë¡ľ
Ġembry os
Ġcareg ivers
Ġincom plete
Ġc ad
Ġp seud
as ury
ĠA CT
ant ry
ĠD ry
ĠN AT
ĠL aur
Ġsh ower
ìĤ¬ ìĿ¼
ĠAl an
az ines
be y
ĠQu ant
Ġëĭ´ ìķĦ
ĠCom plete
ĠSen ior
Ġmac ro
ĠBab ylon
Ġphosph ate
ì¿ ¨
Aust ral
g rowing
Ġb ub
Ġìŀ ī
Ġhe x
ĠD I
ĠN ag
ëĮĢ íĸī
ĠSt ew
Ġtrans ist
Ġì¡° íļĮ
vironment al
iqu ity
ah a
Ġê±° ëĮĢíķľ
Ġair port
íĺķ ìĿĺ
Ġfin ancing
Ġenc oun
Ġ> >
199 4
ĠìķĦëŀĺ ìĻĢ
ĠOrgan ic
ĠAristot le
S et
ĠR F
ìĦ± íķľ
Ġunder neath
ram a
Ġrese mble
ĠWe ather
Ġgl ue
Ġsuccess or
Ġrecogn izes
Ġì¶© ëıĮ
ĠNot es
ĠíĽ ¼ìĨĲ
Ġcra cks
Ġë¨¸ ë¬¼
ĠFour th
ĠëŃĶ ê°Ģ
ĠS ide
Ġhe lic
ĠR idge
ĠìĿ´ ê²Į
ë§ ĺ
Ġwor m
lud es
ìłĦ ìŀ¬
ĠìĿĺ íĺ¹
Ġcur ves
íĶĦ ë¥¼
Ġmat hematic
Ġëĭ¨ ìĿ¼
ì§ģ ìĽĲ
ĠMan ufact
Ġê³³ ìĿĢ
Ġaccept ing
ìĿ¸ê°Ģ ìļĶ
ĠìķĦë¬´ ëŁ°
ĠDet erm
Ġmedic inal
ograp hers
Ġt ense
ed a
Ġm arsh
ĠH ost
ĠE ating
Ġë§ ĳ
ĠìŀĲ ìĤ´
int o
ë¯¸ ëĤĺ
Ġìľł íļ¨
Ġì¡° ìĸ¸
ĠêµŃ ë¬´
sc ape
Ġrece iver
son ian
Ġê³³ ìĿĦ
ĠPer formance
íį¼ ëŁ°
Ġmis con
Ġconsequ ently
Ġtransl ations
Ġweaken ed
ĠChall enge
æ °
Ġw and
Ġw are
Ġto y
ĠT ol
ìĿ´ ê²Į
ĠìĹ ī
Ġê·¸ ìłĢ
Ġbl ades
vent ional
ĠAn imals
Ġë¶Ħ ëĵ¤
Ġsl ides
Ġcal orie
work ing
NA L
ĠëĪĦ ë¦¬
Ġreve aling
Ġpack ages
Ġëħ¼ ë¬¸
ĠëŁ Ń
Ġimmig rant
ìĹĦ ë§Ī
ĠCamp bell
ĠêµĲìĪĺ ëĬĶ
ĠBr un
ĠëĮĢë¹Ħ íķ´
Ġìı ŁìķĦ
Ġsevent h
Ġdisturb ance
Ġmultip ly
N orth
T est
o ic
å į
æ Ń
er os
at ter
Ġre use
íķĺ ë¯Ģë¡ľ
ul ose
ĠP ale
ĠF ocus
Ġ19 31
Ġun con
ì£¼ ìĭľë©´
Ġdevelop er
Ġche w
Ġvis ually
Ġê³Ħ ìłķ
ĠAd vent
Ġblood stream
Ġì§ģ ë¬´
Ġstat ues
íħĮ íģ¬
ìľ¨ ìĿĢ
Ex ample
pat hetic
Ġinn ocent
ĠLiter acy
Ġindirect ly
Ġìĺ® ê²¨
esthet ics
ĠJoh ann
ĠGord on
p ool
Ġp ocket
st ory
ĠT ask
et ed
ĠA bs
ĠI oT
ìŀĲ ìĽĲ
Ġìĭľ ëĮĢìĿĺ
ĠìĹĨ ìĸ´ìĦľ
ĠAr n
ĠBe yond
Ġëį° ìĿ´
ë°± ê³¼
Ġvit ro
Ġê·ľ ìłľ
Ġsoon er
IV E
ĠìĬ¹ ë¦¬
Ġsecret ary
col or
æĹ ¥
ĠThom pson
E nd
G I
Ġh ipp
Ġl ady
ĠT ut
ëł ģ
ĠIn j
Ġê·¸ ëŀ¬
íĬ¸ ìĹĲ
Ġìĭł íĺ¸
Ġcap ita
Ġmark ing
ãģ ¯
Ġver te
Ġrepl ication
ĠJu an
Ġfib re
Ġfrag ile
Ġrank ed
Ġbrand s
omed ical
S I
w ere
Ġthe e
Ġp add
Ġm ate
Ġn m
Ġqu ery
ĠìĤ¬ìļ© ìŀĲìĿĺ
Ġlearn s
Ġmus cular
Ġâ ī
Ġer r
Ġdam s
Ġsens ing
Ġê´Ģëł¨ íķľ
Ġë¹ĦêµĲ ìłģ
Ġë°©íĸ¥ ìľ¼ë¡ľ
Ġspr ings
Ġìĩ¼íķĳ ëª°
ĠColomb ia
R N
c irc
m ium
Ã ĥ
Ù Ĭ
æ Ŀ
ëĭ¤ ëŀĢ
ul us
íķ´ ì§ĢëĬĶ
ĠL ith
ign ant
Ġfl aw
Ġê³µ ìĿ¸
ĠìĦ± ìłģ
ccess ful
ĠPh oen
Wh ite
Pro t
Ġ195 7
Ġproport ions
ĠRob inson
ĠìĿ´ëģĮ ìĸ´
V s
n ance
s a
| âĸ²
Ð º
Ġe cc
ul ent
th ink
ëħĦ ëıĦ
Ġcar n
ck ed
ĠêµŃ íļĮìĿĺ
ĠìĭľìĦ¤ ê³¼
Ġprob able
ĠíĪ¬ ìŁģ
ĠPre p
Ġsil k
ĠDes ert
Ġdepos ited
Ġexplo it
Ġrig orous
Ġìŀĺëª» ëĲľ
J es
l as
Ġe ch
Ġl as
ut able
ĠM ort
âĢĻ (
ĠìĿ´ ìłĦìĹĲ
ĠG NU
ìĿ¸ ëıĦ
ìĬ¤ íĥĦ
íĦ° íħĮìĿ¸ë¨¼íĬ¸
ìĭł ê³ł
Ġmon itors
Ġmain land
ĠTo o
hib ition
Ġëĸł ìĺ¤
Ġcoal ition
Ġdu ct
ĠUp on
ĠThrough out
Ġment ions
ĠDyn asty
ĠìľłìĿ¼ íķľ
Ġarbit rary
Ġbip olar
Ġkne es
ic us
th ree
ĠSt op
ĠìĿĺ ì¡´
êµĲ íĻĺ
ats on
Ġëĭ¨ ìĸ´
Ġrele asing
Ġcou p
ĠSte ve
Ġëĭ¨ìĪľ íķľ
Ġkilomet res
Ġreson ance
Ġcatal og
Ġfeat uring
M ult
p ox
Ġì ¾Į
ĠS ay
pl ants
ĠJ osh
au er
Ġra mp
we b
Ġbu nd
Ġê°ľ ë´ī
ĠìĤ¬ëŀĮ ìĹĲê²Į
ĠìĹ´ ë¦¬ëĬĶ
ĠApp lied
Ġfront ier
Ġlabor atories
ĠìĿĺë¯¸ ê°Ģ
Ġê·¸ë¦¬ìĬ¤ ëıĦ
ìĭľì¼° ëĭ¤
Af ric
Ġmonaster y
Ġrebell ion
ĠLank a
Ø ª
in itely
ra ment
ĠP ier
Ġman ure
te es
Ġcol i
Ġì£¼ ìłľ
Ġì£¼ ìłľë¡ľ
Ġrel ied
ë§Ī ìĬ¤
Ġgra vel
Ġtechn ically
ë³¸ ë¶Ģ
Ġë°° ì¶ľ
hy l
Ġê³¼ ìłľ
ë°° ìļ°
ann ah
ĠGen eva
ĠCal cul
ĠDis orders
Ġìħ ĭ
ĠìŀĪìľ¼ ìĭł
Ġenter prises
Ġarchitect s
Ġexhib ited
Ġpul monary
Ġinhib it
Ġintent ions
Ġê¹Ĭ ìĿ´
ĠDat abase
H y
Ġt in
ed ience
Ġm ating
Ġd row
Ġg ifted
Ġ3 000
low er
Ġìłķ ê¶Į
Ġide als
ĠíĺĦ ìŀ¥ìĹĲìĦľ
ĠìĦľë¹ĦìĬ¤ ìĹĲ
Ġsun screen
ĠìĨį ëıĦ
Ġeth anol
Ġëĥ ĦìĥĪ
ĠëĨį ìĹħ
Ġcoord inated
Ġrenew ed
Ġmyth ology
Ġê°ģê°ģ ìĿĺ
ĠAgain st
ĠCrit ical
Pub lished
Ġgover ning
c ourse
Ġ ________
Ġa ph
se a
Ġí Ī
ĠA th
Ġu pl
ĠM end
ac cept
ĠD oc
ĠD elta
ĠìĿ´ ëĿ¼íģ¬
ëĮĢ ì¶ľ
Ġíķĺ ìĭľ
ple ment
ì§Ħ ìĿ´
ĠAl low
Ġche wing
ì¤ĳ ìĿ¸
Ġmet ric
Ġì¢ĭ ê³ł
ĠCan al
sp ace
Ġvers es
Ġarr iving
ĠMe asure
ĠíĮ¨ íĦ´
ĠëģĿ ìĹĲ
Ġreven ues
Ġcoron ary
Ġoverlook ed
Ġgastro intestinal
Ġbod ily
Ġc ant
ĠA part
Ġab st
row se
uc ing
rop ortion
ìĺ¤ ê³ł
ĠZ one
Ġìļ°ë¦¬ ë¥¼
ĠíĪ¬ íĳľ
Ġsouth west
íĺĳ ìĿĺ
ĠMor gan
Ġì¶©ë¶Ħ íķľ
Ġconqu ered
ìĽ¨ ìĿ´
K ing
r ill
is ol
ic he
Ġse als
ov ol
ĠëĤĺ ëıĦ
Ġdifferent iate
Ġav iation
ĠìĦł ì§Ħ
Ġunderstand s
Ġequ als
Ġdon ated
Ġê²Į ëĭ¤ê°Ģ
ĠìĿĢ íĺľ
ĠExpl ain
ĠíĿĶ ëĵ¤
Ġtight ly
ĠPolit ics
Ġworkshe et
ĠProduct s
ĠìĤ¬ìļ° ëĤĺ
U I
Ġthe atre
Ġc roc
Ġd urable
ro ads
ĠìĿ´ ëŀĺ
ìĿ¸ ê¸°
ĠJ os
Ġë¬ ¶
Ġtra ils
íĻĶ ë¡ľ
ê°ľ ê°Ģ
ĠëıĦ ì¿Ħ
Ġgovern ed
Ġì¶Ķ ìĸµ
ìĦĿ ìĿ´
ĠArt icles
Ġê¸Ģ ìĿĢ
Ġsynt ax
Ġë³ĢíĻĶ ê°Ģ
Ġpark ing
Ġdin osaur
Ġinher itance
Ġpreced ing
Ġoste oporosis
ĠSud an
Ġìĸ´ì© Į
ĠDemocr ats
M ac
g age
Ġt iles
Ġp ir
ĠI CT
ëĤĺ ë§Ī
Ġun int
Ġco ach
Ġset up
ëĭ¹ ìĿĦ
ex per
Ġë§Ĳ ë¡ľ
Ġë¶Ħ ìĸĳ
ĠInd o
ĠêµĲ ìĤ¬
Ġplace bo
Ġë§¤ ëĭĪ
ìķĺ ëĬĶëį°
ĠíĽĦ ë°ĺ
Ġcomput ational
Ġaccount ability
ĠPr ivate
ĠìĦ¸ê³Ħ ìłģìĿ¸
íĪ¬ ìĸ´
Ġhar ness
ĠWork ers
Ġinvent or
ĠProv ide
Ġrecip ient
Ġbrush ing
Ġtu berculosis
Ġë³µìŀ¡ íķľ
ĠBalt imore
Ġpersec ution
p ent
Ġc itation
Ġm asters
Ġh atch
ê¸° íļį
Ġ19 05
Ġdes erve
íĶ Ķ
Ġexp ose
ĠìĨĮ ìĨ¡
Ġ20 50
Ġ0 3
Ġlim estone
ãģ Į
Ġur l
Ġì¹´ ì§Ģëħ¸
Ġcoll ision
íķĺëĭ¤ ê°Ģ
Ġclean ed
ĠìľĦì¹ĺ ë¥¼
Ġast on
Ġadop ting
Ġlength s
Ġphilos ophers
Ġment ally
Ġrom antic
W est
r ings
å Ī
Ġ esp
Ġn aked
ĠS ent
ìĿĦ ëķĮ
ĠB aker
Ġab brev
ĠìķĬ ì§Ģë§Į
ê¸Ī ì§Ģ
cept s
ì°¨ ê²Į
Ġdem ol
ëįĶ ëĿ¼ê³ł
Ġheav ier
Ġbad ly
Ġcompar ative
Ġunf air
ĠìĬ¤íĥĢìĿ¼ ìĿĺ
Ġenthus iasm
d ays
t is
Ġex terior
ĠD ogs
Ġcl ip
Ġtra it
Ġinter section
Ġìľł ìĿĺ
ë¡ł ìĿĦ
Ġintern ationally
Ġíĸī ëıĻìĿĦ
Ġprop het
Ġur anium
Ġìĺ¨ ì²ľ
Ġvacc inated
ira cy
Ġlov ing
ÃŃ a
Ġju venile
Ġpron oun
ĠLy me
Ġcab in
Christ ian
Ġstro kes
O A
m un
Ġc ite
Ġd awn
ĠC els
ĠG MO
Ġsc roll
hat tan
Ġì¹ ł
Ġend emic
Ġë°© ì¹¨
ĠìķĪ ëĵľë¡ľìĿ´ëĵľ
Ġadv ancing
Ġprop ose
Ġcy sts
Ġì¢ħ ì¢ħ
ĠíĬ¸ ëłĮ
ĠìĹ¬ëŁ¬ ê°Ģì§Ģ
Ġìĭ¶ ìĬµëĭĪëĭ¤
ĠLet ters
Ġinstall ing
ĠBen efits
âĹ ĭ
Ġtoler ate
ĠAL L
ĠLic ense
ĠAlber ta
ĠJuda ism
N ovember
r ide
Ġm ould
ro e
Ġl ava
id ney
ĠC atherine
Ġ( $
ĠB and
Ġ2 20
Ġpl ag
Ġcomp rehend
Ġca ut
íĨł ë¦¬
Ġë¹ Ļ
ĠëĤ¨ ëħĢ
Ġlab s
Ġë§Įëĵ¤ ìĹĪëĭ¤
Ġspread s
Ġinvestig ators
Ġgradu ates
De cember
Go vern
Ġbless ing
Ġë¯¸ëĭĪ ë°Ķ
Ġjew el
h ind
o ys
Ġn od
vel and
ìĭł ìĿĢ
ìĦł íĥĿ
Ġë¶Ī êµĲ
Ġwant ing
Ġmot ors
ĠìĿĮ ìĦ±
yl um
Ġclean er
Ġimag ined
Ġfit ting
Ġattend ance
ĠHand book
Ġcomplement ary
F act
re r
il ization
ëĭ¤ ìĿ´
et ric
Ġch op
ĠF light
Ġse ized
ìŀĲ ë³¸
Ġê·¸ ë§Įíģ¼
ĠëĮĢ ë¶ģ
Ġìĭľ ìĤ¬
ëĮĢ ìĻĢ
ace a
Ġëª¨ ëĵĪ
ĠHe at
Ġinv ite
Ġíķ´ ìĥģ
Ġë¹Ħ ìłķ
Ġmon uments
ĠëĲľ ëĭ¤ëĬĶ
iam i
Ġëıħ ìĦľ
Ġì¤ĳìļĶ íķĺëĭ¤
AL L
ì¹ľ êµ¬
Ġvent ure
Ġsup reme
Ġconfident ial
in os
Ġs isters
Ġb ass
Ġm esh
ĠC row
Ġan terior
ĠM ig
ë¦ ī
ĠE R
and al
Ġ19 32
ĠìłĦ ëł¥
In stead
Ġco il
ĠAn at
read ing
Ġìłģ ëĭ¹íķľ
ì¶ľ íĮĲ
Ġsuggest ion
bo ards
Ġtable t
Ġbra ve
Ġmag ical
Ġrein forced
Ġrestrict ion
Ġconven ience
Ġsuppl iers
G C
U E
Ġin land
Ġd ancing
ere rs
ens ation
rib ing
Ġë§Į ëĤ¨
Ġcor ners
ĠìĦ± ëł¹
Ġìŀ¥ ìłĲ
Ġopp onent
Ġhard y
Ġcy cling
Ġsuper vis
Ġìķŀ ëĳĲê³ł
Ġì§ĢìĹŃ ìĹĲìĦľ
ĠHigh way
Ġdetect ing
ĠRel ated
Ġconver ts
Ġfort une
Ġadvance ment
pat ient
Ġtomat o
Ġdesk top
Prof essor
ìĸ´ëĸ ¤
Ġneurot ransmit
/ .
is ers
ou ver
Ġd ur
ĠC ris
ĠM ike
Ġun ch
Ġë³´ ìŀħëĭĪëĭ¤
Ġëĭ¤ êµŃìĸ´
Ġimport s
ĠAl ice
Ġconst ipation
ë¦¼ ìĿĦ
Ġìĭ¬ ì§Ģìĸ´
ĠíļĮìĽĲ ìĿĢ
ê¸°ìĹħ ìĿĺ
Ġrandom ized
Ġcontem pl
Ġchick ens
Ġë¶Ħëªħ íŀĪ
Ġconce ived
icular ly
Ġlock ed
Bel ow
Ġfeas ible
ahren heit
R ich
U P
å °
Ġ iv
Ġa il
he im
if eration
ĠH ob
Ġë° ´
ìĬ¤ ë§ĪíĬ¸
ë© į
Ġdis l
ĠëĮĢ íļĮ
Ġdiff usion
Ġra pe
ê³µ ê°ľ
ìĨĮ íķľ
Ġsur plus
Ġê³µ íı¬
Ġëį ¸
Ġher pes
ĠìĨĮ ëħĢ
ĠPro duction
Ġë°© ìĸ´
Ġcor related
ah u
Ġë© ¸
ë¯¼ ì¡±
ë¦Ħ ìĿĦ
Ġgre ens
Ġrat ios
Ġfertil izers
ĠPrinc iples
D s
c ur
y our
Ġth rowing
ĠS audi
ĠH ills
um en
Ġê° Ķëĭ¤
Ġle isure
Ġinc omp
Ġimp ly
ĠìŀĲ ìķĦ
ì£¼ ìĿ¼
Ġcons erve
ìĨĮ ë¹Ħ
Ġext r
ë³µ ìĿĦ
ĠPr iv
Ġarch ive
ĠìĦ¸ê³Ħ ìĹĲìĦľ
ëĭĪê¹Į ìļĶ
Ġproport ional
la very
Ġgly c
Ġë§ģíģ¬ ë¥¼
ĠNeg ro
Intern et
Ġinhab ited
1 18
f erence
Ĥ ©
Ġth under
ĠM obile
Ġde eds
Ġv est
oc hemistry
Ġinc on
ere r
ach ment
ĠK T
ĠSt ructure
ile psy
Ġactiv ate
Ġcle ans
íĨµ íķ©
Ġbre w
ĠìļĶê¸Ī ìľ¼ë¡ľ
199 1
AC T
Ġenjoy ing
ĠAir port
ĠìłĦì²´ ê°Ģ
ĠíĴĢ ìĸ´
ĠìĪĻ ìĨĮ
Ġoverl ap
Ġë§Īìļ´íĭ´ íĻĪ
Ġlifesp an
c hem
f ed
Ġp ays
Ġp engu
Ġth irst
Ġe u
ê°Ģ ìĬ¤
ĠN one
Ġinf er
Ġunder going
In formation
Ġê³ł ìłĦ
Ġíķ´ ìļĶ
ì°¨ ë³Ħ
Ġê³Ħ ìĭľ
ĠAss istant
ĠDo ctor
Ġrespond s
Ġwond ers
Ġíĺ¹ ìĭľ
Ġaer ial
Ġìºł íİĺ
an ning
Ġd ub
ot ox
ĠE ver
ĠR an
Ġcont ag
Ġ19 21
ĠSt yle
íĥĢ ìĿ´
ëħ¸ íĬ¸
ĠCo oper
Ġautom ation
ĠìĤ¬ëŀĳ íķĺëĬĶ
Ġwin ner
Ġpun ish
Ġparas ite
ĠBarb ara
ĠVerm ont
D isc
O pen
w atch
Ġf ence
ĠS AT
Ġby pass
ĠD ays
Ġíķĺ ëĭĪ
ìĪĺ ì¤Ģ
Ġsupp ression
pr ints
Ġê°ĸ ëĬĶ
Ġassum ing
Ġíıīê°Ģ ë¥¼
ĠDel aware
Ġmerch ant
Ġuter us
C V
Ġs ores
ĠB ry
ĠF r
Ġ19 34
ìļĶ ì¦ĺ
Ġinf ilt
Ġì£¼ ìĸ´
Ġpr ince
ëĦ £
ëªħ ìĹĲ
ì¦ ī
ĠìĿĺ ìĽĲìĿĢ
Ġê³Ħ ìĹ´
ĠEx ample
ĠCl aud
ĠíĻķ ìłķ
ì¦Ī ë¥¼
ĠíĶ¼ ìķĦ
ë· Ķ
cont rolled
Ġhol istic
Feb ruary
N ame
b ot
s ac
Ë Ī
Ġp iv
Ġb ishop
ic idal
Ġg ates
ĠH ait
Ġj e
Ġun stable
ëıĻ ìĿ´
Ġref ere
ĠìĹ° ìŀ¥
íĸĪ ê¸°
Ġgu ilt
Ġsl ip
Ġrisk y
Ġopp ression
Ġnon profit
ì½Ķ ëĭĪ
Ġtext book
ë¹ µ
Ġinj ust
Ġund oubtedly
Ġ195 2
ĠLike wise
Ġê·ľëª¨ ìĿĺ
Ġalph a
ĠBern ard
Ġscholar ly
ĠBru ce
ĠëĶĶìĬ¤ íĶĮëłĪìĿ´
d f
ã Ī
å Ľ
Ġs outheast
Ġl one
ĠC ould
Ġsh ark
ìĤ¬ ìĥģ
ëį ©
Ġê°Ģ ë¦¬
ìķĦ ì£¼
Ġëı ĭ
ìĤ° ìĿ´
ĠAt hen
ĠShe l
Ġengine ered
ì£¼ìĿĺ ìłģ
Ġìļ´ìĺģ íķĺëĬĶ
Ġsch izophrenia
ìĭľíĤ¤ ê¸°
Ġê³ĦìĨį íķ´ìĦľ
ĠRepublic ans
D O
W atch
om nia
Ġor n
ĠB ec
Ġex ting
ĠF ortunately
Ġse gregation
ëĤ Ń
Ġsh rub
ĠO k
ap olis
Ġj ail
Ġrec alled
Ġê³µ ìĽĲ
Ġë§Ī ê°Ĳ
ĠìĹ° ê·¹
ĠëĲĺ ëĬĶëį°
Ġ0 4
Ġëª© ìĤ¬
Ġreason ably
Ġprec urs
Ġattack ing
Ġones elf
Ġgot ten
Ġbehavi ours
ĠFl ood
ĠElect ronic
ĠìĹ°ëĿ½ íķĺìĹ¬
Ġë¶Ħìķ¼ ìĹĲìĦľ
Ġsick ness
Ġpossess ed
Ġmanip ulate
ĠStr ong
ĠPrinc eton
Ġpion eer
br ush
inte g
Ġf iring
ut ter
ĠM orm
ĠM ember
ë§Į ìĿĢ
Ġrep ly
ĠìľĦ íĤ¤
Ġíķ´ ìĨĮ
ë¯¸ ëĦĲ
oy d
Ġval ves
cl amation
ìĺĢ ê³ł
Ġdon or
Ġlow ered
íĺķ ìĿ´
Ġarg uing
Ġthr ust
ĠìķĦë¦Ħ ëĭ¤
Ġjump ing
Ġanat omy
Ġcereb ral
a an
en z
Ġst olen
ìľ¼ ë¯Ģë¡ľ
Ġout ward
ĠK an
ìĨĮ ìĦľ
Ġë°© ìĭĿìĿĦ
ëĶ ±
ock ing
ĠìĭľìĦ¤ ìĿ´
Ġyoung est
ĠLe ft
ĠìłĲ ê²Ģ
Ġthreat en
Ġì¦Ĳ ê±°ìļ´
Ġoccup y
Ġliqu ids
ëĪĦ ë¦¬
New s
Ġmit igation
ĠMad ison
Ġblind ness
Ġsew age
ĠNep al
P al
m ile
ĠW ard
ĠIn novation
Ġrec ession
ĠìĿ¼ ìĸ´ëĤľ
ĠìķĬ ê¸°
Ġpat ience
Ġcur ved
Ġbo iling
ĠInd ependent
Ġgu est
Ġìłľê³µ ëĲĺëĬĶ
Ġê¹ ľ
ĠìĥĪ ë²½
Ġ195 6
Ġrock y
Ġsurvey ed
ĠìĿ´ê²ĥ ìĿĦ
Ã¡ n
~~ ~~
organ ic
Ġê°Ģì¹ĺ ê°Ģ
Ġmeth yl
Ġton nes
ĠSus an
Ġsovere ign
Ġnick el
Ġignor ance
çļ Ħ
S an
ìĿ´ ìłĦ
ul u
Ġex agger
ĠD in
ĠN T
Ġpl um
Ġê·¸ ë¦´
Ġìľł ìĹ°
Ġgener ous
ah o
Ġland mark
els h
orth y
ìļ¸ ëŁ¬
Ġê°Ħ ì£¼
Ġneg lected
ĠGe ographic
On line
Ġdark er
Ġord in
Ġtim eline
ĠOver all
ĠíĦ ¸
Americ ans
ĠEvery thing
Ġstret ches
hist oric
Ġshut tle
ĠëĲĺìĹĪ ê³ł
ĠKar l
Ġweakness es
ĠAlf red
f ires
Ġre nal
se en
ìĿ´ íĽĦ
Ġë¶ ķ
Ġëĭ¤ ë¥¼
Ġíı °
ê´Ģ ìĹĲ
Ġì¡° ìĭ¬
Ġë¶Ħ ëĵ¤ìĿĢ
ee k
ĠíĮĮ ëĿ¼
ĠíķĦ íĦ°
Ġëĵľ ë¦¬
rad es
ë°Ľ ìķĦ
Ġì¡´ìŀ¬ íķĺëĬĶ
Ġsin us
ĠìĽĢì§ģ ìŀĦ
ĠJon athan
Ġcoordin ates
S L
m ain
Ġ1 12
Ġam id
ĠìĿ¸ ìĩĦ
Ġris en
Ġhand y
ëª¨ ë°ĶìĿ¼
ĠLe ban
Ġrepresent ations
Ġsal iva
ĠìĦłíĥĿ íķľ
last ing
Ġë³´íĺ¸ ë¥¼
Ġìĥģíĥľ ìĹĲìĦľ
ĠìĥĿíĻľ ìĿĦ
Ġstret ched
ĠìĹ¬ëŁ¬ë¶Ħ ìĿĺ
ĠBab y
ĠIce land
enez uel
ar in
íķ´ ëĭ¹
all as
Ġê²ĥ ìĿ´ëĿ¼
Ġpe aks
ĠìĿ¼ ìĭľ
Ġë¶Ģ íĮħ
ĠìĨĮ ìĭĿìĿĦ
ĠëĶ ľ
ĠìĺĪ ìłĦ
ix on
ah n
Ġve ctors
Ġgovernment al
ê±´ ì¶ķ
Ġëĭ¹ ìĦł
Ġbi opsy
ĠX ML
Ġëĭ´ ìĿĢ
ĠDon ald
Ġbond ing
ĠëıĻë°ĺ íķĺìĭ¤
W ar
ìĿ´ íķľ
ĠP ole
og ly
ĠìĤ¬ ìŀ¥
ê²Į ìĭľ
Ġimp ose
Ġout reach
Ġmon keys
Ġvis itor
Ġëĭ¨ ë§Ĳ
íķĺì§Ģ ëĬĶ
Ġpsych ologist
Ġrot ating
Ġdivid ing
Ġëĸ¨ìĸ´ ì§Ħ
Ġemotion ally
ĠPalest inian
Ġdeliber ately
Ġrou ter
ãĪ ľ
f uel
p resent
r atory
Ġl acks
ĠT ypes
ĠO wn
ìĤ¬ ìĿ´ëĵľ
ign ment
ë£ °
ë³ į
Ġëĭ¤ ìĦ¯
Ġgen ius
Ġfe ast
íĥĢ ë¯¼
Ġgrow ers
ë²ķ ìĿĢ
ëª¨ ë¥¼
raph y
Ġimpro per
Ġdispl aced
Ġsusp ension
Ġcoc oa
Ġdecor ative
Ġmicrosc opic
rav iolet
Ġìĺ¬ë°Ķ ë¥¸
V itamin
n ish
Ġl ag
Ġg y
ot ine
ment ioned
ìľ Ĺ
ĠD B
ĠN ik
ĠU I
ĠTh inking
ĠCh ris
Ġì£¼ ìĭŃìĭľìĺ¤
Ġ18 30
Ġì¹ ¸
ĠìĬ¤ ì¼Ģ
Ġins ure
Ġë¶Ħ ëħ¸
Ġpath ogen
Ġìŀ¡ ê³ł
Ġìĥģíĥľ ë¡ľ
Ġìĭľìŀ¥ ìĹĲ
Ġshap ing
Ġadjust ment
Ġpresc ribe
Ġsupplement ation
ĠHam ps
Ġconqu est
å¤ §
Ġwed ding
Ġcha os
ìĦ° ëĭ¤
mind ed
Ġperenn ial
N atural
j ar
r ong
Ġc um
an us
ëı Ķ
ain ted
ìĭľ ìĸ´ì§Ģ
ĠU g
Ġê·¸ ë§Į
Ġcl ause
Ġun aware
ĠSt ay
tern s
ìĿĮ ìĿĺ
Ġart work
Ġíĺ¸ íĿ¡
Ġbelie ving
lu ence
hy th
Ġìĺ¬ ë¦¬
Ġë¬¸ìłľ ë¡ľ
ĠMan ch
ãĥ ³
zz le
ixt ures
ĠìłķíĻķ íŀĪ
ĠVis it
Ġì£¼ìĨĮ ë¥¼
ĠCorn ell
) "
b ach
Ġb ru
ì§Ģ ëĬ¥
Ġë° ¸
ĠF L
Ġme ats
ĠìĿ¼ ì¹ĺ
ëŀĺ ëıĦ
Ġspecific ations
Ġì§Ī íĻĺ
ĠCong o
Ġêµ¬ìĦ± ëĲĺìĸ´
Ġë§ĲìĶĢ ìĿĦ
Ġgall ery
íĽĪ ëł¨
Int erest
ĠFil m
Ġdece ased
ĠNeb raska
ĠAdm iral
h o
h ill
m ad
re view
Ġu plo
íļĮ ëĭ´
Ġass ured
Ġdifferent iation
Ġìľł ë£Į
Ġì¡° ì¹ĺë¥¼
Ġback ed
lo or
Ġlog ging
ìĥĪ ë¡ľìļ´
ĠìĦľë¡ľ ìĿĺ
Ġë¶Ģì¡± íķľ
Ġë¶ĦìľĦ ê¸°ë¥¼
à¥ į
ìĨĮê°ľ ê¸Ģ
Ġmim ic
Ġbicy cle
l iness
s ki
ë ī
ìĿ´ ìĹĪìĬµëĭĪëĭ¤
ot onin
ur i
Ġ1 18
ĠP ic
ĠP ages
ĠB uck
ĠD ream
Ġ19 06
Ġwork out
old ing
ĠëĤĺ ìĻĶëĭ¤
Ġinst antly
ĠìĨĮ ë¦¬ë¥¼
Ġê°ĢëĬ¥ ìĦ±ìĿĦ
val ue
ìłķë³´ ë¥¼
hel p
199 2
ĠëĪĪ ìĿ´
Ġder ive
ĠGreen land
Ġfol lic
ìĬ¬ ëŀĮ
Ġclim bing
ĠëĤĺëĿ¼ ìĿĺ
ĠPan ama
Ġpron unciation
ĠíĶ¼íķ´ ë¥¼
ĠMot or
Ġswit ches
ĠBulgar ia
ĠPediatric s
1 12
M art
d in
i oma
ar on
le ft
st op
ac ial
ell i
ĠJ ob
ëĮĢ ìłĦ
ìĿ¼ ë¡ľ
ĠìłĦ ìĽĲ
Ġëĭ¤ ë¦¬ë¯¸
ëĲĺ ê±°ëĤĺ
Ġfe ared
ìĭ¤ ìĿ´
Ġinv aded
ĠëĤ´ ëĬĶ
Ġë¹Ħ ìĥģ
Ġíĸ ĩ
Ġsl opes
ĠíĽĦ ìĹĲëĬĶ
Ġìŀħ íķĻ
ĠìĭľìĦ¤ ìĿĢ
Ġbro ccoli
Ġtext books
Ġreact ors
ĠRuss ians
ĠëĤĺíĥĢ ëĤĺëĬĶ
Ġmid st
ĠìĦľìļ¸ ìĭľ
Ġvisual ization
Ġstri ps
ĠSol utions
Or gan
ĠìĦ±ëĬ¥ ìĿĦ
ĠTransport ation
Ġyog urt
ĠCels ius
ĠHamps hire
b ad
c ium
f ten
å ±
ç ¾
ĠA ld
ì² ©
ìłķ ìĭł
ìłķ íĿ¬
Ġimp ulse
Ġìĭľ íĭ°
Ġexp osures
ĠëĤĺ ìĹĲê²Į
gen ic
Ġanal ogy
Ġì¢ĭ ì§Ģ
Ġperform s
abit at
ĠíĻķìĿ¸ íķ´
ogen ous
Ġconnect ivity
Ġrot or
Ġnotice able
Ġcompens ate
Ġcompris ing
Ġdescript ive
Under standing
âĺħ âĺħ
ĠTool s
Ġaggreg ate
Ġblo oms
Ġammon ia
" ).
l an
ì ±
Ġt icks
Ġp ear
Ġb end
Ġst icks
ĠD est
ĠO racle
Ġê°Ģ ìĬ¤
ric anes
Ġë³´ ìĥģ
Ġë³´ ê¸ī
ìĭ¤ ìĹĲìĦľ
Ġ11 5
ë°° ë¥¼
ĠíĶĦë¡ľ íķĦ
Ġì½Ķ ë¦¬ìķĦ
Ġreported ly
ĠRet urn
UR E
Ġcompar isons
ĠAre as
Ġassum es
Ġdefic iencies
Ġstimul i
Ġbless ed
ĠNO AA
ĠìĬ¤ìľĦ íĬ¸
Ġimbal ance
ovol ta
E st
æ ĺ
ĠC auses
ĠM ason
Ġex ile
ĠF ast
ĠìĿ´ ë¡ľ
Ġcomp rise
Ġ19 07
ang a
Ġrec omb
alth ough
ple asant
ert ility
ĠìĿ¼ ìĿ´ëĭ¤
Ġinform ative
ĠìĿĺ ìĭĿ
ìĹ° ìĿĦ
Ġphys iology
ĠSo il
ìĺĪ ìķ½
ai ro
Ġi OS
ĠHar ris
Ġprint s
omet ers
Ġ195 1
Ġë§Ľ ìĿĦ
Ġìĥģíĥľ ë¥¼
ĠìŀĲìĹ° ìĬ¤ëŁ½ê²Į
Ġwilling ness
ìĩ ł
Ġsail ed
Ġmerch ants
S al
g i
g el
v oc
or ia
Ġb unch
ĠM t
ìĿ¸ ì¹ĺ
Ġ19 08
Ġìĭľ ê³Ħ
Ġun e
Ġqu it
ĠìĿ¸ ë¯¼
ĠëĤ´ ëħĦ
ì½Ķ ìĬ¤
ĠìĭĿ ë¯¼
ĠUs ed
Ġemphas izes
ĠëĮĢíķĻ ìĥĿ
Ġhit ting
Ġaccum ulate
Ġrecre ation
ĠTel esc
ĠBit coin
Mean while
ĠAnth ony
' (
1 30
E ffect
I X
m g
s ued
ve t
pl ess
ĠK am
Ġro ver
Ġê²½ íĹĺìĿ´
Ġback up
Ġíĺ¸íħĶ ë¡ľ
Ġê±´ ì¡°
ĠSo on
Ġrob otic
ero ids
ĠCamp aign
Ġdepart ure
ĠCre ation
Ġìĺ¤ëŀĺ ëĲľ
ĠLead ership
ĠOper ation
Ġresil ient
Ġì¤ įëĭĪëĭ¤
ĠArk ansas
Ġamph ib
ĠNorweg ian
C enter
c ultural
d et
Ġc ens
ill o
ĠH i
Ġpo ets
ict ional
Ġìĺ¤ ëŀ«
Ġgl uten
Ġë© ľ
Ġop io
ìłĢ íĿ¬
ĠíĬ¸ ìľĦíĦ°
ĠIsrael ites
Ġroot ed
ĠLeg al
Ġrelax ed
Ġcart ilage
ĠNaz is
Ġcav ities
ĠApplic ations
ĠíĻĶëł¤ íķľ
ë® ¬
D ue
in burgh
Ġì ¥Ĳ
Ġst arch
ĠìĿ´ ìĽĥ
Ġ19 22
Ġê°Ģ ìķ¼
ë³´ ë¥¼
Ġê¸° ì°¨
Ġup grad
ĠìľĦ ê¸°
Ġfe ud
Ġspec imen
Ġìĺ¤ ì§ģ
Ġìĺ¤ ë¸Į
Ġsign ing
ential s
ê°ķ ìĿĺ
ĠíĪ¬ ìŀħ
Ġíģ´ ëĿ¼ìĿ´ìĸ¸
Ġëĭ´ ê³ł
coh olic
Ġweak er
ĠAut om
Ġëĳĺ ì§¸
Ġacceler ated
Ġterror ist
Ġsanct uary
H ot
n om
ĠC ou
ĠM L
ĠM aur
ĠThe od
ate ur
em ption
ĠL em
ĠíĻ ĺìĿ´
ë¹Ħ ì¦ĪëĭĪìĬ¤
Ġrem n
Ġê³µ ê°Ĳ
ĠëıĦ ë³´
Ġbel oved
Ġìŀ¥ ìĭĿ
ì» ·
icro bial
St ill
Ġcoll agen
Ġìĸ» ìĿĢ
ĠGet ting
Ġìķ± ìĿĦ
Cons ider
ĠDown load
Ġsau ce
Ġintu itive
ĠR ot
Ġun av
ê¸ ĭ
ĠCon struction
Ġíİ¸ íķĺê²Į
ĠìķĦëĭĪ ì§Ģë§Į
Ġdetect or
Ġëª©íĳľ ë¡ľ
ĠResp ons
ĠColl ins
Ġ _
Ġthe ater
ĠM ade
ĠE D
Ġstud io
Ġëª¨ ëĵľ
ëªħ ë°ķ
ë§Ī ìĿ´
Ġìĺ¤ ë°Ķë§Ī
Ġë°ľ ì½ĶëĭĪ
ron ics
Ġser ial
ĠìļĶ ìĿ¸
Ġìŀ¥ ëĤľ
Ġdel ays
ëĵ± ê¸ī
ĠCar ter
Ġìĭľìŀĳ ëĲľ
Ġë²ķ ëł¹
ĠíĸĪ ê³ł
na issance
Ġì·¨ ëĵĿ
Ġhar bor
Ġcolon ists
Ġcast ing
ìĹ°êµ¬ ìĽĲ
ĠDiv ine
Ġlob by
Ġvag inal
ëķ ħ
Ġallev iate
J ew
f eld
se tt
ë¥ ¨
Ġìł ĸ
ĠR ange
ĠF ahrenheit
Ġinc omes
ĠìŀĲ ê¸Ī
ë§Ī ëĶĶ
Ġbel ly
íĸ¥ ìĿĦ
ĠìĦ¸ê³Ħ ìĿĺ
Ġê¶Į ë¦¬ë¥¼
ĠìŀĦ ìĭł
ĠTra ditional
ĠìĦ¤ì¹ĺ ëĲľ
Ġmig rants
Ġë¿Ĳ ìĿ´ëĭ¤
Ġë©Ķìĭľ ì§Ģë¥¼
ĠIdent ify
ãĦ ·
ĠGreg ory
Ġbutt ons
g om
i per
Ġl ad
Ġimp art
Ġev apor
ang les
ĠV in
te chn
Ġ5 000
rop he
Ġë¬´ ì²Ļ
ax on
Ġsol uble
Ġest rogen
ĠíĮĮ ìĿ´
ĠPl ato
Ġopen ly
ëŁī ìĿĢ
Ġinit iate
Ġë¡ľ ë´ĩ
ĠíĮĲ ê²°
Ġë¶Ģë¶Ħ ìĹĲ
Ġpig ment
ĠEngine ers
ĠIns urance
izz iness
Ġrepet itive
Ġvow el
Ġproclaim ed
S earch
ar us
ar ious
ic ans
Ġl oses
íķĺ ëĤĺìļĶ
ĠW A
oc key
Ġê¸° íĽĦ
Ġê¸° ìģ
Ġgen ital
ìĪł ìĿĦ
Ġsuccess ive
Ġë¡ľ ëĵľ
ster dam
Ġì¹ľ íĻĺê²½
ë°Ľ ìĿĦ
Ġmal nutrition
ĠLet ter
ĠìĹħë¬´ ë¥¼
Ġundert ake
Ġcompos er
Ġdisplace ment
A ir
O H
W R
l anguage
Ġc aves
Ġst unning
ĠB MI
ĠR AM
Ġne urop
ĠìĿ´ ì¤ĳ
Ġê°Ģ ëģĶ
Ġì£¼ ê¸°
Ġfl oss
Ġ18 61
Ġë§Ī ì£¼
ĠìĹĨ ìľ¼ë©°
Ġstr ive
ock ets
ĠìĦ¤ ìłķìĿĦ
ĠíĮĮ ë¦¬
Ġfin anc
Ġsimilar ity
ĠAfric ans
ë¸Į ëĿ¼
Ġê·¼ ìľ¡
Ġê°ĸ ê²Į
Ġê¶Į ëł¥
ĠRec omm
part y
Ġmag azines
Ġdiscover ing
Ġru ins
mod ern
o op
Ġs ized
al ion
ol uble
ĠC I
rou t
Ġ19 28
ress es
ĠCh amp
Ġë³´ ì§Ģ
Ġë³´ ë©´ìĦľ
Ġprov es
gg er
Ġmin us
Ġcontin ents
Ġê°ķ ìłľ
ator ial
be at
Ġpost erior
ĠìĦ¸ê³Ħ ë¥¼
ĠAc id
Ġang el
cont ent
Ġtri ple
Ġlib eration
ĠPhot os
Ġvine gar
Ġcasual ties
Pres ident
N ever
c s
c ott
Ġc ents
ing le
Ġn ons
ĠB uff
Ġde le
ĠH R
ìĭľ ìĬ¤ì½Ķ
ëĮĢ ì¤ĳ
Ġë³´ íİ¸
ì£¼ ë¬¸
Ġro pe
ĠìľĦ íĥģ
Ġear ning
Ġë¬¸ íĻĶë¥¼
Ġday light
Ġcaus al
Ġìłģ ìĸ´ëıĦ
ĠìĭľìĦ¤ ìĿĦ
ours es
Ġíıī ìĨĮ
ĠWar ren
Ġneg lig
ĠEm ploy
With in
Pro v
ĠEgypt ians
ĠLa ure
ĠìķĪìłĦ íķľ
ĠìĹŃìĤ¬ ìłģ
ĠIP v
Ġconvent ions
Ġacceler ation
ĠCy ber
Ġflo ors
Ġorb its
Ġorb ital
ĠColl abor
Ġmarg ins
Ġì»¤ë®¤ëĭĪ ì¼ĢìĿ´ìħĺ
Ġoxid ation
Ġrepet ition
Ġes oph
D irect
g ate
ìĭľ ìĬ¤
ĠìĪĺ íķĺ
ass oci
ìłľ ì£¼
íĥ ł
íĻĶ íķĺëĬĶ
sh ire
Ġaccum ulated
Ġremind s
ìĩ¼ íķĳ
Ġinev itably
ĠHung ary
Ġmurd ered
t own
u ced
v able
on n
Ġd opamine
ĠA x
ĠC over
Ġhe el
ĠN ames
íķ´ ê²°
Ġê¸° ê¸°
Ġë³´ ìŀĲ
Ġtra ps
Ġìĥģ ìĭ¤
ĠëķĮ ìĹĲ
Ġë¹ ļ
Ġë¬¼ ë¦¬
Ġmot ions
Ġëģ Ħ
Ġê¹Ģ ìĺģ
ĠìłľíĴĪ ìĿ´
ĠíĻķìĿ¸ íķĺìĭ¤
Ġinteract ing
Ġinterp ersonal
OS T
year s
ìħĶ ëıĦ
Ġ195 3
ĠCle veland
ĠIll ust
auc as
ĠVers ion
B ER
S M
b rain
É Ļ
Ġm ars
Ġe ighth
ĠD M
Ġun rest
Ġë¹Ħ íĬ¸
ĠìĥĿ ê¸°
Ġë© ĺ
St and
Ġey el
ĠMan hattan
Ġì§ĳ ìĹĲìĦľ
Ġê·¸ëŁ¬ ë©´
Ġëĸ ¼
Ġlif elong
Ġtend on
ĠìĭľìĬ¤íħľ ìĿĺ
Ex per
Ġdro pping
ĠLab our
Ġê·¼ì²ĺ ìĹĲ
ĠìĥģëĮĢ ìłģìľ¼ë¡ľ
ĠEst ab
Ġcertific ates
Ġtransf ers
ĠìķłëĭĪ ë©ĶìĿ´ìħĺ
Ã£ o
h oe
al ks
am y
ĠR O
Ġman ually
Ġíķ Ģ
ìĦ± ìľ¼ë¡ľ
Ġover head
íĻĶ íķĻ
ĠëĤĺ ìģľ
Ġê³ł ìľł
ĠíķľêµŃ ìĸ´
Ġbank rupt
ĠSmith sonian
ê¼ ¬
Ġproceed ings
ĠíĻķìĭ¤ íŀĪ
Ġsket ch
F ollow
l ia
Ġb acks
ê³ ±
ir i
Ġ1 19
ĠH orn
ĠR ace
ĠN umbers
íķ´ ì§Ģê³ł
ë° ı
ell s
ĠëĤ ¼
ĠìłĢ ëıĦ
ĠìĺĪ ìĻ¸
ĠìĦ± ë¦½
Ġê±° ìĺĪìļĶ
Ġ16 00
Ġpsych ologists
ĠReg ular
Ġunc ont
áĥ ĺ
clus ive
ĠíĹ¤ ëĵľ
ĠìĿĮìĭĿ ìłĲìĿĢ
ìĵ ´
ibl ings
ĠTerrit ory
Ġdetrim ental
K S
N G
W C
Ġê ¶
id en
ĠE T
ëĤ ©ëĭĪëĭ¤
ri el
ec hes
Ġar ising
ount ain
ĠìŀĲ ìľ¨
ĠìŀĲ ë¦¬ìĹĲ
Ġgener ators
Ġmin ers
ĠTe a
Ġmult itude
Ġrecord ings
Ġíħ Ķ
ë¸Ķ ë¦¿
Ad ditionally
ĠScient ist
Ġmand ate
Ġru pt
ĠIncre ased
Ġbeet les
U ntil
c ounter
ëĭ¤ ìĸĳ
ot ted
Ġìķ Ļ
Ġint imate
Ġìĸ´ ì°Į
Ġcent r
Ġfore most
Ġì°¨ ë¡ľ
Ġaffect ion
Ġrepl ied
ëĨ Ĵ
ĠìŀĦ ìĭľ
Ġwond ered
rosc opy
Ġpun ct
Ġì¡°ê¸Ī ìĶ©
ì»´ íĵ¨íĦ°
Ġëª©ìłģ ìĿĦ
Ġì§ĢìĨį ìłģìĿ¸
Ġorient ed
Ġchap el
Ġêµ¬ì²´ ìłģìĿ¸
at ar
ìĹĲ ëĦĪì§Ģ
ĠM iami
ĠP eters
ke e
ĠR ole
ip al
ìķĦ ì§ģ
Ġar ist
Ġì§Ģ íĺľ
ie ve
ph y
Ġì£¼ ì²´
íļĮ ìĥĿ
own ed
Ġdisc oura
Ġìľł ì¶ľ
__ _
Ġgr ate
ĠìķĦìĿ´ ëĶĶ
Ġìĸĳ ìĦ±
Ġìķł ìĻĦ
íıī ìĸĳ
ĠTur ks
Ġutil ization
Ġcand y
Ġesc al
ĠLeg isl
Ġíı´ ëįĶ
Ġrender ing
Ġcontrad ict
Ġloyal ty
ĠRepresent atives
A nal
F I
L ow
M aking
p arents
· Į
he ads
he rapy
Ġo re
en ers
Ġl amp
Ġn u
Ġg ad
ê³ł ìĿĺ
ess ed
ĠW ire
ĠE agle
and y
ìļ© ìľ¼ë¡ľ
ub ric
Ġì§Ģ ìĹ°
ĠìłĦ ë¶ĢíĦ°
Ġmus h
Ġìŀ¬ ë¬´
ĠRep orts
Ġce ase
Ġcit rus
Ġdisp roportion
Ġëª¸ ìĹĲ
Ġconver ting
Ġfort un
âħ ¢
Ġrid ge
Ġcritic ized
ĠAz tec
ĠëĤĺëĪĦ ìĸ´
ĠìĦŃ ì·¨
Ġf og
Ġst ap
op ol
ĠB iblical
ore sc
ĠH ep
em porary
ëıĦ ìĦľê´Ģ
du p
ìĿ¼ ëŀľëĵľ
Ġover th
Ġav en
ë²ķ ìĿ´
Ġresearch ing
[...]
