{
  "version": "1.0",
  "truncation": null,
  "padding": null,
  "added_tokens": [
    {
      "id": 0,
      "content": "<|endoftext|>",
      "single_word": false,
      "lstrip": false,
      "rstrip": false,
      "normalized": true,
      "special": true
    }
  ],
  "normalizer": null,
  "pre_tokenizer": {
    "type": "ByteLevel",
    "add_prefix_space": false,
    "trim_offsets": true,
    "use_regex": true
  },
  "post_processor": {
    "type": "ByteLevel",
    "add_prefix_space": true,
    "trim_offsets": false,
    "use_regex": true
  },
  "decoder": {
    "type": "ByteLevel",
    "add_prefix_space": true,
    "trim_offsets": true,
    "use_regex": true
  },
  "model": {
    "type": "BPE",
    "dropout": null,
    "unk_token": null,
    "continuing_subword_prefix": "",
    "end_of_word_suffix": "",
    "fuse_unk": false,
    "byte_fallback": false,
    "ignore_merges": false,
    "vocab": {
      "<|endoftext|>": 0,
      "!": 1,
      "\"": 2,
      "#": 3,
      "$": 4,
      "%": 5,
      "&": 6,
      "'": 7,
      "(": 8,
      ")": 9,
      "*": 10,
      "+": 11,
      ",": 12,
      "-": 13,
      ".": 14,
      "/": 15,
      "0": 16,
      "1": 17,
      "2": 18,
      "3": 19,
      "4": 20,
      "5": 21,
      "6": 22,
      "7": 23,
      "8": 24,
      "9": 25,
      ":": 26,
      ";": 27,
      "<": 28,
      "=": 29,
      ">": 30,
      "?": 31,
      "@": 32,
      "A": 33,
      "B": 34,
      "C": 35,
      "D": 36,
      "E": 37,
      "F": 38,
      "G": 39,
      "H": 40,
      "I": 41,
      "J": 42,
      "K": 43,
      "L": 44,
      "M": 45,
      "N": 46,
      "O": 47,
      "P": 48,
      "Q": 49,
      "R": 50,
      "S": 51,
      "T": 52,
      "U": 53,
      "V": 54,
      "W": 55,
      "X": 56,
      "Y": 57,
      "Z": 58,
      "[": 59,
      "\\": 60,
      "]": 61,
      "^": 62,
      "_": 63,
      "`": 64,
      "a": 65,
      "b": 66,
      "c": 67,
      "d": 68,
      "e": 69,
      "f": 70,
      "g": 71,
      "h": 72,
      "i": 73,
      "j": 74,
      "k": 75,
      "l": 76,
      "m": 77,
      "n": 78,
      "o": 79,
      "p": 80,
      "q": 81,
      "r": 82,
      "s": 83,
      "t": 84,
      "u": 85,
      "v": 86,
      "w": 87,
      "x": 88,
      "y": 89,
      "z": 90,
      "{": 91,
      "|": 92,
      "}": 93,
      "~": 94,
      "¡": 95,
      "¢": 96,
      "£": 97,
      "¤": 98,
      "¥": 99,
      "¦": 100,
      "§": 101,
      "¨": 102,
      "©": 103,
      "ª": 104,
      "«": 105,
      "¬": 106,
      "®": 107,
      "¯": 108,
      "°": 109,
      "±": 110,
      "²": 111,
      "³": 112,
      "´": 113,
      "µ": 114,
      "¶": 115,
      "·": 116,
      "¸": 117,
      "¹": 118,
      "º": 119,
      "»": 120,
      "¼": 121,
      "½": 122,
      "¾": 123,
      "¿": 124,
      "À": 125,
      "Á": 126,
      "Â": 127,
      "Ã": 128,
      "Ä": 129,
      "Å": 130,
      "Æ": 131,
      "Ç": 132,
      "È": 133,
      "É": 134,
      "Ê": 135,
      "Ë": 136,
      "Ì": 137,
      "Í": 138,
      "Î": 139,
      "Ï": 140,
      "Ð": 141,
      "Ñ": 142,
      "Ò": 143,
      "Ó": 144,
      "Ô": 145,
      "Õ": 146,
      "Ö": 147,
      "×": 148,
      "Ø": 149,
      "Ù": 150,
      "Ú": 151,
      "Û": 152,
      "Ü": 153,
      "Ý": 154,
      "Þ": 155,
      "ß": 156,
      "à": 157,
      "á": 158,
      "â": 159,
      "ã": 160,
      "ä": 161,
      "å": 162,
      "æ": 163,
      "ç": 164,
      "è": 165,
      "é": 166,
      "ê": 167,
      "ë": 168,
      "ì": 169,
      "í": 170,
      "î": 171,
      "ï": 172,
      "ð": 173,
      "ñ": 174,
      "ò": 175,
      "ó": 176,
      "ô": 177,
      "õ": 178,
      "ö": 179,
      "÷": 180,
      "ø": 181,
      "ù": 182,
      "ú": 183,
      "û": 184,
      "ü": 185,
      "ý": 186,
      "þ": 187,
      "ÿ": 188,
      "Ā": 189,
      "ā": 190,
      "Ă": 191,
      "ă": 192,
      "Ą": 193,
      "ą": 194,
      "Ć": 195,
      "ć": 196,
      "Ĉ": 197,
      "ĉ": 198,
      "Ċ": 199,
      "ċ": 200,
      "Č": 201,
      "č": 202,
      "Ď": 203,
      "ď": 204,
      "Đ": 205,
      "đ": 206,
      "Ē": 207,
      "ē": 208,
      "Ĕ": 209,
      "ĕ": 210,
      "Ė": 211,
      "ė": 212,
      "Ę": 213,
      "ę": 214,
      "Ě": 215,
      "ě": 216,
      "Ĝ": 217,
      "ĝ": 218,
      "Ğ": 219,
      "ğ": 220,
      "Ġ": 221,
      "ġ": 222,
      "Ģ": 223,
      "ģ": 224,
      "Ĥ": 225,
      "ĥ": 226,
      "Ħ": 227,
      "ħ": 228,
      "Ĩ": 229,
      "ĩ": 230,
      "Ī": 231,
      "ī": 232,
      "Ĭ": 233,
      "ĭ": 234,
      "Į": 235,
      "į": 236,
      "İ": 237,
      "ı": 238,
      "Ĳ": 239,
      "ĳ": 240,
      "Ĵ": 241,
      "ĵ": 242,
      "Ķ": 243,
      "ķ": 244,
      "ĸ": 245,
      "Ĺ": 246,
      "ĺ": 247,
      "Ļ": 248,
      "ļ": 249,
      "Ľ": 250,
      "ľ": 251,
      "Ŀ": 252,
      "ŀ": 253,
      "Ł": 254,
      "ł": 255,
      "Ń": 256,
      "Ġt": 257,
      "Ġa": 258,
      "he": 259,
      "in": 260,
      "Ġì": 261,
      "re": 262,
      "Ġthe": 263,
      "on": 264,
      "er": 265,
      "Ġo": 266,
      "at": 267,
      "Ġs": 268,
      "en": 269,
      "Ġc": 270,
      "Ġw": 271,
      "es": 272,
      "is": 273,
      "Ġë": 274,
      "ìĿ": 275,
      "nd": 276,
      "it": 277,
      "or": 278,
      "Ġp": 279,
      "al": 280,
      "ed": 281,
      "an": 282,
      "Ġb": 283,
      "Ġof": 284,
      "Ġf": 285,
      "ing": 286,
      "Ġin": 287,
      "ar": 288,
      "ou": 289,
      "Ġm": 290,
      "Ġand": 291,
      "Ġto": 292,
      "ic": 293,
      "ion": 294,
      "Ġd": 295,
      "íķ": 296,
      "le": 297,
      "ro": 298,
      "as": 299,
      "Ġê": 300,
      "ëĭ": 301,
      "Ġh": 302,
      "Ġth": 303,
      "ent": 304,
      "ct": 305,
      "Ġe": 306,
      "il": 307,
      "Ġre": 308,
      "âĢ": 309,
      "om": 310,
      "ve": 311,
      "Ġl": 312,
      "st": 313,
      "Ġn": 314,
      "ìĹ": 315,
      "ly": 316,
      "Ġbe": 317,
      "Ġis": 318,
      "ĠT": 319,
      "se": 320,
      "ìĿ´": 321,
      "ol": 322,
      "ëĭ¤": 323,
      "Ġg": 324,
      "Ġí": 325,
      "ëĬ": 326,
      "ation": 327,
      "im": 328,
      "id": 329,
      "et": 330,
      "ê³": 331,
      "ut": 332,
      "ot": 333,
      "ur": 334,
      "ce": 335,
      "ëĬĶ": 336,
      "ow": 337,
      "ch": 338,
      "ra": 339,
      "ĠA": 340,
      "ĠS": 341,
      "Ġfor": 342,
      "ig": 343,
      "ìĦ": 344,
      "Ġu": 345,
      "Ġthat": 346,
      "Ġon": 347,
      "ìĹĲ": 348,
      "ĠC": 349,
      "Ġst": 350,
      "ver": 351,
      "ĠI": 352,
      "ê°": 353,
      "ir": 354,
      "Ġy": 355,
      "ìł": 356,
      "ìĿĺ": 357,
      "íķĺ": 358,
      "ul": 359,
      "am": 360,
      "ay": 361,
      "ìĿĦ": 362,
      "ìŀ": 363,
      "el": 364,
      "Ġas": 365,
      "ith": 366,
      "Ġ1": 367,
      "Ġìŀ": 368,
      "ì§": 369,
      "ë¡": 370,
      "ad": 371,
      "her": 372,
      "Ġpro": 373,
      "Ġare": 374,
      "ĠìĿ": 375,
      "Ġcon": 376,
      "Ġan": 377,
      "Ġwith": 378,
      "Ġ(": 379,
      "if": 380,
      "ìļ": 381,
      "Ġwh": 382,
      "ìĭ": 383,
      "Ġyou": 384,
      "Ġit": 385,
      "Ġor": 386,
      "ĠM": 387,
      "Ġal": 388,
      "ter": 389,
      "od": 390,
      "ë¥": 391,
      "Īëĭ¤": 392,
      "íķľ": 393,
      "ë¡ľ": 394,
      "ĠThe": 395,
      "ĠP": 396,
      "ment": 397,
      "ge": 398,
      "ê³ł": 399,
      "th": 400,
      "Ġìł": 401,
      "ìĬ": 402,
      "âĢĻ": 403,
      "op": 404,
      "ate": 405,
      "¸°": 406,
      "ist": 407,
      "ers": 408,
      "ĠB": 409,
      "Ġde": 410,
      "ill": 411,
      "ab": 412,
      "Ġhe": 413,
      "ies": 414,
      "ess": 415,
      "ë¦": 416,
      "us": 417,
      "Ġex": 418,
      "ëı": 419,
      "ì§Ģ": 420,
      "ore": 421,
      "Ĥ¬": 422,
      "Ġwe": 423,
      "ect": 424,
      "ê°Ģ": 425,
      "ìľ": 426,
      "Ġsu": 427,
      "Ġ2": 428,
      "Ġcom": 429,
      "ity": 430,
      "ìķ": 431,
      "est": 432,
      "ĠH": 433,
      "res": 434,
      "ìĦľ": 435,
      "ac": 436,
      "ive": 437,
      "Ġha": 438,
      "um": 439,
      "ld": 440,
      "os": 441,
      "rom": 442,
      "Ġv": 443,
      "ëĵ": 444,
      "ĠâĢ": 445,
      "ìĿĢ": 446,
      "ke": 447,
      "ĠW": 448,
      "Ġê°": 449,
      "em": 450,
      "ê²": 451,
      "Ġby": 452,
      "ë¥¼": 453,
      "ant": 454,
      "iv": 455,
      "qu": 456,
      "ain": 457,
      "nt": 458,
      "ĠD": 459,
      "Ġat": 460,
      "pp": 461,
      "ĠE": 462,
      "igh": 463,
      "Ġë°": 464,
      "Ġìķ": 465,
      "Ġwas": 466,
      "ĠR": 467,
      "ud": 468,
      "and": 469,
      "Ġcan": 470,
      "Ġfrom": 471,
      "oc": 472,
      "Ġr": 473,
      "Ġch": 474,
      "ĠF": 475,
      "ort": 476,
      "ìĸ": 477,
      "ëĭĪëĭ¤": 478,
      "Ġne": 479,
      "ĠìĿ´": 480,
      "Ġse": 481,
      "ial": 482,
      "ê¸°": 483,
      "00": 484,
      "ëĤ": 485,
      "Ġê²": 486,
      "ĮĢ": 487,
      "ure": 488,
      "Īĺ": 489,
      "ëıĦ": 490,
      "ë¦¬": 491,
      "un": 492,
      "ĠN": 493,
      "ĠG": 494,
      "Ġnot": 495,
      "art": 496,
      "Ġle": 497,
      "ical": 498,
      "íķ´": 499,
      "ĠL": 500,
      "Ġìĭ": 501,
      "ri": 502,
      "ë§": 503,
      "Ġhave": 504,
      "og": 505,
      "Ġsh": 506,
      "êµ": 507,
      "Ġë§": 508,
      "ĠìĹ": 509,
      "Ġen": 510,
      "ìĿ¸": 511,
      "Ġthis": 512,
      "Ġsp": 513,
      "ëł": 514,
      "ìĸ´": 515,
      "ĠìŀĪ": 516,
      "ìĬ¤": 517,
      "³´": 518,
      "ìľ¼": 519,
      "ight": 520,
      "pt": 521,
      "ë©": 522,
      "rou": 523,
      "ich": 524,
      "Ġab": 525,
      "all": 526,
      "red": 527,
      "Ġwor": 528,
      "ìĭľ": 529,
      "ĠìĦ": 530,
      "ther": 531,
      "ould": 532,
      "gh": 533,
      "The": 534,
      "ions": 535,
      "our": 536,
      "ost": 537,
      "ome": 538,
      "ëĿ": 539,
      "du": 540,
      "Ġim": 541,
      "ë°": 542,
      "ated": 543,
      "·¸": 544,
      "ine": 545,
      "Ġus": 546,
      "per": 547,
      "ard": 548,
      "ìĽ": 549,
      "out": 550,
      "âĢĿ": 551,
      "Ġpl": 552,
      "ag": 553,
      "ĠO": 554,
      "ëĿ¼": 555,
      "ell": 556,
      "Ġtheir": 557,
      "ide": 558,
      "ff": 559,
      "act": 560,
      "ast": 561,
      "ans": 562,
      "ìŀĲ": 563,
      "Ġint": 564,
      "pl": 565,
      "ĠìĪĺ": 566,
      "ear": 567,
      "Ġê³": 568,
      "ĠJ": 569,
      "age": 570,
      "ust": 571,
      "ak": 572,
      "ë¬": 573,
      "ĠU": 574,
      "Ġì§": 575,
      "Ġk": 576,
      "Ġwhich": 577,
      "ë¶": 578,
      "Ġwhe": 579,
      "ìĥ": 580,
      "ec": 581,
      "Ġyour": 582,
      "ous": 583,
      "ìĤ¬": 584,
      "ĠìĤ¬": 585,
      "iz": 586,
      "Ġthey": 587,
      "ìĹĲìĦľ": 588,
      "ëŀ": 589,
      "Ġëĭ": 590,
      "ëĵ¤": 591,
      "ĠëĤ": 592,
      "£¼": 593,
      "ood": 594,
      "Ġall": 595,
      "ib": 596,
      "ê³¼": 597,
      "ĠIn": 598,
      "ëĲ": 599,
      "ia": 600,
      "ult": 601,
      "Ġad": 602,
      "ìľ¼ë¡ľ": 603,
      "Ġcont": 604,
      "ìĺ": 605,
      "Ġwill": 606,
      "end": 607,
      "Ġinc": 608,
      "cc": 609,
      "ru": 610,
      "Ġìĺ": 611,
      "ap": 612,
      "Ġdis": 613,
      "ong": 614,
      "Ġmore": 615,
      "ip": 616,
      "ĠâĢľ": 617,
      "Ġcomp": 618,
      "ew": 619,
      "ìļ©": 620,
      "ations": 621,
      "Ġres": 622,
      "vel": 623,
      "Ġhas": 624,
      "so": 625,
      "ere": 626,
      "ìĬµ": 627,
      "ê²Į": 628,
      "Ġdo": 629,
      "orm": 630,
      "ary": 631,
      "ëĤĺ": 632,
      "ater": 633,
      "íĸ": 634,
      "ĠTh": 635,
      "Ġê·¸": 636,
      "are": 637,
      "íĻ": 638,
      "ence": 639,
      "able": 640,
      "ëŁ": 641,
      "Ġother": 642,
      "ild": 643,
      "ual": 644,
      "Ġë¶": 645,
      "Ġman": 646,
      "Ġcl": 647,
      "ìłģ": 648,
      "Ġbut": 649,
      "ì¹": 650,
      "ks": 651,
      "Ġ19": 652,
      "Ġwere": 653,
      "ry": 654,
      "ind": 655,
      "ì²": 656,
      "ìĻ": 657,
      "ìļĶ": 658,
      "Ġíķ": 659,
      "ìłķ": 660,
      "ìĬµëĭĪëĭ¤": 661,
      "Ġëª": 662,
      "..": 663,
      "ep": 664,
      "Ġme": 665,
      "ance": 666,
      "ach": 667,
      "Ġper": 668,
      "Ġìľ": 669,
      "Ġone": 670,
      "¹Ħ": 671,
      "ëį": 672,
      "Ġalso": 673,
      "Ġte": 674,
      "ĠëĮĢ": 675,
      "Ġimp": 676,
      "ë©´": 677,
      "ose": 678,
      "ìŀ¥": 679,
      "Ġê°Ģ": 680,
      "ents": 681,
      "íĬ": 682,
      "'s": 683,
      "reat": 684,
      "ass": 685,
      "ake": 686,
      "ress": 687,
      "ign": 688,
      "ìķĦ": 689,
      "ase": 690,
      "íĺ": 691,
      "Ġë¬": 692,
      "av": 693,
      "au": 694,
      "ë²": 695,
      "Ġ3": 696,
      "Ġìĭľ": 697,
      "Ġìĥ": 698,
      "ition": 699,
      "ëĮĢ": 700,
      "Ġj": 701,
      "01": 702,
      "ice": 703,
      "Ġso": 704,
      "ìĨ": 705,
      "Ġ\"": 706,
      "ction": 707,
      "Ġout": 708,
      "Ġêµ": 709,
      "ber": 710,
      "very": 711,
      "ame": 712,
      "ë³´": 713,
      "Ġun": 714,
      "ime": 715,
      "Ġar": 716,
      "Ġê¸°": 717,
      "Ġpart": 718,
      "Ġapp": 719,
      "one": 720,
      "Ġíķĺ": 721,
      "ok": 722,
      "ĠK": 723,
      "ord": 724,
      ").": 725,
      "ĠSt": 726,
      "ens": 727,
      "ace": 728,
      "íĬ¸": 729,
      "ish": 730,
      "Ġabout": 731,
      "Ġëĵ": 732,
      "Ġev": 733,
      "ire": 734,
      "ory": 735,
      "ìłľ": 736,
      "ount": 737,
      "Ġwho": 738,
      "ack": 739,
      "ëª": 740,
      "ìĿ¼": 741,
      "Ġstud": 742,
      "Ġê²ĥ": 743,
      "ĠìķĦ": 744,
      "Ġpe": 745,
      "ub": 746,
      "Ġinf": 747,
      "Ġhis": 748,
      "ê¸": 749,
      "Ġëı": 750,
      "Ġsy": 751,
      "ors": 752,
      "ìĦ±": 753,
      "ue": 754,
      "ite": 755,
      "Ġthem": 756,
      "Ġcomm": 757,
      "ang": 758,
      "Ġsc": 759,
      "ëħ": 760,
      "ìĽĲ": 761,
      "ces": 762,
      "ike": 763,
      "ë§Į": 764,
      "ree": 765,
      "ound": 766,
      "ĠIt": 767,
      "now": 768,
      "low": 769,
      "olog": 770,
      "Ġìļ": 771,
      "Ġup": 772,
      "Ġbec": 773,
      "Ġpre": 774,
      "íĥ": 775,
      "ĠCh": 776,
      "ìĥģ": 777,
      "Ġìłķ": 778,
      "Ġì§Ģ": 779,
      "ë¶Ģ": 780,
      "Ġthan": 781,
      "ile": 782,
      "ie": 783,
      "Ġmay": 784,
      "ric": 785,
      "ìĻĢ": 786,
      "Ġqu": 787,
      "ail": 788,
      "´Ģ": 789,
      "iff": 790,
      "ian": 791,
      "Ġë³´": 792,
      "Ġsome": 793,
      "ople": 794,
      "íĦ": 795,
      "ĠìłĦ": 796,
      "Ġyear": 797,
      "Ġrec": 798,
      "ļĮ": 799,
      "Ġìĸ": 800,
      "ays": 801,
      "ë£": 802,
      "ates": 803,
      "Ġìłľ": 804,
      "ĠV": 805,
      "ë³": 806,
      "nder": 807,
      "Ġthere": 808,
      "Ġbeen": 809,
      "Ġwhen": 810,
      "ings": 811,
      "mer": 812,
      "ough": 813,
      "Ġag": 814,
      "ph": 815,
      "Ġits": 816,
      "ëĵľ": 817,
      "Ġinto": 818,
      "Ġgo": 819,
      "¯¸": 820,
      "íķĺëĬĶ": 821,
      "Ġtime": 822,
      "¡°": 823,
      "ren": 824,
      "¤ĳ": 825,
      "rit": 826,
      "Ġíĺ": 827,
      "Ġwork": 828,
      "Ġtra": 829,
      "te": 830,
      "Ġover": 831,
      "erv": 832,
      "Ġthese": 833,
      "ons": 834,
      "ĠìŀĲ": 835,
      "ĠThis": 836,
      "íĦ°": 837,
      "vers": 838,
      "êµŃ": 839,
      "ally": 840,
      "Ġëĭ¤": 841,
      "rough": 842,
      "Ġpeople": 843,
      "ìĹ¬": 844,
      "ond": 845,
      "Ġdiff": 846,
      "Ġhow": 847,
      "íĻĶ": 848,
      "ll": 849,
      "ì£¼": 850,
      "lud": 851,
      "Ġhad": 852,
      "Ġíķľ": 853,
      "tern": 854,
      "ove": 855,
      "ause": 856,
      "Ġtr": 857,
      "ms": 858,
      "Ġour": 859,
      "Ġcons": 860,
      "Ġro": 861,
      "Ġcol": 862,
      "Ġra": 863,
      "±°": 864,
      "Ġuse": 865,
      "irst": 866,
      "int": 867,
      "ì°": 868,
      "Ġact": 869,
      "ific": 870,
      "we": 871,
      "Ġbet": 872,
      "ëĭĪ": 873,
      "ook": 874,
      "Ġmost": 875,
      "lect": 876,
      "lic": 877,
      "Ġunder": 878,
      "Ġ-": 879,
      "Ġknow": 880,
      "ments": 881,
      "ys": 882,
      "ning": 883,
      "Ġlike": 884,
      "Ġbl": 885,
      "ĠY": 886,
      "Ġwould": 887,
      "Ġsa": 888,
      "ĠíĻ": 889,
      "),": 890,
      "ë¹Ħ": 891,
      "Ġ4": 892,
      "ìłĦ": 893,
      "Ġdes": 894,
      "ities": 895,
      "ëĲĺ": 896,
      "ious": 897,
      "Ġacc": 898,
      "les": 899,
      "ject": 900,
      "alth": 901,
      "ê³µ": 902,
      "ì¹ĺ": 903,
      "ëıĻ": 904,
      "row": 905,
      "ìĪĺ": 906,
      "velop": 907,
      "ìļ°": 908,
      "Ġì£¼": 909,
      "stem": 910,
      "êµ¬": 911,
      "ple": 912,
      "ë¬¸": 913,
      "ĠìĨ": 914,
      "Ġtw": 915,
      "Ġrel": 916,
      "Ġnew": 917,
      "Ġ201": 918,
      "Ġsuch": 919,
      "Ġif": 920,
      "Ġneed": 921,
      "ob": 922,
      "Ġ5": 923,
      "ational": 924,
      "ffect": 925,
      "Ġrep": 926,
      "íķł": 927,
      "Ġany": 928,
      "ient": 929,
      "íķĺê³ł": 930,
      "Ġinclud": 931,
      "Ġchild": 932,
      "íĶ": 933,
      "ê°Ħ": 934,
      "Ġhel": 935,
      "Ġgen": 936,
      "ative": 937,
      "hed": 938,
      "Ġì°": 939,
      "cess": 940,
      "ular": 941,
      "Ġwhat": 942,
      "ov": 943,
      "Ġonly": 944,
      "yp": 945,
      "Ġpr": 946,
      "Ġhelp": 947,
      "Ġused": 948,
      "ëŁ¬": 949,
      "ating": 950,
      "Ġprov": 951,
      "ced": 952,
      "Ġno": 953,
      "Ġfirst": 954,
      "Ġph": 955,
      "ool": 956,
      "Ġprodu": 957,
      "ĠìľĦ": 958,
      "ĠUn": 959,
      "Ġ200": 960,
      "ìĭł": 961,
      "Ġthrough": 962,
      "Ĩµ": 963,
      "Ġind": 964,
      "Ġam": 965,
      "Ġmany": 966,
      "Ġê²½": 967,
      "Ġoff": 968,
      "ĠëĲ": 969,
      "iet": 970,
      "Ġdevelop": 971,
      "Ġem": 972,
      "ĠìĿ¸": 973,
      "Ġë³": 974,
      "fter": 975,
      "oss": 976,
      "uc": 977,
      "ath": 978,
      "íļĮ": 979,
      "Ġfe": 980,
      "ark": 981,
      "ise": 982,
      "ics": 983,
      "Ġac": 984,
      "Ġpo": 985,
      "ne": 986,
      "erm": 987,
      "©ëĭĪëĭ¤": 988,
      "round": 989,
      "ts": 990,
      "ìĭ¤": 991,
      "Ġspec": 992,
      "Ġexp": 993,
      "ĠìŀĪìĬµëĭĪëĭ¤": 994,
      "Ġreg": 995,
      "ìĦ¸": 996,
      "uring": 997,
      "ìĨĮ": 998,
      "ink": 999,
      "ë©°": 1000,
      "rib": 1001,
      "Ġtwo": 1002,
      "Ġëª¨": 1003,
      "ĠâĢĺ": 1004,
      "hen": 1005,
      "ful": 1006,
      "Ġsystem": 1007,
      "eth": 1008,
      "oth": 1009,
      "iss": 1010,
      "old": 1011,
      "ied": 1012,
      "Ġdiffere": 1013,
      "ility": 1014,
      "Ġëĵ±": 1015,
      "ëħĦ": 1016,
      "ible": 1017,
      "ĠëĤĺ": 1018,
      "Ġob": 1019,
      "Ġdec": 1020,
      "ĠâĢĵ": 1021,
      "Ġatt": 1022,
      "Ġass": 1023,
      "íĮ": 1024,
      "ê¹": 1025,
      "íİ": 1026,
      "als": 1027,
      "ased": 1028,
      "Ġadd": 1029,
      "rop": 1030,
      "Ġsur": 1031,
      "ife": 1032,
      "ten": 1033,
      "Ġì¶": 1034,
      "ëį°": 1035,
      "ë£Į": 1036,
      "ert": 1037,
      "ê³Ħ": 1038,
      "ng": 1039,
      "íģ": 1040,
      "ĠHe": 1041,
      "ange": 1042,
      "In": 1043,
      "íħ": 1044,
      "aw": 1045,
      "ower": 1046,
      "Ġfl": 1047,
      "Ġshould": 1048,
      "fore": 1049,
      "ram": 1050,
      "ìķ¼": 1051,
      "Ġsupp": 1052,
      "ures": 1053,
      "arch": 1054,
      "Ġwell": 1055,
      "ìŀħ": 1056,
      "ween": 1057,
      "ĠìĿ¼": 1058,
      "Ġì¤ĳ": 1059,
      "ĠìŀĪëĬĶ": 1060,
      "Ġrem": 1061,
      "ract": 1062,
      "Ġë²": 1063,
      "íĸī": 1064,
      "ble": 1065,
      "sel": 1066,
      "Ġwater": 1067,
      "ìĹħ": 1068,
      "Ġyears": 1069,
      "own": 1070,
      "Ġë¬´": 1071,
      "Ġinv": 1072,
      "ì¶": 1073,
      "Ġì²": 1074,
      "Ġsub": 1075,
      "ì§Ħ": 1076,
      "Ġë¶Ģ": 1077,
      "Ġco": 1078,
      "ade": 1079,
      "ĠìŀĪëĭ¤": 1080,
      "ution": 1081,
      "its": 1082,
      "gan": 1083,
      "Ġsm": 1084,
      "Ġbetween": 1085,
      "Ġcould": 1086,
      "Ġê³µ": 1087,
      "ĠìĬ": 1088,
      "hes": 1089,
      "Ġwhere": 1090,
      "ĠëĤ´": 1091,
      "Ġpres": 1092,
      "cy": 1093,
      "Ġhigh": 1094,
      "Ġhealth": 1095,
      "Ġ6": 1096,
      "ick": 1097,
      "ily": 1098,
      "Ġëį": 1099,
      "ĠìĹ¬": 1100,
      "land": 1101,
      "ĠìķĬ": 1102,
      "uch": 1103,
      "wn": 1104,
      "Ġtrans": 1105,
      "xt": 1106,
      "ĠAs": 1107,
      "Ġmake": 1108,
      "ì²´": 1109,
      "Ġê³ł": 1110,
      "ft": 1111,
      "Ġher": 1112,
      "Ġë°ı": 1113,
      "ëĦ": 1114,
      "Ġget": 1115,
      "ìĿ´ëĭ¤": 1116,
      "ever": 1117,
      "ìļ´": 1118,
      "ĠíĶ": 1119,
      "íı": 1120,
      "Ġpers": 1121,
      "Ġear": 1122,
      "ĠíĮ": 1123,
      "ê¸Ī": 1124,
      "ëł¤": 1125,
      "ants": 1126,
      "form": 1127,
      "ited": 1128,
      "ident": 1129,
      "ìĿĮ": 1130,
      "íķĻ": 1131,
      "Ĥ°": 1132,
      "Ġbu": 1133,
      "Ġìĸ´": 1134,
      "Ġ18": 1135,
      "ëªħ": 1136,
      "ĠìĦľ": 1137,
      "Ġimport": 1138,
      "ê±°": 1139,
      "Ġinter": 1140,
      "ology": 1141,
      "ìĭĿ": 1142,
      "chn": 1143,
      "Ġrese": 1144,
      "ience": 1145,
      "ëĲľ": 1146,
      "ural": 1147,
      "ont": 1148,
      "meric": 1149,
      "Ġmod": 1150,
      "Ġíķ´": 1151,
      "Ġìĥģ": 1152,
      "ķĮ": 1153,
      "Ġpol": 1154,
      "ivers": 1155,
      "Ġinst": 1156,
      "chool": 1157,
      "Ġnum": 1158,
      "Ġform": 1159,
      "ict": 1160,
      "ìľĦ": 1161,
      "Ġê´Ģ": 1162,
      "Ġë§Ī": 1163,
      "Ġdisc": 1164,
      "ê·¸": 1165,
      "ines": 1166,
      "||": 1167,
      "Ġexam": 1168,
      "Ġíı": 1169,
      "íŀ": 1170,
      "Ġfound": 1171,
      "ë¯¸": 1172,
      "ata": 1173,
      "Ġmed": 1174,
      "ism": 1175,
      "ins": 1176,
      "Ġlear": 1177,
      "ists": 1178,
      "ting": 1179,
      "gy": 1180,
      "hat": 1181,
      "ĠìĹĨ": 1182,
      "ually": 1183,
      "oy": 1184,
      "ef": 1185,
      "ê¹Į": 1186,
      "Ġbecause": 1187,
      "urn": 1188,
      "Ġë¹Ħ": 1189,
      "Ġlar": 1190,
      "Ġafter": 1191,
      ".âĢĿ": 1192,
      "Ġeven": 1193,
      "Ġthen": 1194,
      "ë¥´": 1195,
      "Ġë°Ķ": 1196,
      "Ġsim": 1197,
      "Ġlong": 1198,
      "Ġvery": 1199,
      "Ġjust": 1200,
      "Ġdifferent": 1201,
      "Ġcent": 1202,
      "Ġworld": 1203,
      "ìĺ¤": 1204,
      "Ġìľł": 1205,
      "Ġexper": 1206,
      "ness": 1207,
      "íĴ": 1208,
      "Ġinform": 1209,
      "Ġeffect": 1210,
      "ature": 1211,
      "Ġê°ľ": 1212,
      "ë§Ī": 1213,
      "Ġincre": 1214,
      "Ġhum": 1215,
      "ì¡°": 1216,
      "ĠìĨĮ": 1217,
      "Ġcar": 1218,
      "Ġway": 1219,
      "other": 1220,
      "Ġdet": 1221,
      "cept": 1222,
      "Ġcount": 1223,
      "ë¶Ħ": 1224,
      "get": 1225,
      "Ġì¹": 1226,
      "ĠAmeric": 1227,
      "ë¬´": 1228,
      "Ġsee": 1229,
      "Ġtyp": 1230,
      "ì¦": 1231,
      "Ġed": 1232,
      "aking": 1233,
      "ically": 1234,
      "ĽĦ": 1235,
      "ëĤ´": 1236,
      "vent": 1237,
      "Ġke": 1238,
      "Ġref": 1239,
      "Ġ10": 1240,
      "ê´Ģ": 1241,
      "ĠìĻ": 1242,
      "iew": 1243,
      "ĠìĽ": 1244,
      "ollow": 1245,
      "íŀĪ": 1246,
      "Ġthose": 1247,
      "ë¬¼": 1248,
      "ives": 1249,
      "ê²½": 1250,
      "Ġêµ¬": 1251,
      "Ġì¢": 1252,
      "Ġresp": 1253,
      "íģ¬": 1254,
      "Ġìĺ¤": 1255,
      "Ġvar": 1256,
      "ëĭ¨": 1257,
      "cer": 1258,
      "Ġcall": 1259,
      "Ġsign": 1260,
      "ork": 1261,
      "Ġevery": 1262,
      "ìŀĳ": 1263,
      "Ġprog": 1264,
      "ëł¥": 1265,
      "Ġgener": 1266,
      "ps": 1267,
      "ĠëĶ": 1268,
      "Ġsoc": 1269,
      "Ġ7": 1270,
      "ëĬ¥": 1271,
      "Ġsec": 1272,
      "omm": 1273,
      "ros": 1274,
      "arm": 1275,
      "Ġpub": 1276,
      "Ġë°ľ": 1277,
      "Ġext": 1278,
      "Ġchildren": 1279,
      "ck": 1280,
      "ìŀ¬": 1281,
      "Ġsaid": 1282,
      "tle": 1283,
      "Ġloc": 1284,
      "ues": 1285,
      "ìĦł": 1286,
      "Ġprocess": 1287,
      "Ġbeing": 1288,
      "ê°ľ": 1289,
      "19": 1290,
      "Ġíĸ": 1291,
      "ds": 1292,
      "ìĦ¤": 1293,
      "ĠìĬ¤": 1294,
      "Ġfact": 1295,
      "Ġresult": 1296,
      "ĠìĿĺ": 1297,
      "Ġeach": 1298,
      "Ġë§Į": 1299,
      "ases": 1300,
      "led": 1301,
      "Ġlife": 1302,
      "Ġpartic": 1303,
      "ĠìĥĿ": 1304,
      "Ġpat": 1305,
      "ĠAl": 1306,
      "Ġset": 1307,
      "ìĪ": 1308,
      "ruct": 1309,
      "ìħ": 1310,
      "Th": 1311,
      "Ġca": 1312,
      "Ġmy": 1313,
      "êµĲ": 1314,
      "ĠëķĮ": 1315,
      "iron": 1316,
      "íĴĪ": 1317,
      "¶Į": 1318,
      "000": 1319,
      "io": 1320,
      "ëŀĺ": 1321,
      "ody": 1322,
      "Ġ8": 1323,
      "ĠWe": 1324,
      "Ġimportant": 1325,
      "ĠPro": 1326,
      "ìĺģ": 1327,
      "ê·": 1328,
      "Ġmon": 1329,
      "Ġshe": 1330,
      "Ġgra": 1331,
      "ìľł": 1332,
      "íķĺìĹ¬": 1333,
      "Ġdist": 1334,
      "Ġê¸": 1335,
      "Ġmuch": 1336,
      "vern": 1337,
      "ages": 1338,
      "ved": 1339,
      "íĺ¸": 1340,
      "µľ": 1341,
      "Ġtechn": 1342,
      "Ġrequ": 1343,
      "Ġì¡°": 1344,
      "Ġcre": 1345,
      "ather": 1346,
      "ëĭ¹": 1347,
      "ĠëıĦ": 1348,
      "Ġdef": 1349,
      "Ġright": 1350,
      "ĺĲ": 1351,
      "ìĹĪ": 1352,
      "Ġfam": 1353,
      "Ġinformation": 1354,
      "Ġduring": 1355,
      "Ġcommun": 1356,
      "ward": 1357,
      "Ġdep": 1358,
      "Ġread": 1359,
      "Ġfollow": 1360,
      "ized": 1361,
      "Ġë¬¸": 1362,
      "cent": 1363,
      "Ġown": 1364,
      "imes": 1365,
      "Ġent": 1366,
      "Ġìĭł": 1367,
      "Ġart": 1368,
      "ìĥĿ": 1369,
      "ĠRe": 1370,
      "ìķĪ": 1371,
      "Ġfood": 1372,
      "±´": 1373,
      "ĠìĹ°": 1374,
      "Ġsame": 1375,
      "Ġlead": 1376,
      "gg": 1377,
      "¯¼": 1378,
      "ì¡": 1379,
      "ection": 1380,
      "ĳĲ": 1381,
      "hip": 1382,
      "ĠThey": 1383,
      "Ġlevel": 1384,
      "ices": 1385,
      "Ġë¯¸": 1386,
      "ìĤ°": 1387,
      "ex": 1388,
      "Ġdoes": 1389,
      "...": 1390,
      "Ġmade": 1391,
      "any": 1392,
      "com": 1393,
      "Ġsk": 1394,
      "Ġaut": 1395,
      "ĠìłĢ": 1396,
      "Ġperson": 1397,
      "Ġstudents": 1398,
      "Ġins": 1399,
      "ize": 1400,
      "ì°¨": 1401,
      "Ġstr": 1402,
      "Ġstudy": 1403,
      "Ġdata": 1404,
      "Ġend": 1405,
      "Ġìļ°": 1406,
      "ĠìĺĪ": 1407,
      "con": 1408,
      "Ġcur": 1409,
      "íĥĢ": 1410,
      "Ġfind": 1411,
      "ĠIf": 1412,
      "Ġmin": 1413,
      "Ġgrow": 1414,
      "the": 1415,
      "ĠAn": 1416,
      "ĳľ": 1417,
      "ĠìĦ¸": 1418,
      "Ġgood": 1419,
      "ted": 1420,
      "ĠFor": 1421,
      "íĸĪëĭ¤": 1422,
      "und": 1423,
      "Ġ9": 1424,
      "Ġpop": 1425,
      "Ġboth": 1426,
      "Ġback": 1427,
      "ĠíĨµ": 1428,
      "ì§Ģë§Į": 1429,
      "Ġíĥ": 1430,
      "Ġav": 1431,
      "ale": 1432,
      "ë¡Ŀ": 1433,
      "Ġproble": 1434,
      "ĠAr": 1435,
      "Ġche": 1436,
      "ars": 1437,
      "Ġgrou": 1438,
      "Ġbefore": 1439,
      "Ġë§Ĳ": 1440,
      "Ġ20": 1441,
      ".,": 1442,
      "ìĹ°": 1443,
      "ĠëıĻ": 1444,
      "Ġë°©": 1445,
      "Ġsmall": 1446,
      "ĠëĲĺ": 1447,
      "ìłģìĿ¸": 1448,
      "viron": 1449,
      "Ġshow": 1450,
      "Ġagain": 1451,
      "Ġusing": 1452,
      "ëĶ": 1453,
      "ëĵ¤ìĿ´": 1454,
      "Ġexpl": 1455,
      "inal": 1456,
      "Ġcomple": 1457,
      "ë²ķ": 1458,
      "ince": 1459,
      "Ġhist": 1460,
      "Ġprot": 1461,
      "iversity": 1462,
      "Ġschool": 1463,
      "ĠìĦł": 1464,
      "stand": 1465,
      "ĠìķĪ": 1466,
      "Ġgl": 1467,
      "ality": 1468,
      "ron": 1469,
      "ially": 1470,
      "ty": 1471,
      "Ġdi": 1472,
      "Ġ'": 1473,
      "omen": 1474,
      "ĠëĺĲ": 1475,
      "Ġbo": 1476,
      "Ġíİ": 1477,
      "ĠíĬ": 1478,
      "ivid": 1479,
      "Ġmain": 1480,
      "der": 1481,
      "íķ©ëĭĪëĭ¤": 1482,
      "nce": 1483,
      "ined": 1484,
      "ax": 1485,
      "read": 1486,
      "iel": 1487,
      "Ġcor": 1488,
      "ĠìĤ¬ìļ©": 1489,
      "ìŀħëĭĪëĭ¤": 1490,
      "Ġtest": 1491,
      "rol": 1492,
      "Ġoften": 1493,
      "ĠHow": 1494,
      "Ġtreat": 1495,
      "ĠNew": 1496,
      "âĢľ": 1497,
      "ĠSp": 1498,
      "Ġë¶Ħ": 1499,
      "Ġstate": 1500,
      "Ġsol": 1501,
      "ute": 1502,
      "oh": 1503,
      "ock": 1504,
      "Ġposs": 1505,
      "Ġwhile": 1506,
      "ix": 1507,
      "Ġlit": 1508,
      "ĠìĿ´ìļ©": 1509,
      "Ġval": 1510,
      "ished": 1511,
      "íĶĦ": 1512,
      "Ġless": 1513,
      "imate": 1514,
      "ran": 1515,
      "ĠInd": 1516,
      "ìŀĦ": 1517,
      "ergy": 1518,
      "Ġìĭ¤": 1519,
      "Ġëħ": 1520,
      "irect": 1521,
      "ìĹŃ": 1522,
      "Ġday": 1523,
      "Ġdise": 1524,
      "ien": 1525,
      "ìĹĲëĬĶ": 1526,
      "ëŀĮ": 1527,
      "Ġris": 1528,
      "Ġtake": 1529,
      "up": 1530,
      "ê°ģ": 1531,
      "ral": 1532,
      "Ġnow": 1533,
      "Ġhim": 1534,
      "akes": 1535,
      "ulation": 1536,
      "Ġocc": 1537,
      "ê¶Į": 1538,
      "Ġnumber": 1539,
      "ury": 1540,
      "Ġcell": 1541,
      "Ġpower": 1542,
      "ier": 1543,
      "Ġserv": 1544,
      "Ġmem": 1545,
      "Ġhuman": 1546,
      "dition": 1547,
      "Ġprovid": 1548,
      "íĭ": 1549,
      "ìĹĲê²Į": 1550,
      "ĠìĦ±": 1551,
      "vironment": 1552,
      "ìĹĪëĭ¤": 1553,
      "iety": 1554,
      "Ġorgan": 1555,
      "Ġ.": 1556,
      "Ġfun": 1557,
      "Ġvis": 1558,
      "Ġìĺģ": 1559,
      "Ġê°Ļ": 1560,
      "ëłĪ": 1561,
      "iving": 1562,
      "ìĽĶ": 1563,
      "ĠëĦ": 1564,
      "Ġresearch": 1565,
      "ered": 1566,
      "Ġìµľ": 1567,
      "air": 1568,
      "Ġsupport": 1569,
      "Ġbody": 1570,
      "Ġactiv": 1571,
      "ĠSc": 1572,
      "Ġmust": 1573,
      "ters": 1574,
      "Ġchar": 1575,
      "ëįĺ": 1576,
      "iqu": 1577,
      "ĠêµŃ": 1578,
      "10": 1579,
      "Ġest": 1580,
      "Ġdesign": 1581,
      "Ġdown": 1582,
      "ë°©": 1583,
      "Ġê·": 1584,
      "ves": 1585,
      "ital": 1586,
      "uss": 1587,
      "íĤ": 1588,
      "ven": 1589,
      "Ġthree": 1590,
      "Ġaround": 1591,
      "tt": 1592,
      "ë¥¸": 1593,
      "Ġhand": 1594,
      "ah": 1595,
      "âĢĶ": 1596,
      "cl": 1597,
      "Ġlook": 1598,
      "Ġbel": 1599,
      "ìķ½": 1600,
      "ium": 1601,
      "Ġelect": 1602,
      "hers": 1603,
      "Ġclass": 1604,
      "ìĸĳ": 1605,
      "Ġstart": 1606,
      "day": 1607,
      "Ġíģ": 1608,
      "Ġconf": 1609,
      "ger": 1610,
      "Ġcommon": 1611,
      "Ġpoint": 1612,
      "Ġplan": 1613,
      "Ġredu": 1614,
      "ĠBut": 1615,
      "Ġgreat": 1616,
      "Ġgovern": 1617,
      "rent": 1618,
      "ave": 1619,
      "aj": 1620,
      "Ġdid": 1621,
      "self": 1622,
      "ìĿ´ëĿ¼": 1623,
      "ĠëĮĢíķľ": 1624,
      "ìĭ¬": 1625,
      "ouse": 1626,
      "Ġë©": 1627,
      "ains": 1628,
      "íķĺê²Į": 1629,
      "--": 1630,
      "Ġë¶Ī": 1631,
      "Ġê²½ìļ°": 1632,
      "ë¹ĦìĬ¤": 1633,
      "This": 1634,
      "Ġland": 1635,
      "ë°ľ": 1636,
      "Ġser": 1637,
      "Ġcontin": 1638,
      "Ġlarge": 1639,
      "¤Ģ": 1640,
      "Ġcle": 1641,
      "ving": 1642,
      "ross": 1643,
      "eg": 1644,
      "íĨµ": 1645,
      "Ġexample": 1646,
      "Ġê±°": 1647,
      "ring": 1648,
      "ĺìĿ´": 1649,
      "ash": 1650,
      "Ĩł": 1651,
      "ĠIs": 1652,
      "ee": 1653,
      "íİ¸": 1654,
      "ĠìļĶ": 1655,
      "itions": 1656,
      "Ġret": 1657,
      "ared": 1658,
      ".\"": 1659,
      "ë¯¼": 1660,
      "Ġthough": 1661,
      ",âĢĿ": 1662,
      "íĸĪ": 1663,
      "acter": 1664,
      "Ġcour": 1665,
      "rain": 1666,
      "ì¤ĳ": 1667,
      "Ġop": 1668,
      "Ġìŀ¥": 1669,
      "ëĵł": 1670,
      "Ġincluding": 1671,
      "ional": 1672,
      "ëª¨": 1673,
      "gen": 1674,
      "âĢĵ": 1675,
      "Ġreport": 1676,
      "Ġconst": 1677,
      "ner": 1678,
      "Ġallow": 1679,
      "ull": 1680,
      "outh": 1681,
      "Ġ199": 1682,
      "Ġcare": 1683,
      "Ġsom": 1684,
      "Ġ[": 1685,
      "Ġcalled": 1686,
      "way": 1687,
      "els": 1688,
      "ĠìĤ": 1689,
      "orn": 1690,
      "Ġunderstand": 1691,
      "ĠAnd": 1692,
      "ĠThere": 1693,
      "íķľëĭ¤": 1694,
      "ĠìĦ¤": 1695,
      "Ġë§İ": 1696,
      "±ħ": 1697,
      "Ġequ": 1698,
      "Ġwrit": 1699,
      "ë³¸": 1700,
      "Ġbuild": 1701,
      "iver": 1702,
      "Ġstill": 1703,
      "ìłĲ": 1704,
      "Ġmet": 1705,
      "ĠëįĶ": 1706,
      "íĹ": 1707,
      "Ġadv": 1708,
      "ĠYou": 1709,
      "ìłģìľ¼ë¡ľ": 1710,
      "esp": 1711,
      "Ġeduc": 1712,
      "iven": 1713,
      "Ġíĺ¸": 1714,
      "ĠêµĲ": 1715,
      "Ġpublic": 1716,
      "Ġbeh": 1717,
      "Ġthink": 1718,
      "Ġknown": 1719,
      "20": 1720,
      "Ġpract": 1721,
      "ividual": 1722,
      "ìĨį": 1723,
      "Ġ&": 1724,
      "ìłĢ": 1725,
      "Ġide": 1726,
      "aterial": 1727,
      "ìĺĢ": 1728,
      "ê»": 1729,
      "inc": 1730,
      "ected": 1731,
      "oms": 1732,
      "Ġ:": 1733,
      "Ġì´": 1734,
      "reen": 1735,
      "Ġ15": 1736,
      "lish": 1737,
      "Ġgu": 1738,
      "ired": 1739,
      "iod": 1740,
      "Ġappro": 1741,
      "Ġdr": 1742,
      "Ġquest": 1743,
      "osed": 1744,
      "erest": 1745,
      "íı¬": 1746,
      "de": 1747,
      "Ġfew": 1748,
      "íħĶ": 1749,
      "oci": 1750,
      "Ġeas": 1751,
      "conom": 1752,
      "itive": 1753,
      "Ġplace": 1754,
      "ination": 1755,
      "ids": 1756,
      "ential": 1757,
      "Ġstand": 1758,
      "ense": 1759,
      "ĠíĶĦ": 1760,
      "ĠíļĮ": 1761,
      "Ġmight": 1762,
      "ww": 1763,
      "ization": 1764,
      "Ġmat": 1765,
      "ries": 1766,
      "bers": 1767,
      "Ġê²°": 1768,
      "me": 1769,
      "ived": 1770,
      "ĠEng": 1771,
      "Ġwithout": 1772,
      "Ġtem": 1773,
      "ĠWh": 1774,
      "ĠìķĮ": 1775,
      "ason": 1776,
      "ration": 1777,
      "Ġchang": 1778,
      "ĠëĶ°": 1779,
      "ior": 1780,
      "raph": 1781,
      "201": 1782,
      "Ġproduct": 1783,
      "oun": 1784,
      "ĠThese": 1785,
      "ëĶĶ": 1786,
      "Ġdem": 1787,
      "eral": 1788,
      "½Ķ": 1789,
      "Ġwant": 1790,
      "Ġwithin": 1791,
      "ources": 1792,
      "ĠíĺĦ": 1793,
      "Ġenvironment": 1794,
      "ë°Ķ": 1795,
      "ethod": 1796,
      "Ġcaus": 1797,
      "eng": 1798,
      "Ġsym": 1799,
      "Ġindividual": 1800,
      "ë¡ł": 1801,
      "Ġiss": 1802,
      "ording": 1803,
      "ertain": 1804,
      "ĠUniversity": 1805,
      "ering": 1806,
      "Ġpresent": 1807,
      "Ġplay": 1808,
      "man": 1809,
      "line": 1810,
      "ption": 1811,
      "Ġenergy": 1812,
      "ë°ĺ": 1813,
      "Ġpur": 1814,
      "ĠDe": 1815,
      "Ġcap": 1816,
      "Ġì§Ħ": 1817,
      "Ġchange": 1818,
      "ĠíĮĮ": 1819,
      "ë§¤": 1820,
      "ë¦½": 1821,
      "ians": 1822,
      "Ġphys": 1823,
      "Ġsocial": 1824,
      "alk": 1825,
      "Ġìłľê³µ": 1826,
      "ĠëĨ": 1827,
      "Ġdirect": 1828,
      "Ġlearn": 1829,
      "ffic": 1830,
      "Ġimm": 1831,
      "ĠCon": 1832,
      "less": 1833,
      "iness": 1834,
      "Ġ12": 1835,
      "ton": 1836,
      "ĠAmerican": 1837,
      "Ġair": 1838,
      "Ġpot": 1839,
      "Ġident": 1840,
      "Ġdon": 1841,
      "ê¹Įì§Ģ": 1842,
      "Ġdisease": 1843,
      "Ġlaw": 1844,
      "ĠìĤ¬ëŀĮ": 1845,
      "Ġì¦": 1846,
      "Ġmaterial": 1847,
      "Ġbre": 1848,
      "Ġanother": 1849,
      "ug": 1850,
      "angu": 1851,
      "orth": 1852,
      "Ġpos": 1853,
      "ĠìĪ": 1854,
      "Ġdevelopment": 1855,
      "illion": 1856,
      "Ġpass": 1857,
      "Â·": 1858,
      "ĠìĽĲ": 1859,
      "__": 1860,
      "ëĤľ": 1861,
      "Ġarea": 1862,
      "Ġìłķë³´": 1863,
      "Ġsl": 1864,
      "ìĪł": 1865,
      "ability": 1866,
      "Ġimpro": 1867,
      "Ġben": 1868,
      "Ġprof": 1869,
      "ets": 1870,
      "Ġwomen": 1871,
      "ëł¨": 1872,
      "arent": 1873,
      "ì²ĺ": 1874,
      "ë¦°": 1875,
      "Ġve": 1876,
      "Ġmus": 1877,
      "Ġsit": 1878,
      "ê°Ŀ": 1879,
      "ê²©": 1880,
      "Ġproject": 1881,
      "agn": 1882,
      "ãħ": 1883,
      "Ġhome": 1884,
      "Ġì¶Ķ": 1885,
      "Ġlight": 1886,
      "Ġìŀĳ": 1887,
      "rist": 1888,
      "ê»ĺ": 1889,
      "Ġê³Ħ": 1890,
      "bs": 1891,
      "Ġrest": 1892,
      "ological": 1893,
      "ajor": 1894,
      "It": 1895,
      "ified": 1896,
      "ccess": 1897,
      "Ġet": 1898,
      "Ġíķł": 1899,
      "ris": 1900,
      "ik": 1901,
      "Ġrisk": 1902,
      "Ġant": 1903,
      "ĠìĦľë¹ĦìĬ¤": 1904,
      "Ġinclude": 1905,
      "Ġbas": 1906,
      "Ġ0": 1907,
      "Ġíı¬": 1908,
      "ĠPh": 1909,
      "ats": 1910,
      "Ġê¹": 1911,
      "Ġdesc": 1912,
      "Ġinterest": 1913,
      "erc": 1914,
      "Ġcontrol": 1915,
      "Ġëĵ¤": 1916,
      "Ġcult": 1917,
      "ental": 1918,
      "Ġë§¤": 1919,
      "rodu": 1920,
      "ĠSh": 1921,
      "Ġbelie": 1922,
      "ë¸": 1923,
      "ĠAd": 1924,
      "Ġbest": 1925,
      "Ġeng": 1926,
      "ained": 1927,
      "Ġblood": 1928,
      "az": 1929,
      "Ġmeas": 1930,
      "ë²Ī": 1931,
      "íĳľ": 1932,
      "ìķĺ": 1933,
      "ify": 1934,
      "'t": 1935,
      "Ġìłģ": 1936,
      "ield": 1937,
      "atic": 1938,
      "ë²Ħ": 1939,
      "ĠEx": 1940,
      "Ġopp": 1941,
      "íķĺê¸°": 1942,
      "Ġagainst": 1943,
      "ways": 1944,
      "ëŁ°": 1945,
      "Ġê°ĢëĬ¥": 1946,
      "ë°ķ": 1947,
      "Ġmark": 1948,
      "ĠíĽĦ": 1949,
      "Ġbecome": 1950,
      "ê¸ī": 1951,
      "Ġold": 1952,
      "ently": 1953,
      "Ġprogram": 1954,
      "ern": 1955,
      "Ġmove": 1956,
      "Ġmil": 1957,
      "to": 1958,
      "Ġgovernment": 1959,
      "Ġleg": 1960,
      "Ġmethod": 1961,
      "atural": 1962,
      "gin": 1963,
      "íĤ¤": 1964,
      "Ġlow": 1965,
      "Ġsever": 1966,
      "cing": 1967,
      "Ġeconom": 1968,
      "Ġpar": 1969,
      "ĠíĬ¹": 1970,
      "Ġanal": 1971,
      "Ġê²Į": 1972,
      "here": 1973,
      "lished": 1974,
      "Ġìŀħ": 1975,
      "Ġanim": 1976,
      "Ġearly": 1977,
      "ision": 1978,
      "ê±´": 1979,
      "ead": 1980,
      "Ġhere": 1981,
      "Ġele": 1982,
      "Ġorder": 1983,
      "ĠëĬ": 1984,
      "ĠZ": 1985,
      "Ġpain": 1986,
      "Ġì»": 1987,
      "ĠCl": 1988,
      "arc": 1989,
      "ĠíķŃ": 1990,
      "Ġbetter": 1991,
      "ì¶ľ": 1992,
      "Ġproper": 1993,
      "ĠHowever": 1994,
      "hor": 1995,
      "ĠíĻķ": 1996,
      "Ġwar": 1997,
      "íķ¨": 1998,
      "ë£¨": 1999,
      "Ġ17": 2000,
      "Ġkeep": 2001,
      "Ġreal": 2002,
      "ource": 2003,
      "Ġmeans": 2004,
      "Ġsecond": 2005,
      "íĨł": 2006,
      "ĠâĢĶ": 2007,
      "Ġìŀ¬": 2008,
      "ission": 2009,
      "use": 2010,
      "ining": 2011,
      "amp": 2012,
      "Ġtoo": 2013,
      "ware": 2014,
      "Ġlast": 2015,
      "ì¢": 2016,
      "ĠìĭľìĦ¤": 2017,
      "Ġëħ¸": 2018,
      "ĠRes": 2019,
      "Ġì¢ĭ": 2020,
      "Ġgroup": 2021,
      "ì²Ń": 2022,
      "Ġoper": 2023,
      "Ġëĭ¨": 2024,
      "Ġprovide": 2025,
      "Ġdev": 2026,
      "Ġter": 2027,
      "ì§ģ": 2028,
      "Ġê°ķ": 2029,
      "Ġfamily": 2030,
      "íķŃ": 2031,
      "ank": 2032,
      "ì¼": 2033,
      "ator": 2034,
      "ards": 2035,
      "ider": 2036,
      "ìĦĿ": 2037,
      "ĠUnited": 2038,
      "Ġcause": 2039,
      "icle": 2040,
      "rap": 2041,
      "íĽĦ": 2042,
      "view": 2043,
      "Ġfore": 2044,
      "eed": 2045,
      "ëĳĲ": 2046,
      "Ġë°ĺ": 2047,
      "ills": 2048,
      "íĭ°": 2049,
      "Ġhistory": 2050,
      "ples": 2051,
      "íĮĮ": 2052,
      "Ġmajor": 2053,
      "Ġoccur": 2054,
      "íĺķ": 2055,
      "ote": 2056,
      "Ġsay": 2057,
      "Ġë°Ľ": 2058,
      "Ġparticular": 2059,
      "ention": 2060,
      "Ġfin": 2061,
      "Ġpossible": 2062,
      "Ġtop": 2063,
      "ë©´ìĦľ": 2064,
      "Ġunt": 2065,
      "12": 2066,
      "irc": 2067,
      "Ġtre": 2068,
      "Ġcurrent": 2069,
      "Ġavail": 2070,
      "Ġíİ¸": 2071,
      "ina": 2072,
      "ë¶ĢíĦ°": 2073,
      "ëĭĺ": 2074,
      "ret": 2075,
      "ì¸": 2076,
      "ĠCol": 2077,
      "Ġsaf": 2078,
      "ĠPl": 2079,
      "ê²°": 2080,
      "par": 2081,
      "Ġindu": 2082,
      "Ġseveral": 2083,
      "ëĵ¤ìĿĢ": 2084,
      "Ġperiod": 2085,
      "Ġlearning": 2086,
      "ĠìľĦíķ´": 2087,
      "Ġëĭ¹": 2088,
      "oid": 2089,
      "Ġnear": 2090,
      "ĠWhen": 2091,
      "Ġaddition": 2092,
      "Ġorig": 2093,
      "pect": 2094,
      "Ġable": 2095,
      "ì§Ī": 2096,
      "Ġ16": 2097,
      "Ġpercent": 2098,
      "idence": 2099,
      "ëĲĺìĸ´": 2100,
      "ëĬĶëį°": 2101,
      "Ġhig": 2102,
      "lu": 2103,
      "Ġinvol": 2104,
      "ograph": 2105,
      "Ġhapp": 2106,
      "Ġmean": 2107,
      "ì§ĳ": 2108,
      "ĠQ": 2109,
      "Ġìļ°ë¦¬": 2110,
      "ients": 2111,
      "Ġë¹": 2112,
      "Ġmar": 2113,
      "Ġperform": 2114,
      "Ġsince": 2115,
      "ogn": 2116,
      "Ġmen": 2117,
      "Ġbus": 2118,
      "Ġel": 2119,
      "ì¤Ģ": 2120,
      "Ġopen": 2121,
      "ëįĶ": 2122,
      "Ġlangu": 2123,
      "Ġbenef": 2124,
      "Ġthings": 2125,
      "18": 2126,
      "ĠCan": 2127,
      "Ġì¶ľ": 2128,
      "sy": 2129,
      "Ġë°°": 2130,
      "ories": 2131,
      "ĠSe": 2132,
      "Ġcal": 2133,
      "Ġspecies": 2134,
      "ames": 2135,
      "port": 2136,
      "Ġprom": 2137,
      "though": 2138,
      "Ġfeel": 2139,
      "Ġareas": 2140,
      "Ġscient": 2141,
      "Ġë¬´ë£Į": 2142,
      "urop": 2143,
      "Ġfre": 2144,
      "Ġnon": 2145,
      "ĠGod": 2146,
      "ĠComm": 2147,
      "ĠíķĦ": 2148,
      "Ġname": 2149,
      "What": 2150,
      "Ġothers": 2151,
      "Ġì°¨": 2152,
      "Ġlim": 2153,
      "Ġaffect": 2154,
      "Ġbased": 2155,
      "ĠTo": 2156,
      "ĠAt": 2157,
      "omp": 2158,
      "Ġamong": 2159,
      "ole": 2160,
      "ëŀĳ": 2161,
      "ĠStates": 2162,
      "ëĭ¤ëĬĶ": 2163,
      "ilar": 2164,
      "Ġtreatment": 2165,
      "//": 2166,
      "sc": 2167,
      "ploy": 2168,
      "ìĽĮ": 2169,
      "Ġfollowing": 2170,
      "ëĵ¤ìĿĺ": 2171,
      "Ġcountry": 2172,
      "Ġsays": 2173,
      "elf": 2174,
      "Ġplant": 2175,
      "ë¥ĺ": 2176,
      "ĠëĪ": 2177,
      "Ġaccess": 2178,
      "ends": 2179,
      "Ġcertain": 2180,
      "of": 2181,
      "ling": 2182,
      "50": 2183,
      "Ġsignific": 2184,
      "Ġobject": 2185,
      "be": 2186,
      "rid": 2187,
      "íĶ¼": 2188,
      "Ġtimes": 2189,
      "ëŀĢ": 2190,
      "íĺĦ": 2191,
      "une": 2192,
      "ended": 2193,
      "ë¦¬ê³ł": 2194,
      "Ġê°Ĳ": 2195,
      "Ġcond": 2196,
      "Ġfac": 2197,
      "ê²ł": 2198,
      "Ġ11": 2199,
      "osp": 2200,
      "ì´": 2201,
      "Ġage": 2202,
      "Ġfour": 2203,
      "Ġprevent": 2204,
      "Ġavailable": 2205,
      ",\"": 2206,
      "ì¡±": 2207,
      "Ġwee": 2208,
      "Ġrun": 2209,
      "ë³µ": 2210,
      "ĠëĤ¨": 2211,
      "ĠUS": 2212,
      "ì¹´": 2213,
      "ë¦Ħ": 2214,
      "Ġdel": 2215,
      "íĥľ": 2216,
      "Ġcost": 2217,
      "Ġcase": 2218,
      "Ġconn": 2219,
      "Ġfree": 2220,
      "urther": 2221,
      "ì¦Ī": 2222,
      "ably": 2223,
      "´ĳ": 2224,
      "Ġhead": 2225,
      "Ġview": 2226,
      "ots": 2227,
      "ocus": 2228,
      "ãĢ": 2229,
      "ĠChrist": 2230,
      "200": 2231,
      "Ġstruct": 2232,
      "Ī¬": 2233,
      "ĠCent": 2234,
      "Ġlo": 2235,
      "stit": 2236,
      "ĠEn": 2237,
      "Ġpost": 2238,
      "We": 2239,
      "Ġcells": 2240,
      "work": 2241,
      "Ġcome": 2242,
      "ething": 2243,
      "Ġpress": 2244,
      "30": 2245,
      "Ġrece": 2246,
      "11": 2247,
      "oint": 2248,
      "Ġlocal": 2249,
      "Ġlittle": 2250,
      "ised": 2251,
      "Ġmonth": 2252,
      "Ġsuccess": 2253,
      "ìħĺ": 2254,
      "Ġlab": 2255,
      "ope": 2256,
      "urope": 2257,
      "íķĺì§Ģ": 2258,
      "Ġbro": 2259,
      "ìļ¸": 2260,
      "ì²ľ": 2261,
      "Ġ30": 2262,
      "ĢìĿ´": 2263,
      "hy": 2264,
      "Ġbir": 2265,
      "://": 2266,
      "íķ©": 2267,
      "resent": 2268,
      "Ġê³¼": 2269,
      "Ġtype": 2270,
      "Ġlist": 2271,
      "Ġlater": 2272,
      "ĠìĹŃ": 2273,
      "ression": 2274,
      "Ġput": 2275,
      "ìľ¼ë©°": 2276,
      "olution": 2277,
      "Ġlevels": 2278,
      "Ġproblem": 2279,
      "Ġcreat": 2280,
      "Ġfar": 2281,
      "ĠìķĦëĭĪ": 2282,
      "Ġlet": 2283,
      "ggest": 2284,
      "Ġë¬¼": 2285,
      "Ġflow": 2286,
      "ëĸ": 2287,
      "Ġvol": 2288,
      "Ġintern": 2289,
      "ìľ¡": 2290,
      "Ġyoung": 2291,
      "Ġhard": 2292,
      "str": 2293,
      "ĠBe": 2294,
      "ê²ĥ": 2295,
      "icult": 2296,
      "ĠTe": 2297,
      "Ġnatural": 2298,
      "Ġbi": 2299,
      "ëĦ¤": 2300,
      "ĠNational": 2301,
      "ê°Ĳ": 2302,
      "Ġassoci": 2303,
      "Ġuntil": 2304,
      "ged": 2305,
      "If": 2306,
      "Ġamount": 2307,
      "por": 2308,
      "As": 2309,
      "co": 2310,
      "ê·¼": 2311,
      "Ġì°¸": 2312,
      "Ġproblems": 2313,
      "ither": 2314,
      "ë°°": 2315,
      "ones": 2316,
      "ances": 2317,
      "âĢ¦": 2318,
      "Ġseem": 2319,
      "aper": 2320,
      "Ġcomput": 2321,
      "ĠOr": 2322,
      "Ġê²ĥìĿ´": 2323,
      "not": 2324,
      "Ġturn": 2325,
      "Ġsw": 2326,
      "ately": 2327,
      "Ġmult": 2328,
      "ì»": 2329,
      "oks": 2330,
      "ĠAll": 2331,
      "ĠAf": 2332,
      "ortun": 2333,
      "Ġíķ¨": 2334,
      "Ġsuggest": 2335,
      "ìĦ¸ìļĶ": 2336,
      "Ġmaking": 2337,
      "Ġsomething": 2338,
      "Ġgiven": 2339,
      "ì¦Ŀ": 2340,
      "ured": 2341,
      "Ġëªħ": 2342,
      "Ġshort": 2343,
      "Ġpolit": 2344,
      "hem": 2345,
      "ìĶ": 2346,
      "Ġheart": 2347,
      "ĠìĥĿê°ģ": 2348,
      "Ġcho": 2349,
      "Ġimpact": 2350,
      "ledge": 2351,
      "cle": 2352,
      "Ġbook": 2353,
      "icro": 2354,
      "uture": 2355,
      "Ġcirc": 2356,
      "ĠEurope": 2357,
      "Ġess": 2358,
      "orld": 2359,
      "Ġ14": 2360,
      "Ġdeterm": 2361,
      "Ġbehav": 2362,
      "Ġ$": 2363,
      "pr": 2364,
      "ĠëķĮë¬¸": 2365,
      "Ġë¨": 2366,
      "ym": 2367,
      "Ġíĸī": 2368,
      "ication": 2369,
      "ìĥī": 2370,
      "Ġfocus": 2371,
      "aken": 2372,
      "Ġfunction": 2373,
      "ĠOn": 2374,
      "agement": 2375,
      "Ġdue": 2376,
      "Ġcourse": 2377,
      "íĹĺ": 2378,
      "aps": 2379,
      "ides": 2380,
      "face": 2381,
      "Ġlikely": 2382,
      "ohn": 2383,
      "atory": 2384,
      "Ġsignificant": 2385,
      "Ġalways": 2386,
      "Ġvir": 2387,
      "ì¢ħ": 2388,
      "Ġalong": 2389,
      "ours": 2390,
      "anc": 2391,
      "ler": 2392,
      "Ġinvest": 2393,
      "ĠMed": 2394,
      "Ġë¦": 2395,
      "sp": 2396,
      "ĠíĨµíķ´": 2397,
      "ìĹĲìĦľëĬĶ": 2398,
      "ĠíķĺëĤĺ": 2399,
      "Ġfil": 2400,
      "Ġdra": 2401,
      "Ġrad": 2402,
      "ĠëĳĲ": 2403,
      "Ġâ": 2404,
      "Ġíĺ¸íħĶ": 2405,
      "aster": 2406,
      "vious": 2407,
      "Ġdeath": 2408,
      "Ġeducation": 2409,
      "Ġcomb": 2410,
      "Ġincrease": 2411,
      "Ġusually": 2412,
      "app": 2413,
      "Ġdays": 2414,
      "Ġappear": 2415,
      "Ġsing": 2416,
      "Ġclear": 2417,
      "St": 2418,
      "Ġwords": 2419,
      "ned": 2420,
      "ĠWhat": 2421,
      "ried": 2422,
      "Ġë³Ģ": 2423,
      "Ġpopulation": 2424,
      "Ġsystems": 2425,
      "ember": 2426,
      "Ġgr": 2427,
      "ecially": 2428,
      "Ġteac": 2429,
      "Ġëį°": 2430,
      "ãģ": 2431,
      "ending": 2432,
      "Ġgive": 2433,
      "ëĵ¤ìĿĦ": 2434,
      "Ġer": 2435,
      "ĠíķĺëĬĶ": 2436,
      "Ġlanguage": 2437,
      "Ġcentury": 2438,
      "Ġbrain": 2439,
      "min": 2440,
      "ëıĦë¡Ŀ": 2441,
      "ìĿ´íĬ¸": 2442,
      "Ġrele": 2443,
      "Ġê±´": 2444,
      "Ġcreate": 2445,
      "ì¹¨": 2446,
      "etic": 2447,
      "Ġtoday": 2448,
      "Ġcancer": 2449,
      "Ġtemper": 2450,
      "mit": 2451,
      "Ġconditions": 2452,
      "Ġresults": 2453,
      "Ġobs": 2454,
      "Ġmillion": 2455,
      "ĠíĶ¼": 2456,
      "ĠíĿ": 2457,
      "ë³Ħ": 2458,
      "Ġcommunity": 2459,
      "Ġexperience": 2460,
      "Ġê°ĻìĿĢ": 2461,
      "Ġexist": 2462,
      "Ġdifficult": 2463,
      "Ġpast": 2464,
      "Ġspace": 2465,
      "ĠíķĻ": 2466,
      "obal": 2467,
      "asing": 2468,
      "ëĭ¤ê³ł": 2469,
      "Ġspecific": 2470,
      "ape": 2471,
      "ĠBl": 2472,
      "Ġmov": 2473,
      "ptoms": 2474,
      "Ġdescrib": 2475,
      "Ġhy": 2476,
      "Ġabove": 2477,
      "ĠSo": 2478,
      "There": 2479,
      "Ġsimilar": 2480,
      "Ġwhy": 2481,
      "ored": 2482,
      "Ġneeds": 2483,
      "Ġnext": 2484,
      "íĮĲ": 2485,
      "af": 2486,
      "iation": 2487,
      "Ġenc": 2488,
      "Ġì§ģ": 2489,
      "Ġauthor": 2490,
      "ively": 2491,
      "Ġtechnology": 2492,
      "by": 2493,
      "Ġestab": 2494,
      "Ġconsum": 2495,
      "ĺìĿ´ì§Ģ": 2496,
      "Ġrecord": 2497,
      "Ġë¡": 2498,
      "idd": 2499,
      "ruction": 2500,
      "15": 2501,
      "especially": 2502,
      "ĠíķŃê³µ": 2503,
      "Ġparent": 2504,
      "Ġline": 2505,
      "ìĻ¸": 2506,
      "Ġ198": 2507,
      "Ġmot": 2508,
      "Ġgre": 2509,
      "ĠìĹĲ": 2510,
      "ëª©": 2511,
      "ators": 2512,
      "Ġê¸Ī": 2513,
      "selves": 2514,
      "Ġdam": 2515,
      "ribut": 2516,
      "Ġcharacter": 2517,
      "most": 2518,
      "How": 2519,
      "Ġchanges": 2520,
      "ĠíķľêµŃ": 2521,
      "Ġìļ´": 2522,
      "Ġbegin": 2523,
      "Ġëª©": 2524,
      "atch": 2525,
      "Ġey": 2526,
      "Ġapplic": 2527,
      "over": 2528,
      "Ġill": 2529,
      "ìĺĪ": 2530,
      "aining": 2531,
      "Ġfuture": 2532,
      "Ġdiscuss": 2533,
      "Ġkind": 2534,
      "nal": 2535,
      "ĠBrit": 2536,
      "ĠEar": 2537,
      "Ġhigher": 2538,
      "Ġê°Ħ": 2539,
      "ĠìĥĪ": 2540,
      "Ġnecess": 2541,
      "Ġacross": 2542,
      "Ġcrit": 2543,
      "Ġprop": 2544,
      "Ġleast": 2545,
      "Ġspecial": 2546,
      "Ġstrong": 2547,
      "Ġìĸ´ëĸ": 2548,
      "Ġask": 2549,
      "Ġnever": 2550,
      "NA": 2551,
      "orts": 2552,
      "ì½Ķ": 2553,
      "Ġvarious": 2554,
      "ateg": 2555,
      "ique": 2556,
      "ë¨": 2557,
      "Ġtry": 2558,
      "ĠíĹ": 2559,
      "Ġbusiness": 2560,
      "ode": 2561,
      "ĠAfric": 2562,
      "ox": 2563,
      "ĠëĶ°ëĿ¼": 2564,
      "ëł¹": 2565,
      "Ġside": 2566,
      "Ġrespons": 2567,
      "Ġnet": 2568,
      "ane": 2569,
      "Ġtoget": 2570,
      "Ġtogether": 2571,
      "Ġ13": 2572,
      "ëħ¸": 2573,
      "ilities": 2574,
      "ì±ħ": 2575,
      "Ġhowever": 2576,
      "Ġcomplete": 2577,
      "ê°ķ": 2578,
      "oman": 2579,
      "Ġë¦¬": 2580,
      "for": 2581,
      "ĠGerm": 2582,
      "Ġcountries": 2583,
      "íĸ¥": 2584,
      "ìĨ¡": 2585,
      "Ġleft": 2586,
      "omes": 2587,
      "rug": 2588,
      "oney": 2589,
      "ray": 2590,
      "let": 2591,
      "ĠìĹ´": 2592,
      "Ġterm": 2593,
      "Ġaway": 2594,
      "ê±°ëĤĺ": 2595,
      "ĠíĶĦë¡ľ": 2596,
      "Ġcy": 2597,
      "duct": 2598,
      "Ġprofess": 2599,
      "Ġworking": 2600,
      "Ġenough": 2601,
      "Ġìĺ¬": 2602,
      "Ġë³¸": 2603,
      "Ġcolle": 2604,
      "Ġresearc": 2605,
      "Ġtru": 2606,
      "thing": 2607,
      "oot": 2608,
      "Ġë¬¸ìłľ": 2609,
      "ĠëĺĲëĬĶ": 2610,
      "aim": 2611,
      "aces": 2612,
      "Ġëĵľ": 2613,
      "Ġëĭ¤ë¥¸": 2614,
      "org": 2615,
      "ëĲĺëĬĶ": 2616,
      "acy": 2617,
      "Ġtool": 2618,
      "Ġkey": 2619,
      "alf": 2620,
      "Ġespecially": 2621,
      "íĻĺ": 2622,
      "Ġhaving": 2623,
      "ires": 2624,
      "aves": 2625,
      "ument": 2626,
      "Ġworks": 2627,
      "Ġteam": 2628,
      "Ġimprove": 2629,
      "ìĬ¤íĬ¸": 2630,
      "íĥĿ": 2631,
      "Ġrequire": 2632,
      "ilt": 2633,
      "ĠLe": 2634,
      "ĠJohn": 2635,
      "Ġchem": 2636,
      "ER": 2637,
      "amm": 2638,
      "ysis": 2639,
      "ued": 2640,
      "Ġz": 2641,
      "ìł¸": 2642,
      "Ġsens": 2643,
      "Ġfull": 2644,
      "):": 2645,
      "Ġplants": 2646,
      "ung": 2647,
      "Ġëª»": 2648,
      "Ġrelations": 2649,
      "Ġíıī": 2650,
      "Ġê²Ģ": 2651,
      "lement": 2652,
      "Ġnorm": 2653,
      "Ġprim": 2654,
      "sw": 2655,
      "ae": 2656,
      "Ġë©Ķ": 2657,
      "ĠëĤ´ìļ©": 2658,
      "aching": 2659,
      "16": 2660,
      "ìĿ´ëĤĺ": 2661,
      "Ġways": 2662,
      "Ġeffects": 2663,
      "17": 2664,
      "Ġaccount": 2665,
      "ëĭ¬": 2666,
      "lo": 2667,
      "Ġcr": 2668,
      "Ġcases": 2669,
      "ĠEnglish": 2670,
      "Ġgeneral": 2671,
      "Ġ/": 2672,
      "Ġtypes": 2673,
      "itor": 2674,
      "Ġstudies": 2675,
      "aring": 2676,
      "istic": 2677,
      "Ġbecame": 2678,
      "aut": 2679,
      "Ġíķľëĭ¤": 2680,
      "ipp": 2681,
      "ĠGo": 2682,
      "Ġstep": 2683,
      "ales": 2684,
      "±¸": 2685,
      "ush": 2686,
      "Ġëĭ¬": 2687,
      "ĠìĤ´": 2688,
      "ĠWar": 2689,
      "apt": 2690,
      "iting": 2691,
      "urity": 2692,
      "Ġconsider": 2693,
      "ĠìĻ¸": 2694,
      "side": 2695,
      "íķ´ìĦľ": 2696,
      "íĿ": 2697,
      "Ġsubject": 2698,
      "Ġreason": 2699,
      "Ġrepresent": 2700,
      "Ġhouse": 2701,
      "ency": 2702,
      "Ġprotect": 2703,
      "ìĭľê°Ħ": 2704,
      "ĠíķĦìļĶ": 2705,
      "Ġself": 2706,
      "Ġfund": 2707,
      "Ġgoing": 2708,
      "An": 2709,
      "ĠíĻľ": 2710,
      "ëĵ±": 2711,
      "Ġmakes": 2712,
      "Ġ100": 2713,
      "Ġsymptoms": 2714,
      "Ġ|": 2715,
      "ott": 2716,
      "Ġmind": 2717,
      "iol": 2718,
      "erence": 2719,
      "Ġì²´": 2720,
      "êµ°": 2721,
      "ĠWorld": 2722,
      "ification": 2723,
      "Ġknowledge": 2724,
      "ready": 2725,
      "Ġpolic": 2726,
      "Ġwhether": 2727,
      "ĠIntern": 2728,
      "Ġphysical": 2729,
      "ĠSome": 2730,
      "Ġfurther": 2731,
      "right": 2732,
      "Ġsum": 2733,
      "ley": 2734,
      "Ġlower": 2735,
      "chie": 2736,
      "ë¸Į": 2737,
      "ĠìĭĿ": 2738,
      "ìłĪ": 2739,
      "ìŀĪ": 2740,
      "Ġground": 2741,
      "14": 2742,
      "ges": 2743,
      "Ġconcer": 2744,
      "For": 2745,
      "ĠOne": 2746,
      "mber": 2747,
      "Ġëł": 2748,
      "Ġrole": 2749,
      "Ġcity": 2750,
      "ĠMar": 2751,
      "Ġinflu": 2752,
      "unt": 2753,
      "Ġìŀĺ": 2754,
      "edi": 2755,
      "ery": 2756,
      "ĠìĿĮ": 2757,
      "ann": 2758,
      "ird": 2759,
      "ĠëĿ": 2760,
      "Ġens": 2761,
      "Ġchall": 2762,
      "Ġquestion": 2763,
      "Ġsure": 2764,
      "Ġstat": 2765,
      "Ġemploy": 2766,
      "Ġgroups": 2767,
      "atures": 2768,
      "Ġbig": 2769,
      "ttp": 2770,
      "Ġvalue": 2771,
      "Ġëª¨ëĵł": 2772,
      "·¨": 2773,
      "Ġeff": 2774,
      "Ġopt": 2775,
      "ibility": 2776,
      "Ġnut": 2777,
      "ëĥ": 2778,
      "ĠWith": 2779,
      "ĠAm": 2780,
      "Ġê³łê°Ŀ": 2781,
      "ëŁ¼": 2782,
      "Ġstory": 2783,
      "ê¸°ë¥¼": 2784,
      "ĠGen": 2785,
      ".)": 2786,
      "ëŁī": 2787,
      "ĠX": 2788,
      "Ġscience": 2789,
      "Ġclose": 2790,
      "ĠThat": 2791,
      "urch": 2792,
      "Ġlive": 2793,
      "amin": 2794,
      "augh": 2795,
      "Ġíķ¨ê»ĺ": 2796,
      "Ġë¸": 2797,
      "Ġpatients": 2798,
      "ë§Ĳ": 2799,
      "ites": 2800,
      "cul": 2801,
      "Ġflu": 2802,
      "Ġdig": 2803,
      "Ġpred": 2804,
      "ìĺĢëĭ¤": 2805,
      "Ġloss": 2806,
      "sych": 2807,
      "ream": 2808,
      "ĠëĲľ": 2809,
      "etimes": 2810,
      "ables": 2811,
      "rel": 2812,
      "ĠCar": 2813,
      "Ġì°¾": 2814,
      "Ġseen": 2815,
      "Ġrather": 2816,
      "13": 2817,
      "Ġparticip": 2818,
      "yn": 2819,
      "Ġbelow": 2820,
      "Ġproducts": 2821,
      "put": 2822,
      "Ġactivity": 2823,
      "Ġtoward": 2824,
      "ëłĩ": 2825,
      "Ġindic": 2826,
      "Ġalready": 2827,
      "¼íĦ°": 2828,
      "Ġneg": 2829,
      "Ġword": 2830,
      "ĠíĻĺ": 2831,
      "Ġpotential": 2832,
      "ands": 2833,
      "Ġur": 2834,
      "Ġìĭľê°Ħ": 2835,
      "Ġprob": 2836,
      "Ġì´Ī": 2837,
      "Ġwr": 2838,
      "Ġtext": 2839,
      "íļ": 2840,
      "Ġoffic": 2841,
      "Ġdiet": 2842,
      "Ġ197": 2843,
      "Ġíĳľ": 2844,
      "Ġmodel": 2845,
      "Ġ=": 2846,
      "Ġsun": 2847,
      "Ġreally": 2848,
      "ĠCal": 2849,
      "Ġrange": 2850,
      "Ġactivities": 2851,
      "rams": 2852,
      "Łģ": 2853,
      "verage": 2854,
      "bon": 2855,
      "Ġë§Įëĵ¤": 2856,
      "ĠíĻĶ": 2857,
      "Ġì¢ħ": 2858,
      "Ġlot": 2859,
      "Ġsite": 2860,
      "Ġê²ĥìĿ´ëĭ¤": 2861,
      "Ġreturn": 2862,
      "Ġevidence": 2863,
      "Ġdone": 2864,
      "Ġëģ": 2865,
      "Ġ50": 2866,
      "oura": 2867,
      "Ġìĭľìŀĳ": 2868,
      "eb": 2869,
      "Ġdeg": 2870,
      "Ġeither": 2871,
      "ĠBy": 2872,
      "Ġgrowth": 2873,
      "Ġwind": 2874,
      "ample": 2875,
      "Ġarticle": 2876,
      "ĠHealth": 2877,
      "uation": 2878,
      "earch": 2879,
      "Ġtradition": 2880,
      "Ġrecogn": 2881,
      "iple": 2882,
      "Ġsingle": 2883,
      "ival": 2884,
      "Ġresources": 2885,
      "ëĿ¼ê³ł": 2886,
      "Ġrate": 2887,
      "Ġphot": 2888,
      "Ġproduction": 2889,
      "osis": 2890,
      "Ġê°ģ": 2891,
      "ule": 2892,
      "Ġdeveloped": 2893,
      "Ġaccording": 2894,
      "overed": 2895,
      "iam": 2896,
      "ĠDr": 2897,
      "Ġcollect": 2898,
      "Ġbat": 2899,
      "Ġquality": 2900,
      "ows": 2901,
      "ĠIm": 2902,
      "ĠìłĲ": 2903,
      "Ġfall": 2904,
      "Ġ...": 2905,
      "Ġì¹´": 2906,
      "Ġfive": 2907,
      "ĠGe": 2908,
      "esc": 2909,
      "Ġonce": 2910,
      "Ġevent": 2911,
      "Ġmass": 2912,
      "val": 2913,
      "Ġnational": 2914,
      "ĠTr": 2915,
      "Ġbuilding": 2916,
      "ublic": 2917,
      "Ġachie": 2918,
      "íħĮ": 2919,
      "Ġmedical": 2920,
      "Ġindust": 2921,
      "ivil": 2922,
      "¤Ħ": 2923,
      "Ġ25": 2924,
      "ips": 2925,
      "When": 2926,
      "fact": 2927,
      "ì§ĢëĬĶ": 2928,
      "ëģ": 2929,
      "Ġoil": 2930,
      "Ġdoct": 2931,
      "ches": 2932,
      "ìŁģ": 2933,
      "Ġmembers": 2934,
      "idered": 2935,
      "Ġissues": 2936,
      "Ġwhole": 2937,
      "ĠNorth": 2938,
      "ë©Ķ": 2939,
      "ĠSoc": 2940,
      "roll": 2941,
      "Ġupon": 2942,
      "ìķł": 2943,
      "rict": 2944,
      "Ġrelig": 2945,
      "ĠShe": 2946,
      "±Ħ": 2947,
      "į¼": 2948,
      "ask": 2949,
      "Ġmeet": 2950,
      "Ġthemselves": 2951,
      "leep": 2952,
      "ëĿ¼ëĬĶ": 2953,
      "ournal": 2954,
      "SA": 2955,
      "Ġtaken": 2956,
      "fer": 2957,
      "Ġ24": 2958,
      "Ġclimate": 2959,
      "Ġinit": 2960,
      "Ġsource": 2961,
      "Ġsent": 2962,
      "ĠìķĦìĿ´": 2963,
      "ëĿ½": 2964,
      "Ġdetail": 2965,
      "Ġëĵ¤ìĸ´": 2966,
      "Ġliving": 2967,
      "Ġresearchers": 2968,
      "Ġred": 2969,
      "eter": 2970,
      "Ġaddress": 2971,
      "íİĺìĿ´ì§Ģ": 2972,
      "ĠëĶĶ": 2973,
      "ront": 2974,
      "Ġreduce": 2975,
      "Ġdom": 2976,
      "Ġnature": 2977,
      "Ġsurface": 2978,
      "ison": 2979,
      "Ġê°Ģìŀ¥": 2980,
      "Ġwhite": 2981,
      "sh": 2982,
      "Ġpaper": 2983,
      "Ġë¡ľ": 2984,
      "ĠMay": 2985,
      "Ġdest": 2986,
      "Ġfrequ": 2987,
      "ĠSy": 2988,
      "Ġann": 2989,
      "ĠStud": 2990,
      "Ġabs": 2991,
      "Ġfield": 2992,
      "ety": 2993,
      "Ġhold": 2994,
      "Ch": 2995,
      "Ġcame": 2996,
      "ĠAmerica": 2997,
      "ĠAust": 2998,
      "Ġê¹Ģ": 2999,
      "Ġquestions": 3000,
      "Ġrights": 3001,
      "Ġcannot": 3002,
      "Ġpolitical": 3003,
      "ĠAb": 3004,
      "Ġfri": 3005,
      "Ġconsidered": 3006,
      "Ġcreated": 3007,
      "rect": 3008,
      "go": 3009,
      "Ġconcept": 3010,
      "Ġtot": 3011,
      "íĻľ": 3012,
      "Ġíģ¬": 3013,
      "ì£": 3014,
      "ĠMan": 3015,
      "Ġì²ĺ": 3016,
      "ĠYork": 3017,
      "Ġdrug": 3018,
      "ë¹": 3019,
      "Ġì§ĳ": 3020,
      "Ġìķ½": 3021,
      "ĠëłĪ": 3022,
      "Ġthought": 3023,
      "Ġskills": 3024,
      "ì¶Ķ": 3025,
      "fficient": 3026,
      "ĠSouth": 3027,
      "ĠëĿ¼": 3028,
      "Ġcut": 3029,
      "Ġwide": 3030,
      "enn": 3031,
      "ëĦĪ": 3032,
      "reme": 3033,
      "ĠìľĦíķľ": 3034,
      "ī´": 3035,
      "ĠìĤ°": 3036,
      "Ġpressure": 3037,
      "ĠRep": 3038,
      "like": 3039,
      "Ġobserv": 3040,
      "ëĤł": 3041,
      "Ġrecomm": 3042,
      "Ġtell": 3043,
      "Ġlay": 3044,
      "Ġitself": 3045,
      "illed": 3046,
      "Ġíķ©ëĭĪëĭ¤": 3047,
      "reg": 3048,
      "ĠìŀĪìĸ´": 3049,
      "Ġë§İìĿĢ": 3050,
      "Ġintrodu": 3051,
      "ications": 3052,
      "Ġstates": 3053,
      "apan": 3054,
      "Ġver": 3055,
      "Ġsound": 3056,
      "utions": 3057,
      "ibr": 3058,
      "Ġanimals": 3059,
      "Ġincreased": 3060,
      "Ġassociated": 3061,
      "Ġsize": 3062,
      "Ġdoc": 3063,
      "Ġweek": 3064,
      "Ġfail": 3065,
      "ĠAss": 3066,
      "ights": 3067,
      "Ġactually": 3068,
      "Ġskin": 3069,
      "ma": 3070,
      "Ġrepl": 3071,
      "60": 3072,
      "Ġpay": 3073,
      "ĠìĨį": 3074,
      "Ġadult": 3075,
      "ober": 3076,
      "Ġsimple": 3077,
      "Ġsoil": 3078,
      "Ġhistor": 3079,
      "isc": 3080,
      "Ġblack": 3081,
      "íķĺë©°": 3082,
      "Ġìĸ¸": 3083,
      "ĠPr": 3084,
      "Ġsal": 3085,
      "Ġpractice": 3086,
      "oon": 3087,
      "ë§Ŀ": 3088,
      "ìĹĲëıĦ": 3089,
      "Ġfamil": 3090,
      "epend": 3091,
      "Ġfat": 3092,
      "Ġopportun": 3093,
      "Ġmarket": 3094,
      "ë¦¼": 3095,
      "Ġrelationship": 3096,
      "Ġunderstanding": 3097,
      "ivity": 3098,
      "Ġrequired": 3099,
      "ëĤ¨": 3100,
      "ai": 3101,
      "Ġstress": 3102,
      "olic": 3103,
      "\".": 3104,
      "Ġë¯¸êµŃ": 3105,
      "Ġeconomic": 3106,
      "ĠAct": 3107,
      "25": 3108,
      "Ġentire": 3109,
      "Ġalmost": 3110,
      "íĻ©": 3111,
      "ĠëĺĲíķľ": 3112,
      "Ġidea": 3113,
      "Ġmaint": 3114,
      "Ġì±ħ": 3115,
      "Ġglobal": 3116,
      "ĠìĤ¬íļĮ": 3117,
      "Ġcomplex": 3118,
      "ĠìĹ¬íĸī": 3119,
      "sequ": 3120,
      "To": 3121,
      "Ġpublished": 3122,
      "Ġê·¸ë¦¬ê³ł": 3123,
      "ES": 3124,
      "Ġarg": 3125,
      "Ġquick": 3126,
      "íķĺë©´": 3127,
      "rad": 3128,
      "lying": 3129,
      "acc": 3130,
      "Ġrelated": 3131,
      "Ġcondition": 3132,
      "Ġmor": 3133,
      "Ġeffective": 3134,
      "ened": 3135,
      "artment": 3136,
      "ĠEarth": 3137,
      "Ġmodern": 3138,
      "itud": 3139,
      "Ģë¡ľ": 3140,
      "ging": 3141,
      "ìłķë³´": 3142,
      "Ġneeded": 3143,
      "Ġability": 3144,
      "Al": 3145,
      "ney": 3146,
      "pro": 3147,
      "ĠíĴ": 3148,
      "Ġprovides": 3149,
      "Ġê²ĥìĿĦ": 3150,
      "ë³Ģ": 3151,
      "Ġë²Ī": 3152,
      "aced": 3153,
      "Ġspe": 3154,
      "acks": 3155,
      "Ġstudent": 3156,
      "Ġê°ľìĿ¸": 3157,
      "aged": 3158,
      "Ġê²ĥìĿĢ": 3159,
      "ìŀĳê¶Į": 3160,
      "itary": 3161,
      "oph": 3162,
      "Ġfish": 3163,
      "hing": 3164,
      "ump": 3165,
      "Ġengine": 3166,
      "hib": 3167,
      "Ġmaterials": 3168,
      "Ġtook": 3169,
      "ĠìĺĪìķ½": 3170,
      "Ġpurp": 3171,
      "ĠëĨĴ": 3172,
      "ĠDep": 3173,
      "ĠGu": 3174,
      "Ġport": 3175,
      "Ġexerc": 3176,
      "Ġhealthy": 3177,
      "Ġhalf": 3178,
      "Ġcomes": 3179,
      "Ġsuper": 3180,
      "Ġpriv": 3181,
      "ëĭ´": 3182,
      "inter": 3183,
      "22": 3184,
      "ë¦¬ëĬĶ": 3185,
      "erve": 3186,
      "ores": 3187,
      "Ġmanagement": 3188,
      "ening": 3189,
      "opy": 3190,
      "aging": 3191,
      "bo": 3192,
      "rown": 3193,
      "Ġparts": 3194,
      "ê²¬": 3195,
      "oll": 3196,
      "ì°©": 3197,
      "Ġclaim": 3198,
      "Ġexperien": 3199,
      "Ġavoid": 3200,
      "ID": 3201,
      "Ġweight": 3202,
      "www": 3203,
      "Ġarch": 3204,
      "ĠìŀĲìĭł": 3205,
      "utes": 3206,
      "ìĿ´ëĿ¼ê³ł": 3207,
      "gest": 3208,
      "Ġmoney": 3209,
      "Ġíħ": 3210,
      "ìĤ": 3211,
      "Ġìĭ¬": 3212,
      "vere": 3213,
      "Ġpath": 3214,
      "Ġvers": 3215,
      "Ġcat": 3216,
      "ĠHist": 3217,
      "Ġhours": 3218,
      "ply": 3219,
      "Ġprote": 3220,
      "ript": 3221,
      "Ġreact": 3222,
      "my": 3223,
      "Ġnecessary": 3224,
      "Ġlink": 3225,
      "cient": 3226,
      "40": 3227,
      "oses": 3228,
      "Wh": 3229,
      "chan": 3230,
      "ĠCo": 3231,
      "Ġìĸĳ": 3232,
      "Ġbegan": 3233,
      "Ġever": 3234,
      "Ġsuff": 3235,
      "Ġmonths": 3236,
      "Ġansw": 3237,
      "íĶĮ": 3238,
      "usion": 3239,
      "eds": 3240,
      "urs": 3241,
      "ĠState": 3242,
      "Ġarr": 3243,
      "Ġdog": 3244,
      "ĠìĹħ": 3245,
      "Ġparents": 3246,
      "Ġcomputer": 3247,
      "Ġfire": 3248,
      "irm": 3249,
      "ĠJapan": 3250,
      "Ġconduct": 3251,
      "mb": 3252,
      "Ġsepar": 3253,
      "Ġcoll": 3254,
      "Ġsense": 3255,
      "You": 3256,
      "Ġê·¸ëŁ¬": 3257,
      "het": 3258,
      "ĠCont": 3259,
      "Ġassess": 3260,
      "Ġyet": 3261,
      "ĠìĻĦ": 3262,
      "Ġgreen": 3263,
      "Ġapproach": 3264,
      "ìĺ¨": 3265,
      "ĠHis": 3266,
      "son": 3267,
      "gar": 3268,
      "ume": 3269,
      "ĠComp": 3270,
      "Ġheat": 3271,
      "ê¸¸": 3272,
      "Ġservices": 3273,
      "ese": 3274,
      "izing": 3275,
      "ëĲł": 3276,
      "Ġê´Ģëł¨": 3277,
      "----": 3278,
      "Ġstop": 3279,
      "ëĦ·": 3280,
      "yl": 3281,
      "Ġë²Ħ": 3282,
      "Ġë§ŀ": 3283,
      "íķĺëĭ¤": 3284,
      "Ġrul": 3285,
      "Ġsoft": 3286,
      "ensive": 3287,
      "based": 3288,
      "Ġë°ķ": 3289,
      "Ġfactors": 3290,
      "Ġregion": 3291,
      "Ġliter": 3292,
      "Ġproduce": 3293,
      "ĠDo": 3294,
      "ze": 3295,
      "Ġmeasure": 3296,
      "empt": 3297,
      "abit": 3298,
      "Ġíŀ": 3299,
      "ĠìłľíĴĪ": 3300,
      "Ġpopular": 3301,
      "iddle": 3302,
      "Ã©": 3303,
      "nces": 3304,
      "Ġtar": 3305,
      "ences": 3306,
      "Ġbar": 3307,
      "uel": 3308,
      "Ġìĺ¨": 3309,
      "Ġanalysis": 3310,
      "ì£¼ìĿĺ": 3311,
      "ĠíĮĲ": 3312,
      "Ġge": 3313,
      "Ġreading": 3314,
      "ë¶ģ": 3315,
      "Ġgas": 3316,
      "Ġchemical": 3317,
      "abor": 3318,
      "Ġjob": 3319,
      "uck": 3320,
      "AR": 3321,
      "ĠNe": 3322,
      "Ġpersonal": 3323,
      "Ġthroughout": 3324,
      "ë¶Ī": 3325,
      "ections": 3326,
      "AT": 3327,
      "iction": 3328,
      "estern": 3329,
      "rated": 3330,
      "ìłĳ": 3331,
      "Ġonline": 3332,
      "Ġemer": 3333,
      "Ġprinc": 3334,
      "ĠíĻķìĿ¸": 3335,
      "Ġê·¼": 3336,
      "Ġtaking": 3337,
      "ĠBritish": 3338,
      "ë´": 3339,
      "ĠëĪĦ": 3340,
      "IN": 3341,
      "hold": 3342,
      "Ġla": 3343,
      "ľ´": 3344,
      "Ġcolor": 3345,
      "Ġincreasing": 3346,
      "Ġregard": 3347,
      "Ġpattern": 3348,
      "icles": 3349,
      "ederal": 3350,
      "Ġëĭ¤ìĿĮ": 3351,
      "ê¸Ģ": 3352,
      "ĠëķĮë¬¸ìĹĲ": 3353,
      "ising": 3354,
      "ê´ĳ": 3355,
      "Ġut": 3356,
      "Ġtherap": 3357,
      "ì¸ł": 3358,
      "íħľ": 3359,
      "Ġë²ķ": 3360,
      "ëĮĢë¡ľ": 3361,
      "ì´Ī": 3362,
      "Ġlonger": 3363,
      "ĠìĨĲ": 3364,
      "erous": 3365,
      "ëĲ©ëĭĪëĭ¤": 3366,
      "igure": 3367,
      "ìĸ¸": 3368,
      "ĠíĥĢ": 3369,
      "Ġrecent": 3370,
      "ĠAfter": 3371,
      "ĠíĬ¸": 3372,
      "Ġëĭ¤ìĸĳ": 3373,
      "ĠìĦ¸ê³Ħ": 3374,
      "Ġaction": 3375,
      "ĠCanad": 3376,
      "ĠPe": 3377,
      "Ġinteract": 3378,
      "ë¦¬ë¥¼": 3379,
      "Ġtalk": 3380,
      "Ġbehavior": 3381,
      "Ġfarm": 3382,
      "Ġstructure": 3383,
      "Ġê²ĥìľ¼ë¡ľ": 3384,
      "Ġprevious": 3385,
      "ĠII": 3386,
      "Ġposition": 3387,
      "Ġcontent": 3388,
      "ë³´ëĭ¤": 3389,
      "Ġshows": 3390,
      "abet": 3391,
      "Ġë³µ": 3392,
      "Ġindividuals": 3393,
      "____": 3394,
      "emic": 3395,
      "Ġfeed": 3396,
      "ccording": 3397,
      "Ļë°ķ": 3398,
      "ulations": 3399,
      "įëĭĪëĭ¤": 3400,
      "Ġservice": 3401,
      "Ġsociety": 3402,
      "rate": 3403,
      "Ġthing": 3404,
      "Ġëıħ": 3405,
      "Ġsurv": 3406,
      "Ġwriting": 3407,
      "Ġmatter": 3408,
      "Ġdisord": 3409,
      "Ġsix": 3410,
      "onse": 3411,
      "pid": 3412,
      "Ġprovided": 3413,
      "yle": 3414,
      "Ġcheck": 3415,
      "ene": 3416,
      "minist": 3417,
      "Ġtemperature": 3418,
      "Ġtotal": 3419,
      "Ġbuilt": 3420,
      "Ġindustry": 3421,
      "Ġ,": 3422,
      "Ġmusic": 3423,
      "Ġconc": 3424,
      "Ġenvironmental": 3425,
      "Ġbur": 3426,
      "ĠìĿ´ìĥģ": 3427,
      "ster": 3428,
      "Ġheav": 3429,
      "Ġì¦Ŀ": 3430,
      "Ġsex": 3431,
      "ë¡ľìļ´": 3432,
      "Ġterms": 3433,
      "aily": 3434,
      "ĠInstit": 3435,
      "Ġsleep": 3436,
      "ìĦľëĬĶ": 3437,
      "ĠìłĢìŀĳê¶Į": 3438,
      "Ġviol": 3439,
      "Ġbring": 3440,
      "Ġìķŀ": 3441,
      "ëłĪìĿ´": 3442,
      "ĠìĹ¬ëŁ¬": 3443,
      "ĠSu": 3444,
      "Ġê°Ģì§Ģ": 3445,
      "Ġdeb": 3446,
      "21": 3447,
      "Ġetc": 3448,
      "Ġì½Ķ": 3449,
      "wh": 3450,
      "ister": 3451,
      "Ġmeaning": 3452,
      "Ġcompany": 3453,
      "istance": 3454,
      "lt": 3455,
      "mon": 3456,
      "Ġì»¤": 3457,
      "Ġtraining": 3458,
      "íķ´ìķ¼": 3459,
      "Ġì§ĢìĽĲ": 3460,
      "Ġbreak": 3461,
      "ĠResearch": 3462,
      "reng": 3463,
      "Ġinj": 3464,
      "Ġrev": 3465,
      "Ġmedia": 3466,
      "Ġëĸ": 3467,
      "ns": 3468,
      "lex": 3469,
      "ĠëĬĲ": 3470,
      "inary": 3471,
      "Ġê³³": 3472,
      "vey": 3473,
      "Ġcaused": 3474,
      "ĠSec": 3475,
      "23": 3476,
      "ìķħ": 3477,
      "Ġë°©ë²ķ": 3478,
      "anced": 3479,
      "Ġcontact": 3480,
      "Ġíļ": 3481,
      "Ġdesigned": 3482,
      "lor": 3483,
      "astic": 3484,
      "Ġtrue": 3485,
      "Ġlove": 3486,
      "ched": 3487,
      "ucle": 3488,
      "Ġ40": 3489,
      "ĠNo": 3490,
      "ĠEm": 3491,
      "ĠëıĮ": 3492,
      "fully": 3493,
      "light": 3494,
      "Ġce": 3495,
      "Ġì¹ĺ": 3496,
      "Ġshown": 3497,
      "ĠíĪ¬": 3498,
      "Ġìĵ": 3499,
      "Ġexperim": 3500,
      "Ġsat": 3501,
      "Ġaccept": 3502,
      "Ġsafe": 3503,
      "ricult": 3504,
      "Ġíĺķ": 3505,
      "Ġìķł": 3506,
      "Ġvari": 3507,
      "aff": 3508,
      "ìŀĲê°Ģ": 3509,
      "Ġearth": 3510,
      "ĠJew": 3511,
      "lands": 3512,
      "Ġlives": 3513,
      "ê¸°ìĹĲ": 3514,
      "Ġeasy": 3515,
      "aries": 3516,
      "Ġ2012": 3517,
      "ĠWhile": 3518,
      "new": 3519,
      "ronic": 3520,
      "íĦ°ëĦ·": 3521,
      "Ġbenefits": 3522,
      "hood": 3523,
      "ĠSchool": 3524,
      "dom": 3525,
      "Ġpositive": 3526,
      "Ķëĭ¤": 3527,
      "Ġmethods": 3528,
      "Ġtravel": 3529,
      "Ġdiagn": 3530,
      "Ġoriginal": 3531,
      "ëıħ": 3532,
      "Ġincludes": 3533,
      "Ġê±¸": 3534,
      "ª½": 3535,
      "Ġprograms": 3536,
      "Ġthreat": 3537,
      "Ġclean": 3538,
      "Ġcontain": 3539,
      "IS": 3540,
      "24": 3541,
      "rought": 3542,
      "ëŀ¨": 3543,
      "istics": 3544,
      "Ġschools": 3545,
      "ì¶ķ": 3546,
      "Ġëª¨ëĳĲ": 3547,
      "atives": 3548,
      "ìĦ±ìĿĦ": 3549,
      "Ġexc": 3550,
      "Ġslow": 3551,
      "Ġculture": 3552,
      "Ġvide": 3553,
      "Ġsometimes": 3554,
      "ON": 3555,
      "duc": 3556,
      "Ġlif": 3557,
      "Ġcauses": 3558,
      "uge": 3559,
      "OR": 3560,
      "amed": 3561,
      "Ġ2010": 3562,
      "asc": 3563,
      "itation": 3564,
      "ropri": 3565,
      "Ġsimply": 3566,
      "ington": 3567,
      "Ġple": 3568,
      "Ġmovement": 3569,
      "aving": 3570,
      "Ġled": 3571,
      "ĠÂ": 3572,
      "ëĨ": 3573,
      "íĮħ": 3574,
      "Ġregular": 3575,
      "Ġrelative": 3576,
      "Ġstandard": 3577,
      "umb": 3578,
      "rim": 3579,
      "Ġvariety": 3580,
      "Ġgreater": 3581,
      "ners": 3582,
      "ì¡´": 3583,
      "ĠPar": 3584,
      "ìĭŃ": 3585,
      "osition": 3586,
      "Ġmach": 3587,
      "imately": 3588,
      "ades": 3589,
      "Ġì¹¨": 3590,
      "ban": 3591,
      "Ġë³Ħ": 3592,
      "Ġspread": 3593,
      "icine": 3594,
      "ĠPer": 3595,
      "Ġtarget": 3596,
      "rench": 3597,
      "Ġmicro": 3598,
      "ìĹĪìĬµëĭĪëĭ¤": 3599,
      "ĠPres": 3600,
      "Ġaverage": 3601,
      "Ġë¯¼": 3602,
      "ĠëĮĢíķ´": 3603,
      "Ġíķĺê³ł": 3604,
      "Ġeat": 3605,
      "Ġì²Ń": 3606,
      "Ġ<": 3607,
      "ĠKing": 3608,
      "Ġpage": 3609,
      "ëŁ½": 3610,
      "Ġhttp": 3611,
      "Ġfru": 3612,
      "Ġì§ĢìĹŃ": 3613,
      "Ġì¡": 3614,
      "Ġste": 3615,
      "Ġbelieve": 3616,
      "Ġsubst": 3617,
      "rior": 3618,
      "Ġissue": 3619,
      "Ġ21": 3620,
      "Ġdeep": 3621,
      "Ġuses": 3622,
      "Ġì¶Ķê°Ģ": 3623,
      "Ġprec": 3624,
      "But": 3625,
      "Ġemb": 3626,
      "Ġë¶ģ": 3627,
      "Ġscientists": 3628,
      "Ġpoll": 3629,
      "Ġfem": 3630,
      "Ġinvolved": 3631,
      "Ġwild": 3632,
      "Ġcompan": 3633,
      "Ġwritten": 3634,
      "Ġreported": 3635,
      "aling": 3636,
      "Ġê¸°ìĪł": 3637,
      "ĠAustral": 3638,
      "eration": 3639,
      "rand": 3640,
      "aches": 3641,
      "rast": 3642,
      "ì³": 3643,
      "Ġnormal": 3644,
      "Ġmechan": 3645,
      "Ġorigin": 3646,
      "Ġcarbon": 3647,
      "Ġbr": 3648,
      "cil": 3649,
      "ĠMin": 3650,
      "Ġì°½": 3651,
      "ius": 3652,
      "¨ìĸ´": 3653,
      "Ġforce": 3654,
      "Ġrespect": 3655,
      "arily": 3656,
      "Ġcamp": 3657,
      "Ġevents": 3658,
      "ìĤ¬ë¥¼": 3659,
      "Ġcompl": 3660,
      "Ġpict": 3661,
      "Ġíģ´": 3662,
      "Ġdoing": 3663,
      "Ġpsych": 3664,
      "ëŀľ": 3665,
      "íį¼": 3666,
      "ufact": 3667,
      "íĸĪìĬµëĭĪëĭ¤": 3668,
      "ĠIndia": 3669,
      "Ġforms": 3670,
      "ervation": 3671,
      "Ġbacter": 3672,
      "Ġhelps": 3673,
      "Ġfoods": 3674,
      "rie": 3675,
      "ender": 3676,
      "Ġencoura": 3677,
      "Ġdamage": 3678,
      "Ġê°Ŀ": 3679,
      "Ġlog": 3680,
      "Ġdemon": 3681,
      "ials": 3682,
      "Ġshare": 3683,
      "Ġstreng": 3684,
      "Ġrefer": 3685,
      "Ġreview": 3686,
      "know": 3687,
      "Ġidentify": 3688,
      "ĠChina": 3689,
      "Ġoutside": 3690,
      "íıī": 3691,
      "Ġnetwork": 3692,
      "Ġdeveloping": 3693,
      "bor": 3694,
      "ĠApp": 3695,
      "Ġi": 3696,
      "Ġimage": 3697,
      "Ġparticularly": 3698,
      "Ġì´Ŀ": 3699,
      "ì½": 3700,
      "ìĦ¼íĦ°": 3701,
      "Ġ2011": 3702,
      "AN": 3703,
      "ief": 3704,
      "Ġì¤Ģ": 3705,
      "Ġface": 3706,
      "Ġbasic": 3707,
      "Ġíİ¸ìĿĺ": 3708,
      "ìĸµ": 3709,
      "Ġsources": 3710,
      "ë°±": 3711,
      "íķĺìĭľ": 3712,
      "ĠìľĦì¹ĺ": 3713,
      "Ġlate": 3714,
      "Ġìĭ¶": 3715,
      "ìķĺëĭ¤": 3716,
      "Ġìº": 3717,
      "verse": 3718,
      "ê·¸ëŀ¨": 3719,
      "Ġattempt": 3720,
      "lies": 3721,
      "Ġ196": 3722,
      "imum": 3723,
      "Ġlack": 3724,
      "ĠíĸĪ": 3725,
      "Ġcust": 3726,
      "Ġensure": 3727,
      "ìŀĲìĿĺ": 3728,
      "ãħĭ": 3729,
      "oly": 3730,
      "ops": 3731,
      "ëħĢ": 3732,
      "Ġremov": 3733,
      "ana": 3734,
      "ached": 3735,
      "osure": 3736,
      "Ġ--": 3737,
      "íİĺ": 3738,
      "Ġwood": 3739,
      "ì¡Į": 3740,
      "ĠAug": 3741,
      "ĠEd": 3742,
      "80": 3743,
      "íĪ¬": 3744,
      "ì§Ģë¥¼": 3745,
      "ĠCenter": 3746,
      "ë³ĳ": 3747,
      "ĠWill": 3748,
      "Ġimplement": 3749,
      "ĠScience": 3750,
      "ĠQu": 3751,
      "Ġserious": 3752,
      "ĠJes": 3753,
      "ëĪ": 3754,
      "Ġresponse": 3755,
      "ength": 3756,
      "ĊĊ": 3757,
      "Ġsqu": 3758,
      "Ġharm": 3759,
      "oor": 3760,
      "ĠHar": 3761,
      "Ġgenerally": 3762,
      "Ġvit": 3763,
      "Ġattention": 3764,
      "erg": 3765,
      "Ġëĭ¤ìĸĳíķľ": 3766,
      "Ġtax": 3767,
      "íļį": 3768,
      "Ġgrowing": 3769,
      "amb": 3770,
      "Ġextreme": 3771,
      "ises": 3772,
      "Ġcompon": 3773,
      "ctions": 3774,
      "Ġideas": 3775,
      "âĢ¢": 3776,
      "ĠMe": 3777,
      "Ġproduced": 3778,
      "Ġpoor": 3779,
      "raft": 3780,
      "Ġap": 3781,
      "ìĬ¤íħľ": 3782,
      "rip": 3783,
      "Ġsafety": 3784,
      "Ġmess": 3785,
      "Ġcompet": 3786,
      "irit": 3787,
      "set": 3788,
      "isions": 3789,
      "ĠJan": 3790,
      "ê²¨": 3791,
      "ĠAg": 3792,
      "ĠìĦ¤ëªħ": 3793,
      "ribution": 3794,
      "ĠëĤł": 3795,
      "Ġinteg": 3796,
      "uth": 3797,
      "Ġteachers": 3798,
      "erson": 3799,
      "Ġsust": 3800,
      "Ġìī": 3801,
      "ê¸°ëıĦ": 3802,
      "elling": 3803,
      "Ġconsist": 3804,
      "Ġbal": 3805,
      "Ġdraw": 3806,
      "Ġast": 3807,
      "na": 3808,
      "Ġì·¨": 3809,
      "Ġattack": 3810,
      "Ġvisit": 3811,
      "Ġsou": 3812,
      "oles": 3813,
      "ĠJu": 3814,
      "ìĬ¹": 3815,
      "ĠInt": 3816,
      "Ġleaders": 3817,
      "ĠPart": 3818,
      "Ġinternational": 3819,
      "IC": 3820,
      "Ġforest": 3821,
      "Ġaff": 3822,
      "ĠCount": 3823,
      "Ġseries": 3824,
      "ror": 3825,
      "Ġselect": 3826,
      "Ġemot": 3827,
      "Ġprobably": 3828,
      "Ġelectric": 3829,
      "ë¸Ķ": 3830,
      "On": 3831,
      "Ġgetting": 3832,
      "ino": 3833,
      "ĠìłķëıĦ": 3834,
      "Ġlat": 3835,
      "Ġox": 3836,
      "Ġcit": 3837,
      "Ġsea": 3838,
      "ĠíļĮìĽĲ": 3839,
      "ëĬĺ": 3840,
      "Ġchalleng": 3841,
      "Ġfeet": 3842,
      "ha": 3843,
      "Ġago": 3844,
      "ming": 3845,
      "uary": 3846,
      "Ġvirus": 3847,
      "ëĿ¼ìĿ´": 3848,
      "Ġcontinue": 3849,
      "Ġprep": 3850,
      "Ġanimal": 3851,
      "ĠìķĬëĬĶ": 3852,
      "Ġdefin": 3853,
      "ided": 3854,
      "Ġcoun": 3855,
      "Ġsecurity": 3856,
      "ground": 3857,
      "ecause": 3858,
      "Ġë¨¹": 3859,
      "osing": 3860,
      "Ġcross": 3861,
      "Ġmother": 3862,
      "Ġnight": 3863,
      "Ġnumbers": 3864,
      "Ġir": 3865,
      "Ġwebs": 3866,
      "fect": 3867,
      "Ġpolicy": 3868,
      "ems": 3869,
      "ls": 3870,
      "useum": 3871,
      "ĠëĦ¤": 3872,
      "Ġíı¬íķ¨": 3873,
      "Ġdispl": 3874,
      "vention": 3875,
      "Ġexpress": 3876,
      "Ġë°Ķë¡ľ": 3877,
      "Ġveget": 3878,
      "where": 3879,
      "ĠBo": 3880,
      "Ġcommit": 3881,
      "haps": 3882,
      "Ġcorrect": 3883,
      "ĠìłĪ": 3884,
      "Ġì§ĢëĤľ": 3885,
      "Ġfa": 3886,
      "Ġlooking": 3887,
      "Ġdou": 3888,
      "ĠPre": 3889,
      "Ġê´ĳ": 3890,
      "Ġì¦Ĳ": 3891,
      "Ġpatient": 3892,
      "Ġkids": 3893,
      "abetes": 3894,
      "inks": 3895,
      "Ġdoesn": 3896,
      "ĠìļĶê¸Ī": 3897,
      "Ġindepend": 3898,
      "ĠAc": 3899,
      "room": 3900,
      "cies": 3901,
      "ĠìķĦëĭĪëĿ¼": 3902,
      "Ġessential": 3903,
      "ë¨¸": 3904,
      "Ġdaily": 3905,
      "Ġ2013": 3906,
      "Ġinstead": 3907,
      "ancial": 3908,
      "Ġincluded": 3909,
      "Ġìłĳ": 3910,
      "Ġaware": 3911,
      "Ġconcent": 3912,
      "Ġtakes": 3913,
      "Ġtherefore": 3914,
      "ĠìĹĨëĬĶ": 3915,
      "Ġthus": 3916,
      "Ġ194": 3917,
      "ĠëĴ": 3918,
      "Ġ>": 3919,
      "cell": 3920,
      "Ġwall": 3921,
      "ìĿ´ëĿ¼ëĬĶ": 3922,
      "itude": 3923,
      "ëŀįëĭĪëĭ¤": 3924,
      "ties": 3925,
      "iforn": 3926,
      "ë²ł": 3927,
      "hel": 3928,
      "Ġ2009": 3929,
      "ĠMany": 3930,
      "Ġê°ĸ": 3931,
      "ëĲľëĭ¤": 3932,
      "ëķĮ": 3933,
      "Ġestim": 3934,
      "oes": 3935,
      "ĠMore": 3936,
      "Ġíģ°": 3937,
      "ĠìĹ°êµ¬": 3938,
      "ĠRuss": 3939,
      "....": 3940,
      "issions": 3941,
      "íķĺìĭ¤": 3942,
      "Ġì¶©": 3943,
      "Ġsomeone": 3944,
      "ëłĩê²Į": 3945,
      "ension": 3946,
      "rs": 3947,
      "Ġestablished": 3948,
      "Ġê²Įìĭľ": 3949,
      "!!": 3950,
      "Ġhyd": 3951,
      "Ġquite": 3952,
      "ìµľ": 3953,
      "Ġwarm": 3954,
      "Ġpoints": 3955,
      "ìĽĢ": 3956,
      "ĠëĦĪ": 3957,
      "Ġëĭ¤ìĭľ": 3958,
      "199": 3959,
      "ĠEduc": 3960,
      "Ġadded": 3961,
      "iot": 3962,
      "Ġbirth": 3963,
      "Ġdifference": 3964,
      "Ġmanufact": 3965,
      "ĠíķŃê³µíİ¸": 3966,
      "ĠCons": 3967,
      "ĠInstitute": 3968,
      "Ġcivil": 3969,
      "Ġë§İìĿ´": 3970,
      "ëĵ¤ìĹĲê²Į": 3971,
      "Ġcover": 3972,
      "Ġbab": 3973,
      "ĠEl": 3974,
      "ì²ĺëŁ¼": 3975,
      "Ġeasily": 3976,
      "íĿ¬": 3977,
      "ony": 3978,
      "Ġprimary": 3979,
      "Ġinstit": 3980,
      "Ġmilitary": 3981,
      "Ġdang": 3982,
      "Ġprint": 3983,
      "Ġbooks": 3984,
      "ìĿ´ê³ł": 3985,
      "Ġthird": 3986,
      "Ġtheory": 3987,
      "ìľ¼ë©´": 3988,
      "Ġful": 3989,
      "Ġtown": 3990,
      "asons": 3991,
      "Ġtree": 3992,
      "Ġmagn": 3993,
      "Ġcompared": 3994,
      "ext": 3995,
      "ift": 3996,
      "Ġì±Ħ": 3997,
      "ìĹĨ": 3998,
      "rew": 3999,
      "26": 4000,
      "ille": 4001,
      "ads": 4002,
      "Ġdetermine": 4003,
      "ëħĲ": 4004,
      "Ġsolar": 4005,
      "ĠFrench": 4006,
      "Ġthous": 4007,
      "Ġheld": 4008,
      "ëĬĲ": 4009,
      "Ġ23": 4010,
      "ography": 4011,
      "Ġtraditional": 4012,
      "ìª½": 4013,
      "ìľ¨": 4014,
      "Ġstarted": 4015,
      "ĠëĲł": 4016,
      "Ġinvestig": 4017,
      "Ġë°ľìĥĿ": 4018,
      "Ġspeed": 4019,
      "ceed": 4020,
      "Ġdiv": 4021,
      "Ġê¶Į": 4022,
      "ifornia": 4023,
      "ĠGerman": 4024,
      "Ġallows": 4025,
      "ĠEuropean": 4026,
      "Ġcapt": 4027,
      "Ġtur": 4028,
      "Ġë³¼": 4029,
      "ĠíħĮ": 4030,
      "ìĶ¨": 4031,
      "Ġbit": 4032,
      "Ġfav": 4033,
      "Ġëĭ´": 4034,
      "Ġfront": 4035,
      "Ġê·ľ": 4036,
      "Ġcompanies": 4037,
      "Ġìļ´ìĺģ": 4038,
      "name": 4039,
      "Ġec": 4040,
      "ĠIndian": 4041,
      "Ġeth": 4042,
      "Ġappropri": 4043,
      "Ġdoctor": 4044,
      "orks": 4045,
      "Ġmultiple": 4046,
      "Ġcommunities": 4047,
      "Ġoffer": 4048,
      "29": 4049,
      "Ġscientific": 4050,
      "Ġsil": 4051,
      "Ġinside": 4052,
      "Ġperformance": 4053,
      "ĠìŀĪìĿĦ": 4054,
      "Ġprogress": 4055,
      "Ġê°Ŀìĭ¤": 4056,
      "Ġunique": 4057,
      "Ġfamilies": 4058,
      "Ġquickly": 4059,
      "Ġx": 4060,
      "Ġdocument": 4061,
      "27": 4062,
      "Ġimmedi": 4063,
      "Ġê¸°ëĬ¥": 4064,
      "Ġdirectly": 4065,
      "Ġtools": 4066,
      "Ġseems": 4067,
      "Ġvacc": 4068,
      "Ġdiseases": 4069,
      "ĠíĶĮ": 4070,
      "Ġaud": 4071,
      "Ġinfection": 4072,
      "Ġíļ¨": 4073,
      "Ġlarger": 4074,
      "Ġaltern": 4075,
      "Ġreflect": 4076,
      "den": 4077,
      "ying": 4078,
      "Ġeval": 4079,
      "ĠìĦłíĥĿ": 4080,
      "ĠDepartment": 4081,
      "Ġreve": 4082,
      "Ġê²Ģìĥī": 4083,
      "ĠGl": 4084,
      "ĠêµĲìľ¡": 4085,
      "Ġhumans": 4086,
      "elt": 4087,
      "Ġachieve": 4088,
      "ë¯": 4089,
      "ĠìŀĪìľ¼ë©°": 4090,
      "Ġë²ł": 4091,
      "rig": 4092,
      "Ġì¤ĳìļĶ": 4093,
      "Ġ2008": 4094,
      "AS": 4095,
      "ellow": 4096,
      "ĠìĪĻë°ķ": 4097,
      "edia": 4098,
      "Ġdecre": 4099,
      "ĠCO": 4100,
      "Ġnegative": 4101,
      "ĠMost": 4102,
      "EN": 4103,
      "ĠYour": 4104,
      "ĠFran": 4105,
      "undred": 4106,
      "hern": 4107,
      "iency": 4108,
      "lied": 4109,
      "Ġspeak": 4110,
      "ounds": 4111,
      "Ġalthough": 4112,
      "olar": 4113,
      "Ġsold": 4114,
      "Ġíĥľ": 4115,
      "Ġnation": 4116,
      "Ġrout": 4117,
      "Ġactive": 4118,
      "Ġadditional": 4119,
      "Ġê´Ģê³Ħ": 4120,
      "ì§¸": 4121,
      "Ġìłķë¶Ģ": 4122,
      "ED": 4123,
      "thern": 4124,
      "Ġacid": 4125,
      "Ġíķ´ëĭ¹": 4126,
      "rition": 4127,
      "Ġmental": 4128,
      "ĠCom": 4129,
      "ĠCor": 4130,
      "ĠInternational": 4131,
      "Ġdemonstr": 4132,
      "Ġbehind": 4133,
      "ĠìŀĦ": 4134,
      "Ġhot": 4135,
      "uries": 4136,
      "ê¸°ê°Ģ": 4137,
      "joy": 4138,
      "ĠëĪĪ": 4139,
      "Ġnucle": 4140,
      "ridge": 4141,
      "ĠìĤ¬íķŃ": 4142,
      "ĠìŀĲë£Į": 4143,
      "ĠMarch": 4144,
      "uman": 4145,
      "Ġaspect": 4146,
      "Is": 4147,
      "Ġhighly": 4148,
      "ìĿ´íĦ°": 4149,
      "Ġsevere": 4150,
      "He": 4151,
      "Ġtend": 4152,
      "pril": 4153,
      "ëĲĺê³ł": 4154,
      "ĠOct": 4155,
      "Ġtrees": 4156,
      "Ġë°Ŀ": 4157,
      "Ġwalk": 4158,
      "Ġgard": 4159,
      "ĠJune": 4160,
      "ĠìĤ¬ì§Ħ": 4161,
      "One": 4162,
      "IT": 4163,
      "ancy": 4164,
      "gency": 4165,
      "âĸ": 4166,
      "Ġfoot": 4167,
      "Ġtiss": 4168,
      "rance": 4169,
      "ë§ī": 4170,
      "ìĿ´ëĬĶ": 4171,
      "Ġextra": 4172,
      "ìĪľ": 4173,
      "Ġì¤ĳêµŃ": 4174,
      "Ġwent": 4175,
      "yond": 4176,
      "Ġhost": 4177,
      "aly": 4178,
      "ìŀĲëĬĶ": 4179,
      "ĠArt": 4180,
      "Ġbase": 4181,
      "ĠCalifornia": 4182,
      "icated": 4183,
      "Ġì§Ī": 4184,
      "leb": 4185,
      "formation": 4186,
      "Ġexercise": 4187,
      "inese": 4188,
      "ì£ł": 4189,
      "Ġelements": 4190,
      "28": 4191,
      "Ġë°ĶëŀįëĭĪëĭ¤": 4192,
      "Ġ60": 4193,
      "ë¦¬ìĹĲ": 4194,
      "ê·¹": 4195,
      "Ġhor": 4196,
      "ĠChristian": 4197,
      "ĠChar": 4198,
      "ĠRec": 4199,
      "Ġì¤Ħ": 4200,
      "Ġdrink": 4201,
      "Ġbeginning": 4202,
      "So": 4203,
      "Ġhar": 4204,
      "Ġdry": 4205,
      "Ġhabit": 4206,
      "mar": 4207,
      "Ġì¹ľ": 4208,
      "Ġinterp": 4209,
      "Ġsoon": 4210,
      "ĠìķĦëĭ": 4211,
      "Ġthinking": 4212,
      "Ġimpl": 4213,
      "nov": 4214,
      "Ġeye": 4215,
      "Ġanswer": 4216,
      "ìłķìĿĦ": 4217,
      "Ġsus": 4218,
      "Ġwhose": 4219,
      "ĠAfrican": 4220,
      "ĠWest": 4221,
      "Ġcentral": 4222,
      "į¨": 4223,
      "ims": 4224,
      "omet": 4225,
      "ĠRet": 4226,
      "AC": 4227,
      "ëł¥ìĿĦ": 4228,
      "iter": 4229,
      "Ġë´": 4230,
      "Ġgame": 4231,
      "Ġcritical": 4232,
      "iques": 4233,
      "ulate": 4234,
      "Ġclin": 4235,
      "term": 4236,
      "Ġì§Ħíĸī": 4237,
      "Ġë¸Į": 4238,
      "Ġlabor": 4239,
      "Ġprior": 4240,
      "ĠMus": 4241,
      "Ġleading": 4242,
      "orthern": 4243,
      "Ġ+": 4244,
      "lation": 4245,
      "anks": 4246,
      "Ġtowards": 4247,
      "Ġanaly": 4248,
      "Ġmount": 4249,
      "iber": 4250,
      "Ġsupply": 4251,
      "Ġìĸ´ëĸ¤": 4252,
      "Ġvideo": 4253,
      "ĠJesus": 4254,
      "ĠBar": 4255,
      "uk": 4256,
      "Ġstay": 4257,
      "ching": 4258,
      "Ġbad": 4259,
      "ĠTV": 4260,
      "Ġbroad": 4261,
      "ĠìĪľ": 4262,
      "Ġpurpose": 4263,
      "cean": 4264,
      "iers": 4265,
      "oming": 4266,
      "Ġlost": 4267,
      "Ġdecl": 4268,
      "ĠOther": 4269,
      "Ġminutes": 4270,
      "ĠSm": 4271,
      "Ġìķ¼": 4272,
      "Ġê·¸ëŁ°": 4273,
      "Ġelse": 4274,
      "Ġprotection": 4275,
      "¿Ĳ": 4276,
      "Ġexpect": 4277,
      "ë¦½ëĭĪëĭ¤": 4278,
      "ĠTra": 4279,
      "Ġtransport": 4280,
      "lier": 4281,
      "Ġcapital": 4282,
      "Ġì¢ĭìĿĢ": 4283,
      "overy": 4284,
      "ils": 4285,
      "ĠìĿ´ë¯¸": 4286,
      "âĢĿ.": 4287,
      "Ġcard": 4288,
      "Ġê°ľë°ľ": 4289,
      "Ġ2007": 4290,
      "IV": 4291,
      "Ġfram": 4292,
      "Ġnorth": 4293,
      "Ġcustom": 4294,
      "ĠNot": 4295,
      "Ġ2016": 4296,
      "rogen": 4297,
      "ĠSept": 4298,
      "ĠìĿ¸íĦ°ëĦ·": 4299,
      "Ġuseful": 4300,
      "ĠMon": 4301,
      "ĠíĶĦë¡ľê·¸ëŀ¨": 4302,
      "vant": 4303,
      "Ġprotein": 4304,
      "Ġlimited": 4305,
      "Ġancient": 4306,
      "Ġteaching": 4307,
      "ĠAugust": 4308,
      "Ġfight": 4309,
      "Ġvalues": 4310,
      "ĠHer": 4311,
      "Ġstrateg": 4312,
      "su": 4313,
      "hest": 4314,
      "Ġíķĺì§Ģë§Į": 4315,
      "ilos": 4316,
      "ĠSch": 4317,
      "Ġcred": 4318,
      "oring": 4319,
      "ashington": 4320,
      "ĠHistory": 4321,
      "At": 4322,
      "Ġì½": 4323,
      "Ġsection": 4324,
      "Ġproced": 4325,
      "ì°°": 4326,
      "ë¡Ģ": 4327,
      "coh": 4328,
      "ĠGree": 4329,
      "ìĸ´ìļĶ": 4330,
      "ì³Ĳ": 4331,
      "Ġíĸ¥": 4332,
      "ĠOf": 4333,
      "come": 4334,
      "Ġobt": 4335,
      "Ġjo": 4336,
      "Ġreceived": 4337,
      "ĠAfrica": 4338,
      "Ġdecision": 4339,
      "Ġfast": 4340,
      "Ġmom": 4341,
      "ields": 4342,
      "Ġsituation": 4343,
      "Ġfeatures": 4344,
      "ĠDav": 4345,
      "iles": 4346,
      "And": 4347,
      "mission": 4348,
      "Ġcontains": 4349,
      "Ġpack": 4350,
      "lection": 4351,
      "ĠKe": 4352,
      "ĠìĥĪë¡ľìļ´": 4353,
      "ĠServ": 4354,
      "ĠìŀĪëıĦë¡Ŀ": 4355,
      "isms": 4356,
      "Ġcontribut": 4357,
      "att": 4358,
      "ĠìĿ¼ë³¸": 4359,
      "pe": 4360,
      "Ġdark": 4361,
      "Ġlargest": 4362,
      "istry": 4363,
      "Ġnews": 4364,
      "Ġprivate": 4365,
      "ĠAlthough": 4366,
      "Ġhundred": 4367,
      "ĠDis": 4368,
      "arian": 4369,
      "Ġ2015": 4370,
      "Ġadults": 4371,
      "ĠJuly": 4372,
      "Ġìĸ¼": 4373,
      "ica": 4374,
      "ription": 4375,
      "ologies": 4376,
      "ĠChild": 4377,
      "Ġseason": 4378,
      "Ġremains": 4379,
      "Ġsoftware": 4380,
      "Ġsearch": 4381,
      "oud": 4382,
      "70": 4383,
      "Ġwrite": 4384,
      "Ġfinancial": 4385,
      "itis": 4386,
      "Ġstra": 4387,
      "Ġdescribed": 4388,
      "see": 4389,
      "Ġenjoy": 4390,
      "sect": 4391,
      "Ġones": 4392,
      "Ġreligious": 4393,
      "Ġquant": 4394,
      "bit": 4395,
      "Ġsymb": 4396,
      "ĠAnt": 4397,
      "Ġinfluence": 4398,
      "Ġjud": 4399,
      "fort": 4400,
      "Ġê¸°ìĹħ": 4401,
      "ê·ľ": 4402,
      "wise": 4403,
      "Ġestablish": 4404,
      "arr": 4405,
      "Ġbrought": 4406,
      "Ġê²ĥìŀħëĭĪëĭ¤": 4407,
      "ĠíĸĪëĭ¤": 4408,
      "ë°Ľ": 4409,
      "Ġadminist": 4410,
      "Ġgoal": 4411,
      "Ġapplication": 4412,
      "ĠPress": 4413,
      "Ġcapac": 4414,
      "Ġlocated": 4415,
      "rael": 4416,
      "Ġadop": 4417,
      "Ġworkers": 4418,
      "Ġhands": 4419,
      "Ġord": 4420,
      "hens": 4421,
      "Ġblock": 4422,
      "Ġagree": 4423,
      "Ġaccur": 4424,
      "Ġreach": 4425,
      "udd": 4426,
      "cks": 4427,
      "ĠUs": 4428,
      "rote": 4429,
      "ĠMy": 4430,
      "equ": 4431,
      "ê¸°ëĬĶ": 4432,
      "ĠíĨł": 4433,
      "ĠTw": 4434,
      "ĠìĤ¬ìĭ¤": 4435,
      "ëī´": 4436,
      "itect": 4437,
      "Ġìħ": 4438,
      "used": 4439,
      "ĠíĮĮìĿ¼": 4440,
      "ëĵĿ": 4441,
      "Ġrates": 4442,
      "eal": 4443,
      "Ġgot": 4444,
      "Ġexact": 4445,
      "Ġcool": 4446,
      "ĠIS": 4447,
      "ĠChinese": 4448,
      "Ġcarry": 4449,
      "Ġmill": 4450,
      "Ġíķ©": 4451,
      "ĠíĮ¨": 4452,
      "ĠReg": 4453,
      "íĻĶë¥¼": 4454,
      "ĠìĥģíĴĪ": 4455,
      "Ġë§Įëĵ¤ìĸ´": 4456,
      "Ġì¡´": 4457,
      "rag": 4458,
      "ĠSw": 4459,
      "Ġbeaut": 4460,
      "Ġìĵ°": 4461,
      "Ġcommand": 4462,
      "inct": 4463,
      "ìŀ¥ìĿĦ": 4464,
      "Ġbecomes": 4465,
      "gn": 4466,
      "ĠëĴ¤": 4467,
      "Ġrequires": 4468,
      "ìĤ¬ìĿĺ": 4469,
      "Ġê¸Ģ": 4470,
      "pper": 4471,
      "Ġplaces": 4472,
      "Ġdisp": 4473,
      "Ġdevice": 4474,
      "Ġweeks": 4475,
      "ì°½": 4476,
      "Ġdevices": 4477,
      "ë¦Ń": 4478,
      "Ġìļ©": 4479,
      "Ġang": 4480,
      "imin": 4481,
      "Ġnearly": 4482,
      "ĠRiver": 4483,
      "Ġsouth": 4484,
      "Ġstru": 4485,
      "ëĭµ": 4486,
      "Ġdemand": 4487,
      "Ġê·Ģ": 4488,
      "Ġshall": 4489,
      "Ġremain": 4490,
      "ĠProg": 4491,
      "Ġtests": 4492,
      "ĠFirst": 4493,
      "odies": 4494,
      "Ġ22": 4495,
      "Ġsn": 4496,
      "ĠCong": 4497,
      "atur": 4498,
      "ìĨĲ": 4499,
      "izations": 4500,
      "ê³³": 4501,
      "Ġvict": 4502,
      "Ġexcept": 4503,
      "ë¦´": 4504,
      "Ġì§Ģê¸Ī": 4505,
      "Ġforces": 4506,
      "ulated": 4507,
      "Ġëĵ±ìĿĦ": 4508,
      "ìĹĶ": 4509,
      "Ġagricult": 4510,
      "oke": 4511,
      "Ġlength": 4512,
      "35": 4513,
      "Ġsustain": 4514,
      "Ġegg": 4515,
      "ì»¤": 4516,
      "ëĦ¤ìļĶ": 4517,
      "Ġëĵ±ìĿ´": 4518,
      "ĠApril": 4519,
      "ìĤ¬ê°Ģ": 4520,
      "EC": 4521,
      "ĠEngland": 4522,
      "imal": 4523,
      "ë¦¬ìĬ¤": 4524,
      "ira": 4525,
      "íĥģ": 4526,
      "ĠHere": 4527,
      "ĠAmericans": 4528,
      "uous": 4529,
      "Ġwa": 4530,
      "Ġ2014": 4531,
      "Ġimages": 4532,
      "Ġtold": 4533,
      "vest": 4534,
      "ype": 4535,
      "Ġbasis": 4536,
      "ondon": 4537,
      "Ġborn": 4538,
      "uments": 4539,
      "entially": 4540,
      "ĠíĺĦìŀ¬": 4541,
      "Ġproperty": 4542,
      "Ġefforts": 4543,
      "ĠAssoci": 4544,
      "Ġrare": 4545,
      "Ġcitiz": 4546,
      "alled": 4547,
      "alt": 4548,
      "Ġfederal": 4549,
      "Ġ26": 4550,
      "book": 4551,
      "Ġlines": 4552,
      "ĠPresident": 4553,
      "ìĿĳ": 4554,
      "Ġ28": 4555,
      "Ġeating": 4556,
      "Ġê¸¸": 4557,
      "Ġmemory": 4558,
      "OS": 4559,
      "Ġê²°ê³¼": 4560,
      "Ġimag": 4561,
      "Ġdead": 4562,
      "resh": 4563,
      "ĠìĭľìĬ¤íħľ": 4564,
      "Ġhimself": 4565,
      "Ġmention": 4566,
      "Ġ2017": 4567,
      "Ġbacteria": 4568,
      "ĠCity": 4569,
      "**": 4570,
      "ipment": 4571,
      "Ġsolution": 4572,
      "Ġleaves": 4573,
      "'re": 4574,
      "ama": 4575,
      "ëŁ¬íķľ": 4576,
      "Ġë§ĪìĿĮ": 4577,
      "water": 4578,
      "ibrary": 4579,
      "Ġtypically": 4580,
      "íķĻêµĲ": 4581,
      "ovember": 4582,
      "cles": 4583,
      "ĠìłĦë¬¸": 4584,
      "Ġsaw": 4585,
      "Ġimportance": 4586,
      "Ġep": 4587,
      "Ġfriends": 4588,
      "Ġê²½ìłľ": 4589,
      "Ġì£": 4590,
      "Ġcou": 4591,
      "ĠëĲľëĭ¤": 4592,
      "ĠMc": 4593,
      "Ġë§Īëł¨": 4594,
      "Ġdigital": 4595,
      "ìĹ´": 4596,
      "Ġtesting": 4597,
      "ì¼Ģ": 4598,
      "ëĭĪê¹Į": 4599,
      "cial": 4600,
      "PA": 4601,
      "Ġpan": 4602,
      "Ġ2000": 4603,
      "ìĭľìķĦ": 4604,
      "sec": 4605,
      "Ġtable": 4606,
      "ìħ¨": 4607,
      "Ġtit": 4608,
      "ĠPark": 4609,
      "Ġveh": 4610,
      "Ġmonitor": 4611,
      "lin": 4612,
      "iece": 4613,
      "ãĤ": 4614,
      "iar": 4615,
      "ĠGovern": 4616,
      "Ġult": 4617,
      "ĠìĿ´ëŁ°": 4618,
      "Ġsurround": 4619,
      "Ġmiles": 4620,
      "cember": 4621,
      "ëĵ¤ê³¼": 4622,
      "Ġsummer": 4623,
      "back": 4624,
      "Ġhous": 4625,
      "Ġdied": 4626,
      "year": 4627,
      "Ġfit": 4628,
      "ĠWashington": 4629,
      "Ġfather": 4630,
      "king": 4631,
      "Ġeverything": 4632,
      "aul": 4633,
      "Ġtechniques": 4634,
      "Ġeyes": 4635,
      "¿ł": 4636,
      "âĢĺ": 4637,
      "Ġrespond": 4638,
      "íĨµëł¹": 4639,
      "Ġobjects": 4640,
      "ĠìĦ¤ì¹ĺ": 4641,
      "33": 4642,
      "Ġcenter": 4643,
      "Ġsites": 4644,
      "Ġcosts": 4645,
      "life": 4646,
      "idents": 4647,
      "Ġrapid": 4648,
      "Ġmole": 4649,
      "Ġcoast": 4650,
      "Ġgives": 4651,
      "Ġhope": 4652,
      "Ġappropriate": 4653,
      "Ġadj": 4654,
      "Ġapplications": 4655,
      "Ġwaste": 4656,
      "íĬ¹": 4657,
      "cohol": 4658,
      "ĠCanada": 4659,
      "ham": 4660,
      "Ġbul": 4661,
      "ê°ĢëĬĶ": 4662,
      "apter": 4663,
      "Ġanything": 4664,
      "Ex": 4665,
      "Ġder": 4666,
      "Ġsugar": 4667,
      "Ġnothing": 4668,
      "ford": 4669,
      "ĠEducation": 4670,
      "ixed": 4671,
      "Ġcreating": 4672,
      "AL": 4673,
      "ëĿ¼ìĿ¸": 4674,
      "ìħĶ": 4675,
      "Ġprojects": 4676,
      "ë¦¬ê°Ģ": 4677,
      "Ġprocesses": 4678,
      "ĠDay": 4679,
      "ĠëĦĺ": 4680,
      "Ġwebsite": 4681,
      "ëł¸": 4682,
      "Ġê²ĮìŀĦ": 4683,
      "Ġteacher": 4684,
      "Ġcommunication": 4685,
      ");": 4686,
      "ìŀĲìĿ¸": 4687,
      "ĠWi": 4688,
      "Ġlegal": 4689,
      "izes": 4690,
      "Ġmis": 4691,
      "ĠìĿ´íĽĦ": 4692,
      "ĠFrom": 4693,
      "med": 4694,
      "ĠëĤĺíĥĢ": 4695,
      "ĠìĿ´ìķ¼": 4696,
      "ë¯Ģë¡ľ": 4697,
      "Ġresponsible": 4698,
      "anish": 4699,
      "Ġdiabetes": 4700,
      "ocol": 4701,
      "ĠIsrael": 4702,
      "ipl": 4703,
      "estic": 4704,
      "Ġspirit": 4705,
      "ĠSystem": 4706,
      "Ġautom": 4707,
      "Ġtrade": 4708,
      "Ġcultural": 4709,
      "Ġíŀĺ": 4710,
      "Ġbeyond": 4711,
      "ĠìĤ¬ìĿ´": 4712,
      "omy": 4713,
      "Ġpen": 4714,
      "Ġadapt": 4715,
      "ìĥģìĿĦ": 4716,
      "Fi": 4717,
      "ìĤ¬ëĬĶ": 4718,
      "Ġcold": 4719,
      "aught": 4720,
      "Ġfinal": 4721,
      "Ġexamples": 4722,
      "Ġconstruction": 4723,
      "Ġfollowed": 4724,
      "ĠJournal": 4725,
      "Ġolder": 4726,
      "Ġ27": 4727,
      "Ġmid": 4728,
      "ico": 4729,
      "example": 4730,
      "Ġcontroll": 4731,
      "íĺĳ": 4732,
      "Ġíĺĳ": 4733,
      "ĠWilliam": 4734,
      "Ġcolon": 4735,
      "Ġpractices": 4736,
      "íĻķ": 4737,
      "Ġinsp": 4738,
      "By": 4739,
      "ĠJanuary": 4740,
      "Ġì¸": 4741,
      "Ġbott": 4742,
      "Ġconstit": 4743,
      "head": 4744,
      "Ġbenefit": 4745,
      "ĠFeb": 4746,
      "Ġguid": 4747,
      "ogen": 4748,
      "aur": 4749,
      "ĠSeptember": 4750,
      "ìĺ¬": 4751,
      "aid": 4752,
      "These": 4753,
      "Ġadvant": 4754,
      "Ġcode": 4755,
      "ests": 4756,
      "ĠChurch": 4757,
      "Ġking": 4758,
      "Ġdepend": 4759,
      "Ġceleb": 4760,
      "Ġíľ´": 4761,
      "Ġrecently": 4762,
      "ìĦ±ìĿ´": 4763,
      "Ġìłķë³´ë¥¼": 4764,
      "ìĤ´": 4765,
      "ĠìĿ´ë¦Ħ": 4766,
      "Ġexpected": 4767,
      "íı°": 4768,
      "Ġasked": 4769,
      "ĠPol": 4770,
      "ĠìŀĲìĦ¸": 4771,
      "ëŀµ": 4772,
      "Ġstage": 4773,
      "ì§ķ": 4774,
      "ë¦¬ìķĦ": 4775,
      "emy": 4776,
      "Ġson": 4777,
      "Ġìĭ¤ìłľ": 4778,
      "ĠTechn": 4779,
      "Ġcam": 4780,
      "Ġmiddle": 4781,
      "íķĺë©´ìĦľ": 4782,
      "Ġbreat": 4783,
      "ëĭĪìĬ¤": 4784,
      "Ġgradu": 4785,
      "Ġanti": 4786,
      "Ġconnect": 4787,
      "ĠOctober": 4788,
      "enge": 4789,
      "ĠInc": 4790,
      "ĠVal": 4791,
      "ĠìĥģíĻ©": 4792,
      "Ġeconomy": 4793,
      "ĠëĮĢíĳľ": 4794,
      "Ġreceive": 4795,
      "Ġreasons": 4796,
      "edom": 4797,
      "Ġbehavi": 4798,
      "Ġuser": 4799,
      "ĠSan": 4800,
      "Ġunc": 4801,
      "ari": 4802,
      "ĠìĿĺë¯¸": 4803,
      "Ġchoose": 4804,
      "Ġdate": 4805,
      "Ġscreen": 4806,
      "Ġcrop": 4807,
      "Ġfear": 4808,
      "Ġpredict": 4809,
      "ev": 4810,
      "Ġsmaller": 4811,
      "Ġproviding": 4812,
      "Ġund": 4813,
      "omb": 4814,
      "ĠDevelop": 4815,
      "ĠGreat": 4816,
      "rab": 4817,
      "Ġlaws": 4818,
      "Ġlocation": 4819,
      "Ġdestro": 4820,
      "ky": 4821,
      "mosp": 4822,
      "Ġtherapy": 4823,
      "off": 4824,
      "ought": 4825,
      "ê°Ģì§Ģ": 4826,
      "Ġinstru": 4827,
      "load": 4828,
      "ĠíĹĪ": 4829,
      "Ġ29": 4830,
      "Ġwinter": 4831,
      "Ġfile": 4832,
      "íĺ¸íħĶ": 4833,
      "ĠLear": 4834,
      "Ġrules": 4835,
      "ĠTrans": 4836,
      "rieved": 4837,
      "iples": 4838,
      "Ġemail": 4839,
      "Ġê²Įìĭľë¬¼": 4840,
      "íķĺìĦ¸ìļĶ": 4841,
      "illing": 4842,
      "ĠVir": 4843,
      "ãħĭãħĭ": 4844,
      "ĠArch": 4845,
      "men": 4846,
      "Ġcompletely": 4847,
      "Ġopportunity": 4848,
      "vert": 4849,
      "íģ¬ìĿ¸": 4850,
      "Ġten": 4851,
      "Ġìłķì±ħ": 4852,
      "Ġcalcul": 4853,
      "Ġwoman": 4854,
      "Ġëħ¼": 4855,
      "Ġconsequ": 4856,
      "ìŀĪëĬĶ": 4857,
      "bl": 4858,
      "Ġpet": 4859,
      "oe": 4860,
      "urg": 4861,
      "Ġwon": 4862,
      "Ġê´Ģë¦¬": 4863,
      "With": 4864,
      "II": 4865,
      "Ġsuccessful": 4866,
      "Ġë³´ê³ł": 4867,
      "Ġeffort": 4868,
      "can": 4869,
      "Ġice": 4870,
      "gypt": 4871,
      "itable": 4872,
      "Ġëª¨ìĬµ": 4873,
      "Ġsett": 4874,
      "ĠEast": 4875,
      "ìĿµ": 4876,
      "Ġtrying": 4877,
      "Ġcontinued": 4878,
      "Ġaffected": 4879,
      "ĠCommun": 4880,
      "Ĳëĭ¤": 4881,
      "tery": 4882,
      "Ġ2006": 4883,
      "ula": 4884,
      "Ġcurrently": 4885,
      "Ġfuel": 4886,
      "Ġdegree": 4887,
      "Ġrain": 4888,
      "ocks": 4889,
      "strial": 4890,
      "ellig": 4891,
      "Ġgoes": 4892,
      "ĠRed": 4893,
      "»ê²Į": 4894,
      "Ġweb": 4895,
      "time": 4896,
      "Ġleave": 4897,
      "Ġteeth": 4898,
      "Ġcru": 4899,
      "Ġstandards": 4900,
      "lamm": 4901,
      "While": 4902,
      "Ġmiss": 4903,
      "Ġusers": 4904,
      "lam": 4905,
      "ĠEven": 4906,
      "Ġneigh": 4907,
      "45": 4908,
      "ĠDNA": 4909,
      "ords": 4910,
      "Ġorganization": 4911,
      "Ġelectr": 4912,
      "Ġoccurs": 4913,
      "Ġnamed": 4914,
      "Ġapprox": 4915,
      "ĠLondon": 4916,
      "Ġyourself": 4917,
      "Ġexposure": 4918,
      "ara": 4919,
      "ĠìĤ¼": 4920,
      "ĠíĽ": 4921,
      "Ġalone": 4922,
      "Ġroom": 4923,
      "Ġequipment": 4924,
      "ĠBlack": 4925,
      "ĠLaw": 4926,
      "ĠìŀĪìľ¼": 4927,
      "Ġplanet": 4928,
      "ĠNovember": 4929,
      "ìĭľê¸°": 4930,
      "ĠOur": 4931,
      "Ġvia": 4932,
      "Ġdifferences": 4933,
      "ribute": 4934,
      "\",": 4935,
      "Ġformer": 4936,
      "Ġpoly": 4937,
      "Ġconstant": 4938,
      "Ġbeg": 4939,
      "ensity": 4940,
      "Ġswe": 4941,
      "ĠìĦľìļ¸": 4942,
      "ĠãĢ": 4943,
      "reet": 4944,
      "ding": 4945,
      "ĠBi": 4946,
      "Ġconflic": 4947,
      "ìĻĦ": 4948,
      "ĠCounty": 4949,
      "Ġmax": 4950,
      "Ġeveryone": 4951,
      "ĠRoman": 4952,
      "oday": 4953,
      "Ġearlier": 4954,
      "Ġë¹ł": 4955,
      "Ġrecommend": 4956,
      "Ġwrote": 4957,
      "Ġcollection": 4958,
      "Ġë¸Ķ": 4959,
      "36": 4960,
      "Ġshape": 4961,
      "Ġmeasures": 4962,
      "ë§ģ": 4963,
      "ĠDecember": 4964,
      "íĽ": 4965,
      "airs": 4966,
      "ĠCoun": 4967,
      "ĠëĮĢíĨµëł¹": 4968,
      "ìĭĿìĿĦ": 4969,
      "íķĺìĺĢëĭ¤": 4970,
      "Ġperfect": 4971,
      "Pro": 4972,
      "Ġ195": 4973,
      "ì²ł": 4974,
      "Ġden": 4975,
      "Ġmaintain": 4976,
      "Ġscale": 4977,
      "irection": 4978,
      "ĠMex": 4979,
      "Ġbillion": 4980,
      "Ġcourt": 4981,
      "ìĭľìĺ¤": 4982,
      "Ġgenetic": 4983,
      "Ġhyp": 4984,
      "Ġprofessional": 4985,
      "Ġoccup": 4986,
      "Ġstrength": 4987,
      "ĠSociety": 4988,
      "Ġë¶Ģë¶Ħ": 4989,
      "Ġ80": 4990,
      "Ġallowed": 4991,
      "Ġmodels": 4992,
      "ĠAccording": 4993,
      "rees": 4994,
      "Ġê·¸ëŀĺ": 4995,
      "âĢĿ,": 4996,
      "Ġrule": 4997,
      "ĠìĿ´ìľł": 4998,
      "Ġpurch": 4999,
      "mitted": 5000,
      "Ġêµ¬ìĦ±": 5001,
      "à¤": 5002,
      "ĠHigh": 5003,
      "Ġcommonly": 5004,
      "Ġmember": 5005,
      "Ġinteresting": 5006,
      "ĠíĤ": 5007,
      "90": 5008,
      "Ġëĵ±ìĿĺ": 5009,
      "ì¸µ": 5010,
      "Ġpow": 5011,
      "ĠìĹĨëĭ¤": 5012,
      "Ġbirds": 5013,
      "ĠêµŃê°Ģ": 5014,
      "ĠSim": 5015,
      "ocr": 5016,
      "Ġìłģìļ©": 5017,
      "aters": 5018,
      "Ġvisual": 5019,
      "ĠíĻľëıĻ": 5020,
      "more": 5021,
      "Ġoverall": 5022,
      "ĠìŀĪìĹĪ": 5023,
      "ingu": 5024,
      "Ġweather": 5025,
      "Ġsch": 5026,
      "Ġì²ľ": 5027,
      "Ġsam": 5028,
      "Ġpregn": 5029,
      "Ġdeal": 5030,
      "Ġdrugs": 5031,
      "Ġwond": 5032,
      "Ġteach": 5033,
      "Ġplaced": 5034,
      "ibly": 5035,
      "íģ´": 5036,
      "Ġeight": 5037,
      "icate": 5038,
      "Ġhon": 5039,
      "Ġëľ": 5040,
      "ĠìĿ´ëŁ¬íķľ": 5041,
      "ruary": 5042,
      "Ġmob": 5043,
      "ĠInst": 5044,
      "wide": 5045,
      "Ġapplied": 5046,
      "Ġrise": 5047,
      "Ġcateg": 5048,
      "Ġisn": 5049,
      "odes": 5050,
      "ĠRead": 5051,
      "Ġreduced": 5052,
      "ìĹĲìĦľëıĦ": 5053,
      "Ġdiscovered": 5054,
      "ĠìŀĪê³ł": 5055,
      "Ġë£": 5056,
      "Ġformed": 5057,
      "ET": 5058,
      "Ġexec": 5059,
      "Ġcoming": 5060,
      "Ġê·¸ê²ĥ": 5061,
      "Ġvill": 5062,
      "Ġchurch": 5063,
      "Ġì§ģìłĳ": 5064,
      "Ġtrack": 5065,
      "Ġsequ": 5066,
      "ĠëģĿ": 5067,
      "ìĿ´ë©°": 5068,
      "oration": 5069,
      "orge": 5070,
      "Ġperhaps": 5071,
      "Ġì£¼ì°¨": 5072,
      "Ġfair": 5073,
      "Ġstatus": 5074,
      "ĠìķĬìĬµëĭĪëĭ¤": 5075,
      "ë°Ģ": 5076,
      "ê¹Ģ": 5077,
      "Ġê·¸ëŁ¬ëĤĺ": 5078,
      "ĠThen": 5079,
      "Ġfruit": 5080,
      "hemat": 5081,
      "Ġvirt": 5082,
      "que": 5083,
      "ìļ±": 5084,
      "Ġgir": 5085,
      "Ġë°±": 5086,
      "Ġìī½": 5087,
      "iful": 5088,
      "Ġemp": 5089,
      "Ġsteps": 5090,
      "ìĸ´ìĦľ": 5091,
      "Ġenter": 5092,
      "che": 5093,
      "ìį¨": 5094,
      "38": 5095,
      "ìĤ¬íļĮ": 5096,
      "Ġenh": 5097,
      "ìĥĪ": 5098,
      "ëĦĲ": 5099,
      "ĠGermany": 5100,
      "DA": 5101,
      "Ġë³ĦëıĦ": 5102,
      "Ġ#": 5103,
      "ìŀĲë¥¼": 5104,
      "Ġtou": 5105,
      "Ġë§Ľ": 5106,
      "ĠHouse": 5107,
      "ĠìĿ´ë²Ī": 5108,
      "ë·": 5109,
      "ê°Ī": 5110,
      "ĠDuring": 5111,
      "Ġrob": 5112,
      "Ġdidn": 5113,
      "ĠAlso": 5114,
      "ĠRo": 5115,
      "Ġshowed": 5116,
      "Ġdisplay": 5117,
      "ë²Į": 5118,
      "Ġcommerc": 5119,
      "Ġêµ¬ë§¤": 5120,
      "ĠMod": 5121,
      "unch": 5122,
      "Un": 5123,
      "ì¹ľ": 5124,
      "Ġhistorical": 5125,
      "iable": 5126,
      "phas": 5127,
      "ĠìŀĪìĹĪëĭ¤": 5128,
      "Ġì¦ī": 5129,
      "uff": 5130,
      "ĠPat": 5131,
      "Ġgave": 5132,
      "íķĺê±°ëĤĺ": 5133,
      "Ġidentified": 5134,
      "Ġgold": 5135,
      "Some": 5136,
      "ĠFin": 5137,
      "Ġnote": 5138,
      "Ġpresence": 5139,
      "ëŀľëĵľ": 5140,
      "ìĹĩ": 5141,
      "íĮ¨": 5142,
      "Ġìĸ´ë¦°": 5143,
      "Ġê¼": 5144,
      "ĠEgypt": 5145,
      "Ġmouth": 5146,
      "ìº": 5147,
      "Ġroad": 5148,
      "itch": 5149,
      "Ġmajority": 5150,
      "ĠRetrieved": 5151,
      "Ġrich": 5152,
      "ĠUN": 5153,
      "ĠProt": 5154,
      "bre": 5155,
      "ìŀ¥ìĿĢ": 5156,
      "Ġmig": 5157,
      "Ġincreases": 5158,
      "EM": 5159,
      "Ġpowerful": 5160,
      "Ġ2005": 5161,
      "ëĿ¼ëıĦ": 5162,
      "ĠëıĻìķĪ": 5163,
      "¾¸": 5164,
      "aled": 5165,
      "ĠìĤ¬ìĹħ": 5166,
      "Ġmoving": 5167,
      "Ġcook": 5168,
      "Ġrock": 5169,
      "Ġë¶ģíķľ": 5170,
      "Ġtox": 5171,
      "Ġfully": 5172,
      "39": 5173,
      "ĠBecause": 5174,
      "ĠNow": 5175,
      "rec": 5176,
      "Ġacqu": 5177,
      "encies": 5178,
      "Ġtele": 5179,
      "craft": 5180,
      "Ġsymbol": 5181,
      "Ġremember": 5182,
      "Ġrelatively": 5183,
      "ìĭŃìĭľìĺ¤": 5184,
      "ospital": 5185,
      "Ġunit": 5186,
      "Ġantib": 5187,
      "Ġcra": 5188,
      "ĠWater": 5189,
      "AM": 5190,
      "Ġcontext": 5191,
      "Ġjoint": 5192,
      "Ġassign": 5193,
      "Ġëĳ": 5194,
      "Ad": 5195,
      "Ġê¸°ì¤Ģ": 5196,
      "Ġillness": 5197,
      "ĠìķĬê³ł": 5198,
      "Ġversion": 5199,
      "known": 5200,
      "Ġë°ľê²¬": 5201,
      "Ġsect": 5202,
      "Ġëĵ±ë¡Ŀ": 5203,
      "ĠëıĦì°©": 5204,
      "ĠìĿĢ": 5205,
      "ãĥ": 5206,
      "Ġchoice": 5207,
      "Ġelement": 5208,
      "Ġê°Ī": 5209,
      "Ġriver": 5210,
      "Ġactions": 5211,
      "íĥĦ": 5212,
      "ĠíĻĺê²½": 5213,
      "íķĺìĺĢ": 5214,
      "Ġcry": 5215,
      "ament": 5216,
      "Ġpiece": 5217,
      "aint": 5218,
      "ternal": 5219,
      "ìķ¡": 5220,
      "Ġbaby": 5221,
      "ste": 5222,
      "Ġacad": 5223,
      "ĠìķĮëł¤": 5224,
      "ìĦľë¹ĦìĬ¤": 5225,
      "Ġstrugg": 5226,
      "UR": 5227,
      "Ġarchitect": 5228,
      "aste": 5229,
      "ĠìĹ¬ìĦ±": 5230,
      "Ġatmosp": 5231,
      "Ġstri": 5232,
      "Ġbreast": 5233,
      "rupt": 5234,
      "Ġappears": 5235,
      "78": 5236,
      "osy": 5237,
      "enty": 5238,
      "Ġcompar": 5239,
      "Ġì¼": 5240,
      "ĠFl": 5241,
      "ees": 5242,
      "ìĬ¤íģ¬": 5243,
      "Ġphilos": 5244,
      "Ġlimit": 5245,
      "Ġmission": 5246,
      "Ġworked": 5247,
      "PS": 5248,
      "ĠGeneral": 5249,
      "ĠPhil": 5250,
      "ĠëĦĪë¬´": 5251,
      "resp": 5252,
      "34": 5253,
      "Ġtransfer": 5254,
      "Ġpromot": 5255,
      "Ġmoment": 5256,
      "Ġproperties": 5257,
      "related": 5258,
      "ĠJust": 5259,
      "Ġê°ĢëĬ¥íķľ": 5260,
      "Ġmachine": 5261,
      "Ġpeace": 5262,
      "Ġball": 5263,
      "ìŀ¥ìĿ´": 5264,
      "ken": 5265,
      "Ġillust": 5266,
      "force": 5267,
      "ĠCongress": 5268,
      "Ġexpand": 5269,
      "ogle": 5270,
      "Ġattract": 5271,
      "Ġsitu": 5272,
      "ĠUse": 5273,
      "inated": 5274,
      "ë²Ķ": 5275,
      "ĠTur": 5276,
      "Ġsigns": 5277,
      "Ġê¸°ìŀĲ": 5278,
      "Ġimmune": 5279,
      "ĠAustralia": 5280,
      "Ġwid": 5281,
      "ĠìĬ¹": 5282,
      "Ġêµ°": 5283,
      "Ġnutri": 5284,
      "Ġanx": 5285,
      "aign": 5286,
      "do": 5287,
      "Ġworth": 5288,
      "ĠPeople": 5289,
      "Ġcop": 5290,
      "Ġforward": 5291,
      "Ġcapacity": 5292,
      "Ġrunning": 5293,
      "orage": 5294,
      "êµĲìľ¡": 5295,
      "cont": 5296,
      "Ġnames": 5297,
      "Ġrat": 5298,
      "Ġasse": 5299,
      "Ġê°Ģê²©": 5300,
      "Ġpatterns": 5301,
      "Ġvitamin": 5302,
      "Ġoffers": 5303,
      "Ġìŀ¡": 5304,
      "ëĲĺì§Ģ": 5305,
      "US": 5306,
      "iences": 5307,
      "Ġfresh": 5308,
      "ĠAre": 5309,
      "ĠCour": 5310,
      "ĠUnion": 5311,
      "Ġexisting": 5312,
      "ĠSince": 5313,
      "ĠìĽ¹": 5314,
      "Ġconstruct": 5315,
      "Ġë¶ĦìĦĿ": 5316,
      "urance": 5317,
      "ĠìĪĺëıĦ": 5318,
      "Ġvo": 5319,
      "rief": 5320,
      "Ġgiving": 5321,
      "Ġcities": 5322,
      "Ġbelief": 5323,
      "Ġstories": 5324,
      "Ġsurvey": 5325,
      "Ġefficient": 5326,
      "cious": 5327,
      "ĠAssociation": 5328,
      "Ġalcohol": 5329,
      "ĠìĺģíĻĶ": 5330,
      "Ġchanged": 5331,
      "Ġìĸ´ëĸ»ê²Į": 5332,
      "Ġassist": 5333,
      "Ġfunctions": 5334,
      "Ġcopy": 5335,
      "íİ¸ì§ĳ": 5336,
      "íĺ¼": 5337,
      "ĠSocial": 5338,
      "Ġdirection": 5339,
      "ê¸´": 5340,
      "íĶĦíĬ¸": 5341,
      "31": 5342,
      "Ġconvers": 5343,
      "All": 5344,
      "house": 5345,
      "ĠInternet": 5346,
      "iate": 5347,
      "Ġê°Ģì¡±": 5348,
      "ĠConf": 5349,
      "Ġequal": 5350,
      "37": 5351,
      "ĠSer": 5352,
      "Ġgrass": 5353,
      "Ġfemale": 5354,
      "Ġing": 5355,
      "ëĥĲ": 5356,
      "pris": 5357,
      "Ġ70": 5358,
      "ero": 5359,
      "iny": 5360,
      "ĠSur": 5361,
      "Ġinsect": 5362,
      "Ġforeign": 5363,
      "omas": 5364,
      "uls": 5365,
      "Ġopportunities": 5366,
      "ĵ¨": 5367,
      "ĠìŀĲëıĻ": 5368,
      "ĠìĿ¸ê°Ħ": 5369,
      "asion": 5370,
      "part": 5371,
      "ìĬ¤ëĬĶ": 5372,
      "gery": 5373,
      "íĨ": 5374,
      "Ġdat": 5375,
      "ession": 5376,
      "ĠêµŃìłľ": 5377,
      "ëıĦë¥¼": 5378,
      "Ġ90": 5379,
      "Ġrepe": 5380,
      "ĠWind": 5381,
      "Ġdetails": 5382,
      "ĠCouncil": 5383,
      "lim": 5384,
      "ëĤĺëĬĶ": 5385,
      "Ġweak": 5386,
      "CC": 5387,
      "Ġfriend": 5388,
      "Ġcitizens": 5389,
      "ìĬ¤ë¥¼": 5390,
      "Ġeducational": 5391,
      "Ġë©´": 5392,
      "Ġfigure": 5393,
      "Ġevolution": 5394,
      "Ġfactor": 5395,
      "ĠProf": 5396,
      "Ġì±ħìŀĦ": 5397,
      "Ġinstance": 5398,
      "Ġë°Ŀíĺ": 5399,
      "iox": 5400,
      "ìŀĲë£Į": 5401,
      "Ġtask": 5402,
      "ì¹¨íķ´": 5403,
      "ĠEnvironment": 5404,
      "Ġthousands": 5405,
      "ĠìĿ´ìĸ´": 5406,
      "Ġchance": 5407,
      "yd": 5408,
      "Ġhuge": 5409,
      "ĠJapanese": 5410,
      "ube": 5411,
      "abilities": 5412,
      "Ġdefined": 5413,
      "Ġevalu": 5414,
      "erved": 5415,
      "Ġmuscle": 5416,
      "Ġroot": 5417,
      "iring": 5418,
      "Ġcontract": 5419,
      "Ġincor": 5420,
      "Ġchallenges": 5421,
      "ìĭľíĤ¤": 5422,
      "ĠìĤ¬ëŀĳ": 5423,
      "ĠWestern": 5424,
      "Ġpicture": 5425,
      "rehens": 5426,
      "lege": 5427,
      "ìĭľìĹĲ": 5428,
      "Ġnuclear": 5429,
      "ĠAng": 5430,
      "Ġdistance": 5431,
      "eding": 5432,
      "ĠìķĬìĿĢ": 5433,
      "Ġbalance": 5434,
      "ë¶Ģë¶Ħ": 5435,
      "Ġfert": 5436,
      "Ġinnov": 5437,
      "ĠFebruary": 5438,
      "Ġlearned": 5439,
      "ĠTheir": 5440,
      "Be": 5441,
      "Ġjournal": 5442,
      "¶ģ": 5443,
      "Ġtissue": 5444,
      "Ġseparate": 5445,
      "ê°Ļ": 5446,
      "Ġresistance": 5447,
      "Ġbox": 5448,
      "Ġmut": 5449,
      "HE": 5450,
      "Ġfindings": 5451,
      "Ġassum": 5452,
      "Ġdetect": 5453,
      "Ġëį°ìĿ´íĦ°": 5454,
      "hors": 5455,
      "Ġwrong": 5456,
      "Ġprice": 5457,
      "eech": 5458,
      "Ġcomponents": 5459,
      "ĠëıĮìķĦ": 5460,
      "Ġì»´": 5461,
      "Ġgarden": 5462,
      "Ġbound": 5463,
      "atin": 5464,
      "Ġsuggests": 5465,
      "ĠProgram": 5466,
      "ĠFrance": 5467,
      "ĠNet": 5468,
      "Ġmal": 5469,
      "Ġqual": 5470,
      "Ġdisorder": 5471,
      "icip": 5472,
      "Ġoptions": 5473,
      "Ġoffice": 5474,
      "Ġpp": 5475,
      "ĠAut": 5476,
      "Ġê³Ħíļį": 5477,
      "Ġstaff": 5478,
      "key": 5479,
      "ĠUK": 5480,
      "ëĭ¤ë©´": 5481,
      "ĠSee": 5482,
      "Ġseven": 5483,
      "Ġdestroy": 5484,
      "Ph": 5485,
      "era": 5486,
      "ĠInter": 5487,
      "Ġstar": 5488,
      "isation": 5489,
      "Ġnative": 5490,
      "ĠNA": 5491,
      "Ġë³´ìĹ¬": 5492,
      "Ġregions": 5493,
      "ĠìĿ¼ë°ĺ": 5494,
      "uild": 5495,
      "ĠëĲ©ëĭĪëĭ¤": 5496,
      "ĠíĤ¤": 5497,
      "ë²½": 5498,
      "Ġbra": 5499,
      "ë¥ł": 5500,
      "Ġvision": 5501,
      "Ġwatch": 5502,
      "soft": 5503,
      "Ġapply": 5504,
      "Ġeventually": 5505,
      "Ġsac": 5506,
      "change": 5507,
      "íģ¼": 5508,
      "ographic": 5509,
      "They": 5510,
      "Ġaim": 5511,
      "pective": 5512,
      "Ġabsor": 5513,
      "ĠChe": 5514,
      "Ġmap": 5515,
      "ĠëĲĺëĬĶ": 5516,
      "rick": 5517,
      "BC": 5518,
      "Ġê°ĻìĿ´": 5519,
      "pped": 5520,
      "Ġpassed": 5521,
      "iance": 5522,
      "Ġtri": 5523,
      "Ġì¤Ģë¹Ħ": 5524,
      "Ġì²ĺìĿĮ": 5525,
      "ifically": 5526,
      "ĠìĶ": 5527,
      "Ġincome": 5528,
      "Ġbelieved": 5529,
      "Ġexplain": 5530,
      "ĠMicro": 5531,
      "Ġemissions": 5532,
      "05": 5533,
      "After": 5534,
      "Ar": 5535,
      "iant": 5536,
      "ĠJewish": 5537,
      "íĵ¨": 5538,
      "Ġstim": 5539,
      "ĠDavid": 5540,
      "Ġì¸¡": 5541,
      "Ġeffic": 5542,
      "Ġconsumption": 5543,
      "75": 5544,
      "Ġstrategies": 5545,
      "ĠAir": 5546,
      "ĠìķĦëŀĺ": 5547,
      "Ġì°¾ìķĦ": 5548,
      "Ġguide": 5549,
      "rates": 5550,
      "Ġìłķì¹ĺ": 5551,
      "Ġtechnologies": 5552,
      "ĠThus": 5553,
      "Ġtruth": 5554,
      "Ġhighest": 5555,
      "Ġstyle": 5556,
      "Ġ2003": 5557,
      "Ġkid": 5558,
      "Ġimmediately": 5559,
      "ĠKore": 5560,
      "Ġfamous": 5561,
      "ìī": 5562,
      "Ġgoals": 5563,
      "Ġinstruct": 5564,
      "oma": 5565,
      "ĠGreen": 5566,
      "Ġfavor": 5567,
      "Ġsexual": 5568,
      "ĠOff": 5569,
      "char": 5570,
      "Ġë¬´ìĹĩ": 5571,
      "Ġìµľê³ł": 5572,
      "Ġnutrition": 5573,
      "ëĭĺìĿĺ": 5574,
      "ĠâĢ¦": 5575,
      "ëį¸": 5576,
      "Ġblue": 5577,
      "Ġplans": 5578,
      "eces": 5579,
      "Ġreports": 5580,
      "ĠCur": 5581,
      "Ġneu": 5582,
      "ĠEach": 5583,
      "wards": 5584,
      "roup": 5585,
      "Ġspring": 5586,
      "ygen": 5587,
      "Ġdyn": 5588,
      "Ġê³ĦìĨį": 5589,
      "Ġfeature": 5590,
      "íķĳ": 5591,
      "Ġhappen": 5592,
      "ĠìĿ´íķ´": 5593,
      "Ġplanning": 5594,
      "Ġpopulations": 5595,
      "Ġdistribution": 5596,
      "Ġmoved": 5597,
      "Ġchallenge": 5598,
      "ĠìĻķ": 5599,
      "Ġdecades": 5600,
      "ĠPal": 5601,
      "Ġcollabor": 5602,
      "Ġutil": 5603,
      "ĠWeb": 5604,
      "?âĢĿ": 5605,
      "Ġë¬¸íĻĶ": 5606,
      "Ġgain": 5607,
      "Ġtreated": 5608,
      "Ġbank": 5609,
      "ëł´": 5610,
      "Ġcarried": 5611,
      "Ġclassroom": 5612,
      "65": 5613,
      "Ġphen": 5614,
      "ëĤ´ìļ©": 5615,
      "Ġrot": 5616,
      "Sp": 5617,
      "Ġexperiences": 5618,
      "Ġheavy": 5619,
      "Ġexhib": 5620,
      "Ġclinical": 5621,
      "Ġconnected": 5622,
      "ĠìłĢìŀĳê¶Įì¹¨íķ´": 5623,
      "ĠWiFi": 5624,
      "ald": 5625,
      "ĠDon": 5626,
      "ĠìłĦì²´": 5627,
      "Ġì¢Ģ": 5628,
      "care": 5629,
      "Ġì£½": 5630,
      "Ġê¸°ë³¸": 5631,
      "Ġextremely": 5632,
      "last": 5633,
      "antic": 5634,
      "ĠVol": 5635,
      "cast": 5636,
      "Ġplastic": 5637,
      "cular": 5638,
      "Ġexcess": 5639,
      "Ġstructures": 5640,
      "ĠìŀĲìĭłìĿĺ": 5641,
      "ë·°": 5642,
      "Ġbed": 5643,
      "ìĿ¸ìĿ´": 5644,
      "Ġmo": 5645,
      "ë³´ê¸°": 5646,
      "Ġì²«": 5647,
      "nes": 5648,
      "Ġactual": 5649,
      "Ġemphas": 5650,
      "Ġìĺģíĸ¥": 5651,
      "Ġê°ľìĿ¸ìłķë³´": 5652,
      "Ġdivid": 5653,
      "ĠMor": 5654,
      "order": 5655,
      "Ġopin": 5656,
      "Ġpresident": 5657,
      "ttps": 5658,
      "ĠíĮĲë§¤": 5659,
      "Ġëªĩ": 5660,
      "Ġparty": 5661,
      "Ġgeneration": 5662,
      "Ġboard": 5663,
      "Ġorganizations": 5664,
      "Ġhair": 5665,
      "Ġtopic": 5666,
      "ĠDes": 5667,
      "Ġfilm": 5668,
      "99": 5669,
      "ologist": 5670,
      "ìľĦìĽĲ": 5671,
      "Ġmilk": 5672,
      "Ġletter": 5673,
      "ĠPublic": 5674,
      "32": 5675,
      "ean": 5676,
      "Ġexplore": 5677,
      "Ġcommercial": 5678,
      "ëĲĺìĹĪ": 5679,
      "Ġapproximately": 5680,
      "Ġcand": 5681,
      "uit": 5682,
      "Ġpick": 5683,
      "Ġì¤ĳìĭ¬": 5684,
      "Ġmedicine": 5685,
      "íħĲ": 5686,
      "aus": 5687,
      "ëĺĲ": 5688,
      "100": 5689,
      "Ġobserved": 5690,
      "ì·¨": 5691,
      "Ġurban": 5692,
      "áĥ": 5693,
      "Ġitems": 5694,
      "ĠPC": 5695,
      "Ġbodies": 5696,
      "rome": 5697,
      "ëĤ¬": 5698,
      "Ġdisorders": 5699,
      "ĠìĤ¬ìĿ´íĬ¸": 5700,
      "Ġbecoming": 5701,
      "hetic": 5702,
      "Ġmale": 5703,
      "ĠMuseum": 5704,
      "bed": 5705,
      "ĠMich": 5706,
      "Ġslight": 5707,
      "Ġestimated": 5708,
      "ĠLord": 5709,
      "AD": 5710,
      "ager": 5711,
      "igen": 5712,
      "Ġdecisions": 5713,
      "ĠíĬ¹íŀĪ": 5714,
      "zz": 5715,
      "ìĬ¤íĨł": 5716,
      "Ġhom": 5717,
      "Ġë§ī": 5718,
      "Ġgene": 5719,
      "ulf": 5720,
      "ìĹĲìĦľìĿĺ": 5721,
      "Ġlegis": 5722,
      "Ġbone": 5723,
      "unction": 5724,
      "ìķĻ": 5725,
      "Ġdepression": 5726,
      "Ġfreedom": 5727,
      "mark": 5728,
      "ĠêµŃëĤ´": 5729,
      "iment": 5730,
      "tee": 5731,
      "ĠJames": 5732,
      "ĠRel": 5733,
      "ĠìĹ°ê²°": 5734,
      "ĠMat": 5735,
      "ĠDec": 5736,
      "Ġreference": 5737,
      "Sh": 5738,
      "Ġ2004": 5739,
      "Ġalternative": 5740,
      "ria": 5741,
      "Ġmag": 5742,
      "ĠPlan": 5743,
      "48": 5744,
      "Ġiron": 5745,
      "ĠëĬĲëĤ": 5746,
      "ĠDevelopment": 5747,
      "enth": 5748,
      "Ġeasier": 5749,
      "Ġoperations": 5750,
      "Ġvot": 5751,
      "Ġsetting": 5752,
      "Ġvary": 5753,
      "Ġëĸł": 5754,
      "rest": 5755,
      "08": 5756,
      "ĠìķĦëĭĮ": 5757,
      "Ġspect": 5758,
      "ì£¼ëĬĶ": 5759,
      "Ġì°¸ìĹ¬": 5760,
      "ĠìŀĪëĭ¤ëĬĶ": 5761,
      "ĩ¼": 5762,
      "Ġfaith": 5763,
      "ingly": 5764,
      "ì§Ģê³ł": 5765,
      "Ġhousehold": 5766,
      "ê¶ĮìĿĦ": 5767,
      "Ġreality": 5768,
      "Ġ35": 5769,
      "ĠRev": 5770,
      "Ġsignificantly": 5771,
      "ĠFood": 5772,
      "íĥĪ": 5773,
      "ĠìĿ´ë£¨": 5774,
      "Ġdesp": 5775,
      "Ġindustrial": 5776,
      "ares": 5777,
      "rant": 5778,
      "Ġì²ł": 5779,
      "ĠAv": 5780,
      "Ġaspects": 5781,
      "ĠCollege": 5782,
      "Ġliqu": 5783,
      "porary": 5784,
      "Ġìļķ": 5785,
      "iated": 5786,
      "nam": 5787,
      "Ġign": 5788,
      "Ġfields": 5789,
      "Ġtrust": 5790,
      "Ġíļ¨ê³¼": 5791,
      "Ġsave": 5792,
      "--------": 5793,
      "Ġìŀł": 5794,
      "Ġê·¸ëĬĶ": 5795,
      "ĠëĲĺìĸ´": 5796,
      "ĠMary": 5797,
      "Ġintroduced": 5798,
      "Ġcycle": 5799,
      "ìĽĥ": 5800,
      "Ġstarting": 5801,
      "ì¼ľ": 5802,
      "iding": 5803,
      "ĠìķĦì¹¨": 5804,
      "ĠìĦľë¹ĦìĬ¤ë¥¼": 5805,
      "bal": 5806,
      "Ġbuildings": 5807,
      "clus": 5808,
      "Ġpresented": 5809,
      "Ġrecords": 5810,
      "Ġelectricity": 5811,
      "Ġclearly": 5812,
      "ĠRepublic": 5813,
      "Ġtransl": 5814,
      "ĠìĹĦ": 5815,
      "ìĿ¸ìĿĺ": 5816,
      "ì¹Ļ": 5817,
      "ĠìĹĨìĿ´": 5818,
      "ĠSpanish": 5819,
      "ìĿ¸ì§Ģ": 5820,
      "Ġmer": 5821,
      "Ġviolence": 5822,
      "Ġstore": 5823,
      "Ġê´Ģíķľ": 5824,
      "04": 5825,
      "Ġfig": 5826,
      "ias": 5827,
      "Ġê¸Īì§Ģ": 5828,
      "==": 5829,
      "Ġì¶ķ": 5830,
      "Ġrelease": 5831,
      "Ġreleased": 5832,
      "Ġbran": 5833,
      "met": 5834,
      "Ġcontrast": 5835,
      "Ġë¨¸": 5836,
      "elines": 5837,
      "Ġê¸°íĥĢ": 5838,
      "olid": 5839,
      "Ġpartners": 5840,
      "ëĪĦ": 5841,
      "ĠST": 5842,
      "Ġlived": 5843,
      "ĠHuman": 5844,
      "ì°¸": 5845,
      "Ġesc": 5846,
      "Ġëī´": 5847,
      "Ġgames": 5848,
      "ĠBudd": 5849,
      "Ġmetal": 5850,
      "Ġagg": 5851,
      "Ġglass": 5852,
      "tered": 5853,
      "Ġê³¨": 5854,
      "apers": 5855,
      "ĠìµľëĮĢ": 5856,
      "ux": 5857,
      "Ġnotes": 5858,
      "ognitive": 5859,
      "Ġload": 5860,
      "ê²łìĬµëĭĪëĭ¤": 5861,
      "Ġgraph": 5862,
      "works": 5863,
      "ëĳ": 5864,
      "ìĿ´ìĹĪëĭ¤": 5865,
      "Ġtemperatures": 5866,
      "Ġì¹¨ëĮĢ": 5867,
      "ulum": 5868,
      "Ġgets": 5869,
      "erate": 5870,
      "Ġnovel": 5871,
      "ĠSpec": 5872,
      "ĠìĹĨìĬµëĭĪëĭ¤": 5873,
      "Ġëĥ": 5874,
      "Ġíķ´ê²°": 5875,
      "Ġstream": 5876,
      "ss": 5877,
      "ĠFound": 5878,
      "Ġexperiment": 5879,
      "Ġoutput": 5880,
      "Ġë³´íĺ¸": 5881,
      "Ġfrequently": 5882,
      "ë´ī": 5883,
      "ilit": 5884,
      "ëĲĺìĹĪëĭ¤": 5885,
      "Ġserve": 5886,
      "ta": 5887,
      "ëģ¼": 5888,
      "Ġgod": 5889,
      "ëĭĺê»ĺ": 5890,
      "Ġparticipants": 5891,
      "Ġchronic": 5892,
      "Ġíĭ": 5893,
      "Ġdoub": 5894,
      "Ġhomes": 5895,
      "ĠBook": 5896,
      "Ġves": 5897,
      "Ġappe": 5898,
      "Ġlayer": 5899,
      "Ġì¡´ìŀ¬": 5900,
      "ressive": 5901,
      "Ġê°Ģì§Ģê³ł": 5902,
      "Ġcausing": 5903,
      "ĠBra": 5904,
      "Ġconducted": 5905,
      "EL": 5906,
      "rans": 5907,
      "íķľêµŃ": 5908,
      "Ġorganic": 5909,
      "Ġtour": 5910,
      "ij": 5911,
      "ë°ĶìĿ´": 5912,
      "Ġwin": 5913,
      "Ġrequirements": 5914,
      "Ġwidely": 5915,
      "ault": 5916,
      "ios": 5917,
      "lick": 5918,
      "ander": 5919,
      "Ġnoted": 5920,
      "Ġturned": 5921,
      "Ġresource": 5922,
      "ìĬ¨": 5923,
      "Ġisol": 5924,
      "ĠGovernment": 5925,
      "Ġthr": 5926,
      "ãħł": 5927,
      "ì°¬": 5928,
      "Ġtim": 5929,
      "Ġkilled": 5930,
      "ously": 5931,
      "ructure": 5932,
      "ĠLet": 5933,
      "Ġterrit": 5934,
      "Ġstorage": 5935,
      "Ġliterature": 5936,
      "ĠOver": 5937,
      "ìĺ¤ëĬĶ": 5938,
      "Ġisland": 5939,
      "Ġcombination": 5940,
      "asks": 5941,
      "Â°": 5942,
      "tical": 5943,
      "Ġremove": 5944,
      "atform": 5945,
      "Ġintellig": 5946,
      "Ġanyone": 5947,
      "Ġindependent": 5948,
      "ST": 5949,
      "omic": 5950,
      "ĠìĿ´ë¥¼": 5951,
      "Ġnumerous": 5952,
      "Ġconnection": 5953,
      "Ġcampaign": 5954,
      "cers": 5955,
      "ĠOb": 5956,
      "íķĺì§Ģë§Į": 5957,
      "ĠGeorge": 5958,
      "Ġtrig": 5959,
      "Ġdiscussion": 5960,
      "íĦ´": 5961,
      "Ġìĥģíĥľ": 5962,
      "Ġëª¸": 5963,
      "Ġê´Ģìĭ¬": 5964,
      "CO": 5965,
      "ĠGreek": 5966,
      "atically": 5967,
      "Ġmessage": 5968,
      "ĠíĦ": 5969,
      "ìķĮ": 5970,
      "ĠUnder": 5971,
      "Ġrisks": 5972,
      "Ġpolicies": 5973,
      "Ġbottom": 5974,
      "ìĽ¨ìĸ´": 5975,
      "Ġhear": 5976,
      "ologists": 5977,
      "Ġassessment": 5978,
      "raction": 5979,
      "ocal": 5980,
      "ophy": 5981,
      "âĢĻ,": 5982,
      "ida": 5983,
      "ĠìŀĲìĹ°": 5984,
      "Ġbattle": 5985,
      "imens": 5986,
      "íķĺëł¤": 5987,
      "Ġcovered": 5988,
      "essor": 5989,
      "íĺľ": 5990,
      "Ġìĭľìŀ¥": 5991,
      "Ġrecommended": 5992,
      "Ġship": 5993,
      "erences": 5994,
      "ê±¸": 5995,
      "Ġrelationships": 5996,
      "Ġcreation": 5997,
      "Ġsand": 5998,
      "Ġìĸ»": 5999,
      "anging": 6000,
      "Con": 6001,
      "Ġtooth": 6002,
      "Ġmeat": 6003,
      "Ġauthors": 6004,
      "Ġperformed": 6005,
      "Ġhappens": 6006,
      "Ġdrop": 6007,
      "olved": 6008,
      "ii": 6009,
      "mp": 6010,
      "Ġchanging": 6011,
      "Ġprefer": 6012,
      "ĠëĨį": 6013,
      "ĠìŀĳìĦ±": 6014,
      "ĠOrgan": 6015,
      "ĠíĻį": 6016,
      "Ġoxygen": 6017,
      "Ġsample": 6018,
      "Ġalg": 6019,
      "Ġinterpret": 6020,
      "06": 6021,
      "Ġconv": 6022,
      "íĵ¨íĦ°": 6023,
      "ê¸°ìĹħ": 6024,
      "Ġready": 6025,
      "02": 6026,
      "Ġunivers": 6027,
      "Ġminor": 6028,
      "ĠëįĶìļ±": 6029,
      "Ġresulting": 6030,
      "Ġbeautiful": 6031,
      "Ġëĭ¹ìĭł": 6032,
      "ĠChildren": 6033,
      "ĠIsland": 6034,
      "ieces": 6035,
      "Ġshap": 6036,
      "Ġíıīê°Ģ": 6037,
      "Ġê¸°ë¡Ŀ": 6038,
      "Ġinternal": 6039,
      "íĺģ": 6040,
      "Ġannual": 6041,
      "Ġdangerous": 6042,
      "ĠCath": 6043,
      "ëĶĶìĸ´": 6044,
      "07": 6045,
      "Ġocean": 6046,
      "ĠSun": 6047,
      "Ġupd": 6048,
      "Ġcollege": 6049,
      "44": 6050,
      "leg": 6051,
      "ê°ľìĿĺ": 6052,
      "Ġìłķë§Ĳ": 6053,
      "íķĦ": 6054,
      "roph": 6055,
      "Ġprepar": 6056,
      "Ġfinding": 6057,
      "ĠPaul": 6058,
      "icial": 6059,
      "othes": 6060,
      "Ġwhom": 6061,
      "Ġdrive": 6062,
      "Ġfeeling": 6063,
      "orial": 6064,
      "stitution": 6065,
      "Ġtechnique": 6066,
      "Ġbelong": 6067,
      "Ġphysic": 6068,
      "ĠìĿ½": 6069,
      "Ġexpression": 6070,
      "Ġnor": 6071,
      "íĸĪëįĺ": 6072,
      "iveness": 6073,
      "ìĿ¸ëį°": 6074,
      "Ġhelped": 6075,
      "Ġwanted": 6076,
      "Ġflood": 6077,
      "Ġì¢ĭìķĦ": 6078,
      "ags": 6079,
      "ams": 6080,
      "ĠBel": 6081,
      "raw": 6082,
      "ĠëŁ": 6083,
      "Ġ2002": 6084,
      "Ġupper": 6085,
      "ìŀ¡": 6086,
      "ĠMark": 6087,
      "Ġgrant": 6088,
      "Ġburn": 6089,
      "road": 6090,
      "ĠExp": 6091,
      "Ġvessel": 6092,
      "Ġdram": 6093,
      "rog": 6094,
      "umn": 6095,
      "ishing": 6096,
      "Ġmeeting": 6097,
      "ì±Ħ": 6098,
      "ĠOnce": 6099,
      "Ġreferred": 6100,
      "Ġtrou": 6101,
      "Ġvul": 6102,
      "mal": 6103,
      "ception": 6104,
      "ressed": 6105,
      "ĠPort": 6106,
      "Ġplease": 6107,
      "ëĵľëĬĶ": 6108,
      "Ġdistinct": 6109,
      "Ġbuy": 6110,
      "Ġsolutions": 6111,
      "Ġcore": 6112,
      "ĠíıŃ": 6113,
      "Ġexactly": 6114,
      "ĠWork": 6115,
      "ieties": 6116,
      "Ġtum": 6117,
      "Ġmic": 6118,
      "Ġinfections": 6119,
      "Here": 6120,
      "ago": 6121,
      "Ġë§¤ìļ°": 6122,
      "rum": 6123,
      "onds": 6124,
      "ĠMal": 6125,
      "ĠAsia": 6126,
      "ategy": 6127,
      "Ġinflamm": 6128,
      "ĠëŃ": 6129,
      "Ġprinciples": 6130,
      "Ġë¿Ĳ": 6131,
      "ĠëĮĢíķĻ": 6132,
      "However": 6133,
      "Ġconfirm": 6134,
      "ras": 6135,
      "ĠëĮĢìĥģ": 6136,
      "Ġê³µê°Ħ": 6137,
      "Ġkm": 6138,
      "Ġ2001": 6139,
      "Ġunf": 6140,
      "Ġdegrees": 6141,
      "lease": 6142,
      "88": 6143,
      "board": 6144,
      "AP": 6145,
      "Ġoption": 6146,
      ".|": 6147,
      "Ġserved": 6148,
      "Ġsem": 6149,
      "Ġinput": 6150,
      "ĠëĬĺ": 6151,
      "ĠIr": 6152,
      "ìĭľìĦ¤": 6153,
      "Ġë³ĳ": 6154,
      "Ġinitial": 6155,
      "Ġencourage": 6156,
      "Ġstatement": 6157,
      "Ġcharacteristics": 6158,
      "ìĿ¸ê°Ģ": 6159,
      "Ġcounter": 6160,
      "Ġtrib": 6161,
      "Ġradiation": 6162,
      "ê³¡": 6163,
      "Ġexcell": 6164,
      "Ġreb": 6165,
      "ĠLa": 6166,
      "Ġstrategy": 6167,
      "ht": 6168,
      "with": 6169,
      "ĠDem": 6170,
      "Ġmostly": 6171,
      "Ġë°©ë¬¸": 6172,
      "ĠìłĢëł´": 6173,
      "ĠProject": 6174,
      "Ġbackground": 6175,
      "RE": 6176,
      "55": 6177,
      "Ġspeech": 6178,
      "Ġmotion": 6179,
      "Ġinjury": 6180,
      "Ġdetermined": 6181,
      "onic": 6182,
      "Ġnorthern": 6183,
      "Ġë¬´ëĭ¨": 6184,
      "Ġë°ľìłĦ": 6185,
      "Ġunits": 6186,
      "Ġsav": 6187,
      "Ġreprodu": 6188,
      "ĠêµŃë¯¼": 6189,
      "Ġreducing": 6190,
      "wood": 6191,
      "ĠTherefore": 6192,
      "ìĹĨìĿ´": 6193,
      "kin": 6194,
      "Ġpip": 6195,
      "oyal": 6196,
      "ì¸¡": 6197,
      "rier": 6198,
      "Ġsolid": 6199,
      "Ġcalc": 6200,
      "New": 6201,
      "09": 6202,
      "rete": 6203,
      "Ġfine": 6204,
      "Ġded": 6205,
      "Ġì»¨": 6206,
      "ĠìĿĳ": 6207,
      "Ġanxiety": 6208,
      "ortunately": 6209,
      "ping": 6210,
      "Ġë¹ĦêµĲ": 6211,
      "ëĤĺìļĶ": 6212,
      "ëĵľë¦½ëĭĪëĭ¤": 6213,
      "ĠëĤ´ìļ©ìĿĺ": 6214,
      "Ġcredit": 6215,
      "OT": 6216,
      "Ġfluid": 6217,
      "ĠMount": 6218,
      "According": 6219,
      "Ġremoved": 6220,
      "Ġclasses": 6221,
      "BS": 6222,
      "Ġclick": 6223,
      "rations": 6224,
      "isher": 6225,
      "ĠìĬ¤íĥĢ": 6226,
      "ĠWhy": 6227,
      "ĠíĹ¤": 6228,
      "Ġdogs": 6229,
      "alle": 6230,
      "riage": 6231,
      "Ġì¶ľë°ľ": 6232,
      "ĠëĶĶìŀĲìĿ¸": 6233,
      "Ġlib": 6234,
      "rows": 6235,
      "Ġreligion": 6236,
      "Ġregarding": 6237,
      "Ġproperly": 6238,
      "Ġround": 6239,
      "Ġcomprehens": 6240,
      "Ġdescribe": 6241,
      "Ġprocessing": 6242,
      "inate": 6243,
      "Ġcircum": 6244,
      "ĠDirect": 6245,
      "500": 6246,
      "Ġmeant": 6247,
      "osystem": 6248,
      "ek": 6249,
      "Ġmist": 6250,
      "Ġvolume": 6251,
      "ĠíķĻìĥĿ": 6252,
      "ĠFore": 6253,
      "ê²Ģ": 6254,
      "Ġìłľíķľ": 6255,
      "ìĸ´ëĤĺ": 6256,
      "Ġìĭłê³ł": 6257,
      "ë¡ľìĦľ": 6258,
      "Ġmel": 6259,
      "Ġmentioned": 6260,
      "Ġpreviously": 6261,
      "ributed": 6262,
      "Ġreplace": 6263,
      "uration": 6264,
      "ëĵ¯": 6265,
      ")||": 6266,
      "Ġheard": 6267,
      "rosc": 6268,
      "urt": 6269,
      "Ġì½ĺ": 6270,
      "ĠEv": 6271,
      "Ġcast": 6272,
      "Ġlinked": 6273,
      "itz": 6274,
      "berg": 6275,
      "ë¬¸íĻĶ": 6276,
      "Ġinvolve": 6277,
      "riculum": 6278,
      "Ġscen": 6279,
      "Ġleads": 6280,
      "well": 6281,
      "Ġsurgery": 6282,
      "Ġcris": 6283,
      "tes": 6284,
      "ë¨¼": 6285,
      "MS": 6286,
      "Ġclos": 6287,
      "Ġconservation": 6288,
      "ë²¤": 6289,
      "Ġyouth": 6290,
      "Ġinstall": 6291,
      "ĠIts": 6292,
      "Ġgenes": 6293,
      "ĠìķĪìłĦ": 6294,
      "Ġë°ĽìķĦ": 6295,
      "Ġeggs": 6296,
      "Ġessay": 6297,
      "Ġgender": 6298,
      "ìŀĲëĵ¤ìĿ´": 6299,
      "Ġkill": 6300,
      "Ġobvious": 6301,
      "Ġfol": 6302,
      "Ġexperienced": 6303,
      "ĠGra": 6304,
      "Ġlandsc": 6305,
      "Ġadvantage": 6306,
      "Res": 6307,
      "ĠTest": 6308,
      "That": 6309,
      "och": 6310,
      "Ġelimin": 6311,
      "ãħİ": 6312,
      "rian": 6313,
      "Ġacademic": 6314,
      "Ġrace": 6315,
      "uing": 6316,
      "Ġsaying": 6317,
      "Ġsquare": 6318,
      "za": 6319,
      "Ġë¬¼ë¡ł": 6320,
      "Many": 6321,
      "Cl": 6322,
      "Ġadjust": 6323,
      "Ġinvolves": 6324,
      "ĠHIV": 6325,
      "Ġspot": 6326,
      "ĠëĨĴìĿĢ": 6327,
      "Ġdepending": 6328,
      "Ġvolunt": 6329,
      "iling": 6330,
      "ì´Ŀ": 6331,
      "Ġlic": 6332,
      "Ġhour": 6333,
      "Ġrelevant": 6334,
      "Ġarticles": 6335,
      "Ġreaction": 6336,
      "Ġprepared": 6337,
      "Ġarm": 6338,
      "ĠíĻľìļ©": 6339,
      "Why": 6340,
      "Ġpromote": 6341,
      "Ġamounts": 6342,
      "ĠìĤ¶": 6343,
      "Ġexperts": 6344,
      "Ġinterested": 6345,
      "Ġë³´ëĭ¤": 6346,
      "eline": 6347,
      "Ġproposed": 6348,
      "Ġpresc": 6349,
      "ĠService": 6350,
      "Ġinvent": 6351,
      "Ġmathemat": 6352,
      "ĠHen": 6353,
      "Ġexposed": 6354,
      "Ġtrend": 6355,
      "Ġsouthern": 6356,
      "Ġfailure": 6357,
      "vision": 6358,
      "ĠìŀĲìľł": 6359,
      "Ġeffectively": 6360,
      "Ġdecided": 6361,
      "Ġradio": 6362,
      "ĠRober": 6363,
      "Ġadvanced": 6364,
      "Ġconflict": 6365,
      "http": 6366,
      "oo": 6367,
      "ĠAcad": 6368,
      "Ġexpert": 6369,
      "Ġê·¹": 6370,
      "ĠSen": 6371,
      "ĠSub": 6372,
      "ĠíĴį": 6373,
      "64": 6374,
      "Ġdie": 6375,
      "Ġpret": 6376,
      "ĠìºĲ": 6377,
      "ĠIslam": 6378,
      "Ġsynt": 6379,
      "ĠTex": 6380,
      "ë¡ľëĬĶ": 6381,
      "ĠLife": 6382,
      "ëĤĺëĿ¼": 6383,
      "Ġë³Ģê²½": 6384,
      "Ġkept": 6385,
      "Ġìĸ´ë¦°ìĿ´": 6386,
      "Ġë³ĢíĻĶ": 6387,
      "aughter": 6388,
      "Ġinh": 6389,
      "icit": 6390,
      "ĠArab": 6391,
      "ìŀĲìĹĲê²Į": 6392,
      "ìĸ´ëĵľ": 6393,
      "Ġthick": 6394,
      "Ġaid": 6395,
      "Ġinstitutions": 6396,
      "ancing": 6397,
      "ì§ĢëıĦ": 6398,
      "Ġspent": 6399,
      "Ġìµľê·¼": 6400,
      "Ġë²Ķ": 6401,
      "Ġê²°ìłķ": 6402,
      "ĠëĤľ": 6403,
      "ĠInf": 6404,
      "Ġìĺ¤ëĬĺ": 6405,
      "ë³¼": 6406,
      "ĠÃ": 6407,
      "ĠBas": 6408,
      "ifying": 6409,
      "Ġmanufacture": 6410,
      "Ġsort": 6411,
      "ĠìļĶì²Ń": 6412,
      "ded": 6413,
      "Ġhttps": 6414,
      "ĠìļĶêµ¬": 6415,
      "Ġvegetables": 6416,
      "ules": 6417,
      "Ġë²Į": 6418,
      "Ġoperation": 6419,
      "Ġcharge": 6420,
      "ì¡Įëĭ¤": 6421,
      "Ġë§ĲíĸĪëĭ¤": 6422,
      "íļ¨": 6423,
      "Ġofficial": 6424,
      "Ġíĺ¹": 6425,
      "place": 6426,
      "Ġdiss": 6427,
      "Ġê²½íĹĺ": 6428,
      "ĠìĿ´ëłĩê²Į": 6429,
      "mat": 6430,
      "ë§ĪíĬ¸": 6431,
      "acing": 6432,
      "ĠìĿ¼ë¶Ģ": 6433,
      "ĠPhys": 6434,
      "Ġbrother": 6435,
      "Ġê·¸ìĿĺ": 6436,
      "Ġtrial": 6437,
      "ĳ¸": 6438,
      "ĠCD": 6439,
      "ï¼": 6440,
      "ĠMars": 6441,
      "RO": 6442,
      "rep": 6443,
      "ì§ľ": 6444,
      "Ġ1990": 6445,
      "Ġtransform": 6446,
      "ìĬ¤ìĿĺ": 6447,
      "¿Ī": 6448,
      "amental": 6449,
      "ĠVirgin": 6450,
      "ĠMexico": 6451,
      "Ġreached": 6452,
      "íĺĢ": 6453,
      "Ġhelping": 6454,
      "ì¹ĺë¥¼": 6455,
      "Ġsecret": 6456,
      "Ġlooks": 6457,
      "ĠAD": 6458,
      "uted": 6459,
      "ĠëĤ´ê°Ģ": 6460,
      "ĠìĹŃìĤ¬": 6461,
      "Ġincorpor": 6462,
      "ĠMart": 6463,
      "ì§Ģê°Ģ": 6464,
      "Ġidentity": 6465,
      "03": 6466,
      "rus": 6467,
      "Ġhop": 6468,
      "Ġmanage": 6469,
      "ìĿĮìĿĦ": 6470,
      "Ġemotional": 6471,
      "ĠRich": 6472,
      "Ġfinally": 6473,
      "vis": 6474,
      "ĠìŀĳíĴĪ": 6475,
      "ë¥´ëĬĶ": 6476,
      "Ġremained": 6477,
      "Ġsong": 6478,
      "Ġ31": 6479,
      "Ġsignal": 6480,
      "Ġcere": 6481,
      "Although": 6482,
      "Ġelectrical": 6483,
      "Ġlung": 6484,
      "Ġë§Īëł¨ëĲĺìĸ´": 6485,
      "Ġplatform": 6486,
      "col": 6487,
      "ĠRem": 6488,
      "Now": 6489,
      "Ġpal": 6490,
      "Ġconcern": 6491,
      "Our": 6492,
      "ĠBer": 6493,
      "Ġeast": 6494,
      "Ġowners": 6495,
      "Ġforced": 6496,
      "Ġwest": 6497,
      "êµ´": 6498,
      "ework": 6499,
      "ĠìĿĮìĭĿ": 6500,
      "Ġpric": 6501,
      "ya": 6502,
      "ëıĮ": 6503,
      "Ġpages": 6504,
      "Ġpieces": 6505,
      "ì¹ĺëĬĶ": 6506,
      "Ġë¶Īë²ķ": 6507,
      "Ġconcerns": 6508,
      "Ġprofession": 6509,
      "RI": 6510,
      "ĠìŀĳìĹħ": 6511,
      "ì¿ł": 6512,
      "Ġpollution": 6513,
      "ê¸°ìĿĺ": 6514,
      "Ġmainly": 6515,
      "Ġfarmers": 6516,
      "Ġsupported": 6517,
      "km": 6518,
      "Ġwaters": 6519,
      "Ġcomfort": 6520,
      "ĠìŀĪëĭ¤ê³ł": 6521,
      "iverse": 6522,
      "oviet": 6523,
      "ĠìŀĪëĬĶëį°": 6524,
      "ĠSal": 6525,
      "ĠìĨĮê°ľ": 6526,
      "ball": 6527,
      "Ġconclud": 6528,
      "Ġsusp": 6529,
      "Ġwealth": 6530,
      "ìģ": 6531,
      "Ġë¯": 6532,
      "ĠStudents": 6533,
      "95": 6534,
      "íľ´": 6535,
      "astern": 6536,
      "ĩ´": 6537,
      "Ġpun": 6538,
      "ĠëĨĵ": 6539,
      "TS": 6540,
      "Ġdiscover": 6541,
      "comes": 6542,
      "ë¬¼ìĿĦ": 6543,
      "ëł¥ìĿ´": 6544,
      "Ġmanner": 6545,
      "ears": 6546,
      "Ġíķµ": 6547,
      "which": 6548,
      "Ġdiagnosis": 6549,
      "Ġvulner": 6550,
      "akers": 6551,
      "iology": 6552,
      "Ġnit": 6553,
      "standing": 6554,
      "ë¡Ń": 6555,
      "Ġconsult": 6556,
      "Ġseek": 6557,
      "ĠìķĬìķĺ": 6558,
      "acific": 6559,
      "Ġ2018": 6560,
      "ĠíķĦìļĶíķľ": 6561,
      "Ġdefinition": 6562,
      "Ġcontinues": 6563,
      "ĠìĦ¤ìłķ": 6564,
      "Ġdatab": 6565,
      "Ġê¸°ëĮĢ": 6566,
      "rence": 6567,
      "Ġ*": 6568,
      "Ġban": 6569,
      "íļĮìĿĺ": 6570,
      "Äģ": 6571,
      "ĠìĿ´ê²ĥ": 6572,
      "Ġcorresp": 6573,
      "ĠMet": 6574,
      "Ġnotice": 6575,
      "ĠìĿĺíķ´": 6576,
      "Ġchemicals": 6577,
      "Ġatmosphere": 6578,
      "Ġmotor": 6579,
      "Ġmorning": 6580,
      "Ġshared": 6581,
      "ĠOld": 6582,
      "ë°°íı¬": 6583,
      "aturally": 6584,
      "ĠMedicine": 6585,
      "Ġconcepts": 6586,
      "arrow": 6587,
      "Ġconver": 6588,
      "Ġphenomen": 6589,
      "Ġjour": 6590,
      "Ġcenturies": 6591,
      "Ġìŀ¥ìķł": 6592,
      "^^": 6593,
      "ishes": 6594,
      "ĠBritain": 6595,
      "Ġnav": 6596,
      "ĠNews": 6597,
      "ĠBay": 6598,
      "Ġsufficient": 6599,
      "ĠìķĦë¬´": 6600,
      "Ġallowing": 6601,
      "Ġì¤ĳìļĶíķľ": 6602,
      "Ġflex": 6603,
      "ĠMac": 6604,
      "Ġë§ĲìĶ": 6605,
      "clusion": 6606,
      "Ġhearing": 6607,
      "ìĭľëĬĶ": 6608,
      "ìĽĲìĿĦ": 6609,
      "Ġcompleted": 6610,
      "Ġengineering": 6611,
      "ĠCentral": 6612,
      "Ġseeds": 6613,
      "ĠNASA": 6614,
      "Ġmaster": 6615,
      "ĠJer": 6616,
      "Ġê³¼ìłķ": 6617,
      "ĠìĥĿíĻľ": 6618,
      "ĠìĦ¼íĦ°": 6619,
      "Ġfort": 6620,
      "ĠThomas": 6621,
      "ĠìĻĢ": 6622,
      "ìļķ": 6623,
      "ĠAtl": 6624,
      "ĠíĳľíĺĦ": 6625,
      "ĠCivil": 6626,
      "Ġtechnical": 6627,
      "ĠìĪĺìĺģ": 6628,
      "Ġìĸ´ëł¤": 6629,
      "Ġsettle": 6630,
      "ëľ": 6631,
      "Ġintended": 6632,
      "Ġê±´ê°ķ": 6633,
      "Ġphase": 6634,
      "itors": 6635,
      "ĠFre": 6636,
      "77": 6637,
      "Ġstorm": 6638,
      "ormal": 6639,
      "Ġyellow": 6640,
      "ĠWell": 6641,
      "ĠWhite": 6642,
      "Ġwonder": 6643,
      "ĠìĹŃìĭľ": 6644,
      "Ġarmy": 6645,
      "ĠëĤĺëĬĶ": 6646,
      "atric": 6647,
      "gl": 6648,
      "Ġdoll": 6649,
      "oper": 6650,
      "ĠìĦ±ê³µ": 6651,
      "Ġbegins": 6652,
      "Ġì»´íĵ¨íĦ°": 6653,
      "ĠHel": 6654,
      "Ġsustainable": 6655,
      "ped": 6656,
      "aker": 6657,
      "espite": 6658,
      "west": 6659,
      "Ġë¬¸ìĿĺ": 6660,
      "ëªħìĿĺ": 6661,
      "ĠÎ": 6662,
      "Ġcomment": 6663,
      "ĠìłĦìŀĲ": 6664,
      "Ġleader": 6665,
      "ĠSpace": 6666,
      "Ġparticles": 6667,
      "Ġtoxic": 6668,
      "Ġlov": 6669,
      "66": 6670,
      "Ġlesson": 6671,
      "Ġdro": 6672,
      "ensus": 6673,
      "âĳ": 6674,
      "Ġblog": 6675,
      "Ġprotected": 6676,
      "rapy": 6677,
      "ĠQue": 6678,
      "Ġcoord": 6679,
      "ĠìĹŃíķł": 6680,
      "Ġ45": 6681,
      "'ll": 6682,
      "Americ": 6683,
      "ĠRussian": 6684,
      "Ġlanguages": 6685,
      "ossible": 6686,
      "ĠSam": 6687,
      "ĠEvery": 6688,
      "ĠCourt": 6689,
      "roke": 6690,
      "Ġpractical": 6691,
      "No": 6692,
      "êµŃìĿĺ": 6693,
      "Ġfoss": 6694,
      "Ġmotiv": 6695,
      "zing": 6696,
      "Ġì¡°ê¸Ī": 6697,
      "íĭĢ": 6698,
      "Ġìī½ê²Į": 6699,
      "lig": 6700,
      "Ġë¨¼": 6701,
      "Ġseed": 6702,
      "From": 6703,
      "Ġgar": 6704,
      "ĠOp": 6705,
      "Ġoffered": 6706,
      "ĠWindows": 6707,
      "ĠDi": 6708,
      "Ġdrinking": 6709,
      "Ġcert": 6710,
      "Ġstation": 6711,
      "enced": 6712,
      "asure": 6713,
      "Ġformation": 6714,
      "Ġcombined": 6715,
      "Ġindicate": 6716,
      "ĠBible": 6717,
      "ìĦľë¥¼": 6718,
      "Ġraised": 6719,
      "ĠMedical": 6720,
      "gra": 6721,
      "ĠìķĮìķĦ": 6722,
      "Ġawareness": 6723,
      "Ġideal": 6724,
      "Ġhit": 6725,
      "ĠClass": 6726,
      "Ab": 6727,
      "olars": 6728,
      "Ġìĸ´ëĬĲ": 6729,
      "ĠíĥĦ": 6730,
      "Ġfrequency": 6731,
      "ĠìĿ´ìłľ": 6732,
      "Ġtaught": 6733,
      "ĠDist": 6734,
      "ixt": 6735,
      "ìĸ¼": 6736,
      "oking": 6737,
      "Ġflowers": 6738,
      "Ġprofessor": 6739,
      "ado": 6740,
      "Ġreduction": 6741,
      "Ġfib": 6742,
      "Ġë°ľíĳľ": 6743,
      "ache": 6744,
      "inf": 6745,
      "Ġsnow": 6746,
      "ĠìĻľ": 6747,
      "ION": 6748,
      "Ġìłľê³µíķ©ëĭĪëĭ¤": 6749,
      "Ġpurposes": 6750,
      "Ġkinds": 6751,
      "Ġresist": 6752,
      "ë²Īíĺ¸": 6753,
      "ĠMiss": 6754,
      "ëĮĢìĿĺ": 6755,
      "49": 6756,
      "Ġrecorded": 6757,
      "Ġvoice": 6758,
      "Ġrenew": 6759,
      "going": 6760,
      "ING": 6761,
      "ĠJews": 6762,
      "Pl": 6763,
      "Ġoccurred": 6764,
      "Ã¡": 6765,
      "ì¦ĺ": 6766,
      "win": 6767,
      "Ġprimarily": 6768,
      "ëĥ¥": 6769,
      "Ġsamples": 6770,
      "Ġë³´ë©´": 6771,
      "ì¼ĵ": 6772,
      "ndrome": 6773,
      "ìĥģìĿĺ": 6774,
      "Ġcoal": 6775,
      "Ġmath": 6776,
      "Ġlinks": 6777,
      "Ġcollected": 6778,
      "Ġëª°": 6779,
      "ml": 6780,
      "ìĹ¼": 6781,
      "ìĻĶ": 6782,
      "Ġjobs": 6783,
      "Ġ500": 6784,
      "ounced": 6785,
      "Ġimproved": 6786,
      "verty": 6787,
      "osite": 6788,
      "ĠìĺĪìłķ": 6789,
      "Ġhorm": 6790,
      "ìľĦë¥¼": 6791,
      "otic": 6792,
      "Ġletters": 6793,
      "tion": 6794,
      "ĠëĮĢíķ´ìĦľ": 6795,
      "Ġefficiency": 6796,
      "Ġther": 6797,
      "Ġê¸°ì¡´": 6798,
      "ìĽĲìĿĺ": 6799,
      "acters": 6800,
      "Ġgrand": 6801,
      "Ġconsequences": 6802,
      "BN": 6803,
      "ĠëĮĢë¶Ģë¶Ħ": 6804,
      "omin": 6805,
      "Ġpoverty": 6806,
      "ĠìľĦì¹ĺíķľ": 6807,
      "Ġfocused": 6808,
      "ëłĮ": 6809,
      "ìļ´ëį°": 6810,
      "Ġrevolution": 6811,
      "uable": 6812,
      "van": 6813,
      "ĠMr": 6814,
      "Ġappoint": 6815,
      "íĮĢ": 6816,
      "Ġfacts": 6817,
      "Ġstraight": 6818,
      "Ġdespite": 6819,
      "cript": 6820,
      "Ġíĺ¼": 6821,
      "Ġexistence": 6822,
      "Most": 6823,
      "Ġtro": 6824,
      "hips": 6825,
      "ĠìķĪëĤ´": 6826,
      "Ġlargely": 6827,
      "Ġkn": 6828,
      "ìĹ°êµ¬": 6829,
      "Ġthoughts": 6830,
      "des": 6831,
      "utive": 6832,
      "Ġpersons": 6833,
      "osen": 6834,
      "ëıĻìĿĦ": 6835,
      "Ġiniti": 6836,
      "Ġvaccine": 6837,
      "Ġmort": 6838,
      "Ġgirls": 6839,
      "Ġìľłì§Ģ": 6840,
      "Ġbrief": 6841,
      "ë¡ľê·¸": 6842,
      "Ġadvance": 6843,
      "'ve": 6844,
      "Ġbud": 6845,
      "point": 6846,
      "Ġauthority": 6847,
      "ND": 6848,
      "Ġprocedure": 6849,
      "Ġmaximum": 6850,
      "ĠSoviet": 6851,
      "Ġcertainly": 6852,
      "ĠTexas": 6853,
      "Ġgrade": 6854,
      "Ġsituations": 6855,
      "Ġmuscles": 6856,
      "ëĵľë¥¼": 6857,
      "Ġemergency": 6858,
      "rich": 6859,
      "Ġextent": 6860,
      "47": 6861,
      "ĠTechnology": 6862,
      "ë¡ľë¶ĢíĦ°": 6863,
      "Ġsurpris": 6864,
      "ĠëıĦìĭľ": 6865,
      "olute": 6866,
      "ĠArmy": 6867,
      "ĠMass": 6868,
      "Ġshowing": 6869,
      "ĠìĿ´ìļ©íķĺìĭ¤": 6870,
      "Ġpolice": 6871,
      "Ġê·¸ëłĩ": 6872,
      "Ġreturned": 6873,
      "ĠElect": 6874,
      "nic": 6875,
      "ulating": 6876,
      "ìľ¼ë¡ľìį¨": 6877,
      "íĬ¼": 6878,
      "Ġsche": 6879,
      "Ġë¯¿": 6880,
      "Ġwet": 6881,
      "Ġwife": 6882,
      "Ġfelt": 6883,
      "Ġexplan": 6884,
      "Ġ300": 6885,
      "Ġstars": 6886,
      "amily": 6887,
      "ĠHol": 6888,
      "Ġplaying": 6889,
      "Ġfirm": 6890,
      "Ġshar": 6891,
      "ĠCommission": 6892,
      "ses": 6893,
      "Ġrand": 6894,
      "Ġë¶Īê°Ģ": 6895,
      "Ġimmig": 6896,
      "Ġliver": 6897,
      "eters": 6898,
      "Ġmix": 6899,
      "ĠLou": 6900,
      "Ġcontribute": 6901,
      "Ġperman": 6902,
      "ëĭ¤ê°Ģ": 6903,
      "Ġminimum": 6904,
      "Ġê½": 6905,
      "Ġquar": 6906,
      "Ġbill": 6907,
      "Ġì£¼ìĭľê¸°": 6908,
      "ĠìķĬìĿĦ": 6909,
      "Ġexplains": 6910,
      "Ġfundamental": 6911,
      "Ġheight": 6912,
      "ì»´": 6913,
      "Ġpul": 6914,
      "ĠMont": 6915,
      "ael": 6916,
      "Ġpark": 6917,
      "ìĤ¬ìĻĢ": 6918,
      "________": 6919,
      "Ġagricultural": 6920,
      "ĠSecond": 6921,
      "Ġnations": 6922,
      "Ġdetailed": 6923,
      "Ġcognitive": 6924,
      "2017": 6925,
      "Ġsounds": 6926,
      "oral": 6927,
      "Ġdynam": 6928,
      "Ġliquid": 6929,
      "ë³´ê³ł": 6930,
      "Ġspecifically": 6931,
      "ĠEnergy": 6932,
      "Ġresponsibility": 6933,
      "Ġsalt": 6934,
      "Ġsend": 6935,
      "ĠíĬ¹ë³Ħ": 6936,
      "89": 6937,
      "ĠBen": 6938,
      "Ġmonitoring": 6939,
      "Ġë§ĲìĶĢ": 6940,
      "Ġrandom": 6941,
      "Ġsyn": 6942,
      "DF": 6943,
      "field": 6944,
      "ë¥´ê³ł": 6945,
      "Ġexcellent": 6946,
      "ë¦¬ìĿĺ": 6947,
      "othing": 6948,
      "Ġtreatments": 6949,
      "ì¼ĢìĿ´": 6950,
      "85": 6951,
      "what": 6952,
      "ĠIP": 6953,
      "ĠìĹ°ëĿ½": 6954,
      "Ġìŀ¥ìĨĮ": 6955,
      "Ġbiological": 6956,
      "zy": 6957,
      "oughly": 6958,
      "âĹ": 6959,
      "Ġmere": 6960,
      "ested": 6961,
      "Ġ2020": 6962,
      "ê·ł": 6963,
      "Ġwel": 6964,
      "46": 6965,
      "ĠSte": 6966,
      "iced": 6967,
      "Ġclaims": 6968,
      "ĠBC": 6969,
      "ìŀĲìĻĢ": 6970,
      "Ġrefers": 6971,
      "Ġadvice": 6972,
      "Ġbright": 6973,
      "Ġsubjects": 6974,
      "Ġpotentially": 6975,
      "Ġfaster": 6976,
      "roc": 6977,
      "Ġhyper": 6978,
      "ville": 6979,
      "Ġhospital": 6980,
      "ĠInformation": 6981,
      "ey": 6982,
      "®¤": 6983,
      "ÃŃ": 6984,
      "Ġonto": 6985,
      "ĠMil": 6986,
      "íĬ¸ë¥¼": 6987,
      "osa": 6988,
      "ê²½ìłľ": 6989,
      "Ġlik": 6990,
      "Ġdu": 6991,
      "Ġotherwise": 6992,
      "Ġneighbor": 6993,
      "ìľµ": 6994,
      "ĠìĽĶ": 6995,
      "Ġneut": 6996,
      "Ġhabitat": 6997,
      "ails": 6998,
      "ĠìĿ´ìļ©íķ´": 6999,
      "ĠDel": 7000,
      "ìĪĻ": 7001,
      "ĠData": 7002,
      "Ġplayed": 7003,
      "ĠTwo": 7004,
      "Ġpros": 7005,
      "ìķĶ": 7006,
      "unk": 7007,
      "Ġgreatest": 7008,
      "Ġìĺ¨ëĿ¼ìĿ¸": 7009,
      "Ġecosystem": 7010,
      "Ġaren": 7011,
      "ĠOut": 7012,
      "ĠRights": 7013,
      "Ġcareer": 7014,
      "Ġsuggested": 7015,
      "Ġspend": 7016,
      "ĠíķŃê³µíİ¸ìĿĦ": 7017,
      "pat": 7018,
      "ìłĲìĿĦ": 7019,
      "Ġattacks": 7020,
      "ëĶ©": 7021,
      "LE": 7022,
      "Ġnan": 7023,
      "Ġexternal": 7024,
      "ava": 7025,
      "resents": 7026,
      "Ġvital": 7027,
      "Ġmetab": 7028,
      "ĠRussia": 7029,
      "Ġìķħ": 7030,
      "ĠìķĶ": 7031,
      "ĠFurther": 7032,
      "ìĽĮíģ¬": 7033,
      "Ġconsists": 7034,
      "ĠìĪĺì¤Ģ": 7035,
      "Ġoperating": 7036,
      "ometimes": 7037,
      "ìĤ¬ìĹħ": 7038,
      "ìĽĲìĿ´": 7039,
      "Ġsin": 7040,
      "Ġrecognized": 7041,
      "lar": 7042,
      "anges": 7043,
      "band": 7044,
      "ĠCle": 7045,
      "Ġincreasingly": 7046,
      "Ġcontrolled": 7047,
      "Ġsatis": 7048,
      "ĠìĥĿìĤ°": 7049,
      "Ġlooked": 7050,
      "ĠGoogle": 7051,
      "Ġdri": 7052,
      "Ġvast": 7053,
      "ĠLatin": 7054,
      "ĠJose": 7055,
      "Ġnerv": 7056,
      "Ġperspective": 7057,
      "Ġcharacters": 7058,
      "Ġcontinuous": 7059,
      "inent": 7060,
      "ĠìĶ¨": 7061,
      "Ġbird": 7062,
      "istan": 7063,
      "Ġhundreds": 7064,
      "ĠSou": 7065,
      "Ġtypical": 7066,
      "ĠëĦ£": 7067,
      "Ġnutrients": 7068,
      "Ġmoist": 7069,
      "Ġapproaches": 7070,
      "ĠEconom": 7071,
      "Ġroll": 7072,
      "Ġkeeping": 7073,
      "Ġstone": 7074,
      "íĤ¨": 7075,
      "Ġtitle": 7076,
      "Ġslightly": 7077,
      "Ġallerg": 7078,
      "Ġmeasured": 7079,
      "Ġ1999": 7080,
      "Ġcouple": 7081,
      "Ġdivided": 7082,
      "Ġimpacts": 7083,
      "Ġhappened": 7084,
      "Ġinstrument": 7085,
      "Ġprison": 7086,
      "ĠëĬ¥": 7087,
      "Ġì°¾ìĿĦ": 7088,
      "Ġfle": 7089,
      "rolog": 7090,
      "Ġoral": 7091,
      "ĠDise": 7092,
      "Ġfamiliar": 7093,
      "ĠOffice": 7094,
      "Ġwww": 7095,
      "ĠëĲĺìĹĪëĭ¤": 7096,
      "íĥķ": 7097,
      "enses": 7098,
      "ê¸°ë¡ľ": 7099,
      "Ġtasks": 7100,
      "Ġarms": 7101,
      "86": 7102,
      "aks": 7103,
      "Ġcomponent": 7104,
      "Ġfif": 7105,
      "ĠìĨĮë¹Ħ": 7106,
      "Ġfollows": 7107,
      "Ġvent": 7108,
      "ëıĦê°Ģ": 7109,
      "Ġrecy": 7110,
      "Ġspiritual": 7111,
      "ìļ°ìĬ¤": 7112,
      "Ġflat": 7113,
      "Ġsurrounding": 7114,
      "ĠToday": 7115,
      "olf": 7116,
      "Ġìłľìŀĳ": 7117,
      "ìĬ¬": 7118,
      "Ġinterests": 7119,
      "ĠíĴĢ": 7120,
      "HO": 7121,
      "roid": 7122,
      "¼ìĨĲ": 7123,
      "ë§Īëĭ¤": 7124,
      "Ġfiles": 7125,
      "Ġë¥": 7126,
      "that": 7127,
      "ĠBoth": 7128,
      "Ġë°Ģ": 7129,
      "ìĻķ": 7130,
      "Ġëĳĺ": 7131,
      "ĠUp": 7132,
      "Ġinstruction": 7133,
      "Ġabuse": 7134,
      "Ġvehicle": 7135,
      "Im": 7136,
      "ì¤Ħ": 7137,
      "Ġbow": 7138,
      "Ġê¸ī": 7139,
      "ĠìĤ¬ëŀĮìĿ´": 7140,
      "Ġdepth": 7141,
      "stood": 7142,
      "ĠRef": 7143,
      "Ġspl": 7144,
      "ĠPacific": 7145,
      "ĠDef": 7146,
      "Ġproport": 7147,
      "Ġdocuments": 7148,
      "ĠLearning": 7149,
      "ĠMiddle": 7150,
      "ë¡¯": 7151,
      "ìłľë¥¼": 7152,
      "Ġperiods": 7153,
      "Ġsector": 7154,
      "76": 7155,
      "la": 7156,
      "ì¤": 7157,
      "Ġknew": 7158,
      "ĠíĺĦëĮĢ": 7159,
      "Ġastron": 7160,
      "ìĿ´ëĵľ": 7161,
      "Ġëĭ¹ìĭľ": 7162,
      "down": 7163,
      "ìłĦìĹĲ": 7164,
      "Ġimmun": 7165,
      "ê²łëĭ¤": 7166,
      "Ġstudied": 7167,
      "Ġìĸ¸ìłľ": 7168,
      "Ġì¦Ŀê°Ģ": 7169,
      "Ġstem": 7170,
      "Ġ2019": 7171,
      "ĠCatholic": 7172,
      "ĠìĤ°ìĹħ": 7173,
      "ëĮĢíķľ": 7174,
      "Ġdisapp": 7175,
      "Ġtopics": 7176,
      "ĠFoundation": 7177,
      "net": 7178,
      "ĠSupp": 7179,
      "Ġages": 7180,
      "ì¶©": 7181,
      "cis": 7182,
      "Ġofficials": 7183,
      "Ġhelpful": 7184,
      "Ġë¶ĦìŁģ": 7185,
      "Ġthin": 7186,
      "Ġaffects": 7187,
      "Ġgovernments": 7188,
      "Ġdouble": 7189,
      "ĠStand": 7190,
      "Ġexplained": 7191,
      "reland": 7192,
      "state": 7193,
      "Re": 7194,
      "ìĿ´ê°Ģ": 7195,
      "eck": 7196,
      "Ġì¹ľêµ¬": 7197,
      "CS": 7198,
      "ellect": 7199,
      "Ġhaz": 7200,
      "ìĬ¤íĥĢ": 7201,
      "Ġíķĺì§Ģ": 7202,
      "ê±°ë¦¬": 7203,
      "Do": 7204,
      "ipped": 7205,
      "Ġclim": 7206,
      "Ġappeared": 7207,
      "Ġnaturally": 7208,
      "rastructure": 7209,
      "Ġconcentration": 7210,
      "ĠPost": 7211,
      "ĠNor": 7212,
      "Ġtrain": 7213,
      "ìĪĺë¥¼": 7214,
      "ìĹĪëįĺ": 7215,
      "ompl": 7216,
      "ague": 7217,
      "Ġrepresents": 7218,
      "Ġìĸ¼ë§Ī": 7219,
      "ificial": 7220,
      "isp": 7221,
      "ĠFlor": 7222,
      "ĠCharles": 7223,
      "active": 7224,
      "ĠëĤĺëĿ¼": 7225,
      "Ġreform": 7226,
      "ëıĦìĿĺ": 7227,
      "ĠMem": 7228,
      "atever": 7229,
      "Ġfacilities": 7230,
      "Ġportion": 7231,
      "itage": 7232,
      "Ġë³´ëĤ´": 7233,
      "Ġsubstant": 7234,
      "cest": 7235,
      "hi": 7236,
      "inding": 7237,
      "ìļĶê¸Ī": 7238,
      "Ġdepends": 7239,
      "inger": 7240,
      "ĠWild": 7241,
      "Ġapparent": 7242,
      "ë¨¸ëĭĪ": 7243,
      "ĠìļĶê¸ĪìĿ´": 7244,
      "iled": 7245,
      "Ġvalid": 7246,
      "ìłĢëĬĶ": 7247,
      "Ġsen": 7248,
      "Ġaccurate": 7249,
      "íħĲì¸ł": 7250,
      "ĠíĦ°": 7251,
      "Ġ)": 7252,
      "Ġconvent": 7253,
      "Ġmedications": 7254,
      "Ġgoods": 7255,
      "Ġcontaining": 7256,
      "Ġì£¼ìļĶ": 7257,
      "ĠTreat": 7258,
      "ĠìĪĺìĺģìŀ¥": 7259,
      "ĠHot": 7260,
      "Ġclosely": 7261,
      "Ġtested": 7262,
      "Ġìļ°ë¦¬ëĬĶ": 7263,
      "Ġwalls": 7264,
      "More": 7265,
      "ê´Ģë¦¬": 7266,
      "Ġmovements": 7267,
      ".;": 7268,
      "ê´": 7269,
      "Ġtips": 7270,
      "Ġrural": 7271,
      "Ġchann": 7272,
      "igenous": 7273,
      "Ġlose": 7274,
      "Ġdiscrim": 7275,
      "Ġâĸ": 7276,
      "Ġmoral": 7277,
      "Ġcontem": 7278,
      "ĠìķĦì§ģ": 7279,
      "lers": 7280,
      "racy": 7281,
      "celer": 7282,
      "ĠEmp": 7283,
      "âĢĻ.": 7284,
      "Ġìĥī": 7285,
      "Ġdiscovery": 7286,
      "mas": 7287,
      "itness": 7288,
      "ĠìħĢ": 7289,
      "Ġdirector": 7290,
      "ĸìĹĲ": 7291,
      "Ġrein": 7292,
      "Ġsubsequ": 7293,
      "ĠíĥĪ": 7294,
      "Ġfeelings": 7295,
      "Ġstret": 7296,
      "ny": 7297,
      "Ġpray": 7298,
      "ĠíİĺìĿ´ì§Ģ": 7299,
      "Ġkil": 7300,
      "gal": 7301,
      "ìĿ´ìĹĲ": 7302,
      "ê³¨": 7303,
      "Ġinvestment": 7304,
      "Ġoutcomes": 7305,
      "ĠìķĮê³ł": 7306,
      "Ġcrucial": 7307,
      "ĠëĤ®": 7308,
      "Ġê°ľìĦł": 7309,
      "~~": 7310,
      "Ġwestern": 7311,
      "Ġrail": 7312,
      "ĠìĿ´ìķ¼ê¸°": 7313,
      "Ġcrops": 7314,
      "Ġproteins": 7315,
      "Ġselected": 7316,
      "ìĽĢìĿĦ": 7317,
      "Ġìŀħëł¥": 7318,
      "Ġcrisis": 7319,
      "iest": 7320,
      "alian": 7321,
      "ĠLake": 7322,
      "ë£¹": 7323,
      "Ġvisible": 7324,
      "ĠHistor": 7325,
      "ĠMicrosoft": 7326,
      "íķĺìĭł": 7327,
      "Ġleaving": 7328,
      "ĠëªħìĺĪ": 7329,
      "Ġtried": 7330,
      "ĠGroup": 7331,
      "íĶ½": 7332,
      "ìĦ¸ê³Ħ": 7333,
      "Cont": 7334,
      "anta": 7335,
      "umin": 7336,
      "Ġviews": 7337,
      "Ġconcerned": 7338,
      "ĠNature": 7339,
      "ìĬ¤íĦ°": 7340,
      "Ġingred": 7341,
      "chers": 7342,
      "nel": 7343,
      "ĠWomen": 7344,
      "Ġsuffering": 7345,
      "Ġpaint": 7346,
      "Ġpaid": 7347,
      "Ġchief": 7348,
      "Ġemployees": 7349,
      "ëĨĵ": 7350,
      "Ġrapidly": 7351,
      "IP": 7352,
      "Ġweap": 7353,
      "ìłķíķľ": 7354,
      "Ġdeliver": 7355,
      "ascular": 7356,
      "alse": 7357,
      "asp": 7358,
      "ìĵ": 7359,
      "ĠìĿĮìķħ": 7360,
      "ëĵ¤ëıĦ": 7361,
      "Ġ1980": 7362,
      "Ġleadership": 7363,
      "NS": 7364,
      "ìľ¼ëĤĺ": 7365,
      "íĴį": 7366,
      "Ġstated": 7367,
      "Ġalt": 7368,
      "Ġelev": 7369,
      "My": 7370,
      "ìĿ´ëŀĢ": 7371,
      "ĠPsych": 7372,
      "ĠíĻĪ": 7373,
      "eria": 7374,
      "Ġgrown": 7375,
      "ibl": 7376,
      "hma": 7377,
      "ìĦ±ìĹĲ": 7378,
      "Ġmarine": 7379,
      "Ġê·¸ëŀĺìĦľ": 7380,
      "Ġcurriculum": 7381,
      "Ġju": 7382,
      "osph": 7383,
      "Ġê°Ģìł¸": 7384,
      "Ġparties": 7385,
      "ĠìĿ´ëıĻ": 7386,
      "rating": 7387,
      "osc": 7388,
      "ĠSea": 7389,
      "Ġmyth": 7390,
      "Ġcircumst": 7391,
      "athy": 7392,
      "ìĿ´ì§Ģ": 7393,
      "oster": 7394,
      "Another": 7395,
      "ĠControl": 7396,
      "Ġsmart": 7397,
      "Gen": 7398,
      "Ind": 7399,
      "ìĭľë©´": 7400,
      "ĠìłĦìŀ¬": 7401,
      ".âĢĻ": 7402,
      "ìĪĺê°Ģ": 7403,
      "Ġharvest": 7404,
      "ĠëĮĢíķĺìĹ¬": 7405,
      "ĠìĤ¬ìļ©íķł": 7406,
      "Ġfruits": 7407,
      "Ġfunding": 7408,
      "CD": 7409,
      "Ġadding": 7410,
      "ĠìŀĲìĦ¸íŀĪ": 7411,
      "Ġdiscussed": 7412,
      "dden": 7413,
      "ìĬ¤ë¡ľ": 7414,
      "2016": 7415,
      "Ġod": 7416,
      "During": 7417,
      "Ġëª¨ëį¸": 7418,
      "ĠAp": 7419,
      "ĠìĿ´ëĬĶ": 7420,
      "%)": 7421,
      "êµ¬ìļĶ": 7422,
      "Ġê³µê°ľ": 7423,
      "ĠPers": 7424,
      "ĠìłķìĿĺ": 7425,
      "Ġpig": 7426,
      "Ġmedium": 7427,
      "Ġsecure": 7428,
      "hist": 7429,
      "ëĬĶëĭ¤": 7430,
      "ĠCompany": 7431,
      "ĠInstead": 7432,
      "Ġdefic": 7433,
      "Ġëĭµ": 7434,
      "Ġê°ľëħĲ": 7435,
      "Ġsed": 7436,
      "Ġdream": 7437,
      "ëĲĺë©°": 7438,
      "Ġë§¤ìĿ¼": 7439,
      "ĠCarol": 7440,
      "Ġëĵ¯": 7441,
      "Ġdiam": 7442,
      "ìĿ´ìħĺ": 7443,
      "Ġcorrespond": 7444,
      "Ġresidents": 7445,
      "].": 7446,
      "ĠSuch": 7447,
      "attle": 7448,
      "ĠìĹ¬ê¸°": 7449,
      "ĠColumb": 7450,
      "icks": 7451,
      "ìĿ¸ìĿĦ": 7452,
      "Ġsides": 7453,
      "Te": 7454,
      "ooth": 7455,
      "rem": 7456,
      "ĠIreland": 7457,
      "Ġê°Ģìļ´ëį°": 7458,
      "ĠRobert": 7459,
      "Ġdial": 7460,
      "ìĤ¬ìĿ´íĬ¸": 7461,
      "íĤ¹": 7462,
      "ìŀ¥ìĹĲìĦľ": 7463,
      "ìĬ¤íĨłëŀĳ": 7464,
      "obe": 7465,
      "ĠëķĮë¬¸ìĿ´ëĭ¤": 7466,
      "Ġaccompl": 7467,
      "ĠìĤ¬ëŀĮëĵ¤ìĿ´": 7468,
      "ĠíķĻêµĲ": 7469,
      "umber": 7470,
      "Ġfloor": 7471,
      "Ġëľ»": 7472,
      "ĠPower": 7473,
      "Ġë°©ìĨ¡": 7474,
      "Ġroots": 7475,
      "Ġjustice": 7476,
      "ulin": 7477,
      "Ġ1998": 7478,
      "Ġë¶Ħìķ¼": 7479,
      "ĠEngine": 7480,
      "pass": 7481,
      "ĠìŀĲê¸°": 7482,
      "Ġcolors": 7483,
      "Ġflight": 7484,
      "Ġband": 7485,
      "Dr": 7486,
      "Ġphone": 7487,
      "Ġëª©ìłģ": 7488,
      "Ġdomestic": 7489,
      "ĠSmith": 7490,
      "Ġnarrow": 7491,
      "ëĮĢë¥¼": 7492,
      "ĠLand": 7493,
      "ëį°ìĿ´íĬ¸": 7494,
      "ĠUsing": 7495,
      "Ġaccomp": 7496,
      "Ġargument": 7497,
      "Ġcapable": 7498,
      "Ġdistingu": 7499,
      "Ġopinion": 7500,
      "Ġê¸°ê°Ħ": 7501,
      "ĠìĿ´ë£¨ìĸ´": 7502,
      "CT": 7503,
      "Ġëŀ": 7504,
      "Ġêµ¬ì¡°": 7505,
      "Ġregularly": 7506,
      "ĠManagement": 7507,
      "Ġtouch": 7508,
      "De": 7509,
      "ĠMake": 7510,
      "gment": 7511,
      "ĠNav": 7512,
      "ìļĶìĨĮ": 7513,
      "Ġlatest": 7514,
      "ĠHenry": 7515,
      "ĠLike": 7516,
      "anguage": 7517,
      "Ġtalking": 7518,
      "ĠVirginia": 7519,
      "Ġê¿Ī": 7520,
      "ĠLibrary": 7521,
      "Ġsimpl": 7522,
      "ĠAnother": 7523,
      "Ġextract": 7524,
      "Ġíĺķíĥľ": 7525,
      "rants": 7526,
      "ĠConstitution": 7527,
      "Ġsudden": 7528,
      "ê·¸ëŁ¬": 7529,
      "Ġdecrease": 7530,
      "Ġë°©ìĭĿ": 7531,
      "Ġbusinesses": 7532,
      "Ġobtained": 7533,
      "Ġrecon": 7534,
      "Ġconscious": 7535,
      "Ġpictures": 7536,
      "Ġë£¨": 7537,
      "ĠEnvironmental": 7538,
      "Ġrecovery": 7539,
      "íļĮë¥¼": 7540,
      "Ġì»¤íĶ¼": 7541,
      "Ġimpossible": 7542,
      "Ġë¬´ë£Įë¡ľ": 7543,
      "Ġprevention": 7544,
      "ario": 7545,
      "Ġmuseum": 7546,
      "Ġsets": 7547,
      "Go": 7548,
      "asive": 7549,
      "Ġpoet": 7550,
      "Ġëĸ¨ìĸ´": 7551,
      "Ġë¶Ģê³¼": 7552,
      "Ġvillage": 7553,
      "Ġfertil": 7554,
      "Ġê´": 7555,
      "Ġê²ĥëıĦ": 7556,
      "tenance": 7557,
      "ë¥´ë©´": 7558,
      "Ľ°": 7559,
      "ocratic": 7560,
      "Ġmit": 7561,
      "Ġinflammation": 7562,
      "ĠTem": 7563,
      "Sc": 7564,
      "long": 7565,
      "Ġhorse": 7566,
      "ìĽĢìĿ´": 7567,
      "ĠìŀĲì²´": 7568,
      "ëıĻìķĪ": 7569,
      "Ġinterview": 7570,
      "ë¥´ê²Į": 7571,
      "ĠìĿ´ëĤ´": 7572,
      "Ġexpensive": 7573,
      "spec": 7574,
      "Ġsubstance": 7575,
      "Ġprecise": 7576,
      "Ġraise": 7577,
      "bi": 7578,
      "Ġpil": 7579,
      "ĠJud": 7580,
      "ĠISBN": 7581,
      "Ġmillions": 7582,
      "rust": 7583,
      "ini": 7584,
      "ĠProv": 7585,
      "ê°Ŀìĭ¤": 7586,
      "Ġrecognize": 7587,
      "Ġê¶ģ": 7588,
      "liam": 7589,
      "Ġgun": 7590,
      "Ġlessons": 7591,
      "ston": 7592,
      "Ġrestrict": 7593,
      "Ġble": 7594,
      "Ġë³´ê¸°": 7595,
      "prise": 7596,
      "Ġprinciple": 7597,
      "Ġadvoc": 7598,
      "Ġcomputers": 7599,
      "ëįķ": 7600,
      "Ġhunt": 7601,
      "ìĹĦ": 7602,
      "Ġformal": 7603,
      "Ġtrad": 7604,
      "Ġcardi": 7605,
      "ada": 7606,
      "ĠìĭĿìĤ¬": 7607,
      "lements": 7608,
      "Ġvaluable": 7609,
      "Ġhouses": 7610,
      "Ġbones": 7611,
      "íĬ¸ìĽĮíģ¬": 7612,
      "ĠReview": 7613,
      "ĠìŀĪì§Ģë§Į": 7614,
      "Ġpump": 7615,
      "íķ´ì£¼": 7616,
      "Ġdeaths": 7617,
      "ĠStudies": 7618,
      "Ġlaun": 7619,
      "Įĵ": 7620,
      "inet": 7621,
      "olve": 7622,
      "ìłĦíŀĪ": 7623,
      "ĠìĦľë¡ľ": 7624,
      "mic": 7625,
      "Ġpure": 7626,
      "íĭ´": 7627,
      "Other": 7628,
      "Ġinfected": 7629,
      "Ġrecip": 7630,
      "ê·Ģ": 7631,
      "Ġê´ĳê³ł": 7632,
      "no": 7633,
      "Ġpu": 7634,
      "ìĦ±ê³¼": 7635,
      "ì²´íģ¬ìĿ¸": 7636,
      "ĠFederal": 7637,
      "Ġprices": 7638,
      "ĠWil": 7639,
      "Ġìĭłì²Ń": 7640,
      "Ġsatell": 7641,
      "bing": 7642,
      "Ġexchange": 7643,
      "ĠNations": 7644,
      "uke": 7645,
      "Ġmoon": 7646,
      "ĠKen": 7647,
      "Ġcalls": 7648,
      "Ġprocedures": 7649,
      "ĠTor": 7650,
      "Ġëĥī": 7651,
      "Ġì¹ĺë£Į": 7652,
      "ĠBet": 7653,
      "ĠBul": 7654,
      "Ġdut": 7655,
      "Ġdriving": 7656,
      "Ġinternet": 7657,
      "Ġparam": 7658,
      "Ġintroduction": 7659,
      "Ġincl": 7660,
      "ĠìĦ±ìŀ¥": 7661,
      "uses": 7662,
      "fall": 7663,
      "Ġapart": 7664,
      "Ġbrown": 7665,
      "anda": 7666,
      "ĠíļĮìĤ¬": 7667,
      "Ġ189": 7668,
      "Ġdescribes": 7669,
      "ĠìĿĦ": 7670,
      "Ġnormally": 7671,
      "ĠSum": 7672,
      "uilding": 7673,
      "Ġregional": 7674,
      "ĠAlex": 7675,
      "Ġinterf": 7676,
      "ëıĦë¡ľ": 7677,
      "Ġunlike": 7678,
      "Ġclosed": 7679,
      "íĹĮ": 7680,
      "ìĤ¼": 7681,
      "Ġfrag": 7682,
      "struct": 7683,
      "Ġë°ĿíĺĶëĭ¤": 7684,
      "ka": 7685,
      "Us": 7686,
      "IL": 7687,
      "Ġchapter": 7688,
      "ffee": 7689,
      "ola": 7690,
      "Ġë³´ì¦Ŀ": 7691,
      "cling": 7692,
      "imer": 7693,
      "ĠOx": 7694,
      "See": 7695,
      "ĠBre": 7696,
      "ì§Ģë§ī": 7697,
      "Ġsuffer": 7698,
      "Ġoriginally": 7699,
      "ëĲĲëĭ¤": 7700,
      "ëı¼": 7701,
      "ĠëĬĲëĤĮ": 7702,
      "79": 7703,
      "íĤ¬": 7704,
      "ĠExpl": 7705,
      "Ġwindow": 7706,
      "ìĽĲìĿĢ": 7707,
      "Ġprotocol": 7708,
      "Ġì²ĺë¦¬": 7709,
      "âħ": 7710,
      "Ġnetworks": 7711,
      "Ġmamm": 7712,
      "Ġaccepted": 7713,
      "Ġsan": 7714,
      "exp": 7715,
      "pping": 7716,
      "ibilities": 7717,
      "ota": 7718,
      "Ġcorpor": 7719,
      "ĠCommit": 7720,
      "Ġ1970": 7721,
      "ĠíĴĪ": 7722,
      "ĠPM": 7723,
      "vironments": 7724,
      "olester": 7725,
      "abil": 7726,
      "ctic": 7727,
      "ĠCanadian": 7728,
      "ĠLabor": 7729,
      "ìłķë¶Ģ": 7730,
      "agues": 7731,
      "Ġê±°ìĿĺ": 7732,
      "free": 7733,
      "bert": 7734,
      "Ġinsurance": 7735,
      "ĠUSA": 7736,
      "Ġì¼ĢìĿ´": 7737,
      "aria": 7738,
      "Ġpossibility": 7739,
      "ëĵľìĭľ": 7740,
      "Ġpossibly": 7741,
      "Ġmobile": 7742,
      "Ġpretty": 7743,
      "Ġantibiot": 7744,
      "mbly": 7745,
      "Ġsurvival": 7746,
      "ita": 7747,
      "ymph": 7748,
      "Ġera": 7749,
      "inations": 7750,
      "Ġtoler": 7751,
      "ĠSaf": 7752,
      "Ġstored": 7753,
      "íĦ¸": 7754,
      "EP": 7755,
      "ĠìĤ¬ê±´": 7756,
      "Ġlifest": 7757,
      "Ġguidelines": 7758,
      "rors": 7759,
      "ĠLeg": 7760,
      "Ġíĺ¹ìĿĢ": 7761,
      "ì¦ĪëĭĪìĬ¤": 7762,
      "hemical": 7763,
      "Ġancest": 7764,
      "Ġtal": 7765,
      "alysis": 7766,
      "ë¦¬ì§Ģ": 7767,
      "Ġabsolute": 7768,
      "lastname": 7769,
      "Se": 7770,
      "Ġunderstood": 7771,
      "Ġscholars": 7772,
      "Ġrid": 7773,
      "Ġtow": 7774,
      "ican": 7775,
      "ëĿ¼ìļ°": 7776,
      "Ġmarriage": 7777,
      "69": 7778,
      "Ġfacilit": 7779,
      "ì»¨": 7780,
      "ĠMo": 7781,
      "ëıĻë¬¼": 7782,
      "Ġphr": 7783,
      "Ġwarming": 7784,
      "Ġagreement": 7785,
      "Ġstages": 7786,
      "Ġì§ĢìĨį": 7787,
      "Ġcreative": 7788,
      "Ġspeaking": 7789,
      "Ġenhance": 7790,
      "Ġaw": 7791,
      "itt": 7792,
      "Ġopened": 7793,
      "43": 7794,
      "Ġformat": 7795,
      "othe": 7796,
      "ìĥģìĿ´": 7797,
      "Ġadopted": 7798,
      "liament": 7799,
      "ĠIT": 7800,
      "ĠìŀĳìĿĢ": 7801,
      "Ġíĳľìĭľ": 7802,
      "Ġagriculture": 7803,
      "íķĺëĬĶëį°": 7804,
      "ĠTer": 7805,
      "ifies": 7806,
      "Ġlands": 7807,
      "Ġintake": 7808,
      "ìĽĲìĹĲ": 7809,
      "Ġcandid": 7810,
      "ĠAtt": 7811,
      "Ġapprec": 7812,
      "ĠScient": 7813,
      "eer": 7814,
      "ľĺ": 7815,
      "Ġíķĺë©´": 7816,
      "Ġprepare": 7817,
      "DP": 7818,
      "Ġdepos": 7819,
      "Ġappearance": 7820,
      "ato": 7821,
      "Ġproducing": 7822,
      "Ġdigest": 7823,
      "Ġpregnancy": 7824,
      "ìĸ´ë¥¼": 7825,
      "oted": 7826,
      "amil": 7827,
      "ĠíĬ¹ì§ķ": 7828,
      "Ġshel": 7829,
      "Ġsecondary": 7830,
      "ĠëłĪìĬ¤íĨłëŀĳ": 7831,
      "Ġtroops": 7832,
      "Ġpush": 7833,
      "cel": 7834,
      "add": 7835,
      "Ġslowly": 7836,
      "ê¹ĮìļĶ": 7837,
      "Ġë¹Ħìļ©": 7838,
      "Ġ~": 7839,
      "ë§İ": 7840,
      "Ġunless": 7841,
      "Ġgenerate": 7842,
      "Ġaccounts": 7843,
      "ĠGet": 7844,
      "Ġlatter": 7845,
      "íĶĦíĬ¸ìĽ¨ìĸ´": 7846,
      "ĠSk": 7847,
      "Ġê³łê°ĿìĦ¼íĦ°": 7848,
      "ĠìĹĨìĿĮ": 7849,
      "Ġì¶Ķì²ľ": 7850,
      "olesterol": 7851,
      "Ġinfrastructure": 7852,
      "Ġìĺµ": 7853,
      "Ġperce": 7854,
      "ĠíĻ©": 7855,
      "Ġsupplement": 7856,
      "being": 7857,
      "Ġsensitive": 7858,
      "igation": 7859,
      "ĠGood": 7860,
      "Ġëħ¸ëıĻ": 7861,
      "Ġcomprehensive": 7862,
      "Ġtail": 7863,
      "omach": 7864,
      "Ġwors": 7865,
      "ĠLouis": 7866,
      "ĠBro": 7867,
      "Ġsuc": 7868,
      "Ġinches": 7869,
      "Ġtransmission": 7870,
      "Ġsoldiers": 7871,
      "teries": 7872,
      "Ġimper": 7873,
      "íĹĪ": 7874,
      "Ġentirely": 7875,
      "Ġcreates": 7876,
      "Ġmedication": 7877,
      "tage": 7878,
      "ĠId": 7879,
      "Ġaircraft": 7880,
      "Ġlabel": 7881,
      "esity": 7882,
      "ìľĦì¹ĺ": 7883,
      "Ġtun": 7884,
      "Ġtraffic": 7885,
      "Ġadministration": 7886,
      "Ġdiversity": 7887,
      "Ġshell": 7888,
      "itan": 7889,
      "Ġstock": 7890,
      "Ġintelligence": 7891,
      "oto": 7892,
      "Ġrub": 7893,
      "Ġdatabase": 7894,
      "Ġnarr": 7895,
      "ĠCommon": 7896,
      "ì§Ħëĭ¤": 7897,
      "Ġacts": 7898,
      "ĠDiv": 7899,
      "Ġsick": 7900,
      "Ġchain": 7901,
      "Ġíİĺ": 7902,
      "PC": 7903,
      "ona": 7904,
      "ĠìŀĲë¦¬": 7905,
      "ditionally": 7906,
      "Ġíģ¬ê²Į": 7907,
      "ĠìĹĶ": 7908,
      "ĠëĨĢ": 7909,
      "Ġlisted": 7910,
      "Ġrepeated": 7911,
      "Ġlandscape": 7912,
      "OC": 7913,
      "Ġintellect": 7914,
      "Ġfell": 7915,
      "urd": 7916,
      "Ġinject": 7917,
      "inder": 7918,
      "Ġì§Ģë°©": 7919,
      "ĠìŀĪìĸ´ìĦľ": 7920,
      "stream": 7921,
      "ëĤ¸": 7922,
      "ĠKnow": 7923,
      "Ġtwice": 7924,
      "Ġê¼Ń": 7925,
      "Ġ32": 7926,
      "Ġequival": 7927,
      "war": 7928,
      "Ġwear": 7929,
      "ĠAnn": 7930,
      "Ġerror": 7931,
      "indu": 7932,
      "Ġachieved": 7933,
      "ye": 7934,
      "Ġtiny": 7935,
      "orith": 7936,
      "ëĶĶìĺ¤": 7937,
      "Ġmassive": 7938,
      "Ġwire": 7939,
      "Ġfigures": 7940,
      "íıŃ": 7941,
      "Ġextensive": 7942,
      "Ġstarts": 7943,
      "Ġpossess": 7944,
      "Ġrevealed": 7945,
      "ìĿ´ìĸ´": 7946,
      "ĠìĿµ": 7947,
      "Ġsurf": 7948,
      "Ġworldwide": 7949,
      "42": 7950,
      "flow": 7951,
      "icon": 7952,
      "ê¾¸": 7953,
      "inn": 7954,
      "ĠëĿ¼ìĿ´": 7955,
      "ĠGold": 7956,
      "68": 7957,
      "En": 7958,
      "IM": 7959,
      "Ġrefuge": 7960,
      "67": 7961,
      "Ġreject": 7962,
      "Ġframework": 7963,
      "ĠìłĢëł´íķľ": 7964,
      "ê¸°ìĪł": 7965,
      "Ġworse": 7966,
      "ĠíĿ¬": 7967,
      "Ġdoctors": 7968,
      "ĠDan": 7969,
      "Ġbehaviour": 7970,
      "Ġgather": 7971,
      "ĠLab": 7972,
      "?\"": 7973,
      "Ã¼": 7974,
      "Ġedge": 7975,
      "ĠFlorida": 7976,
      "acts": 7977,
      "Ġagencies": 7978,
      "Ġvehicles": 7979,
      "Ġìľ¡": 7980,
      "Ġsweet": 7981,
      "Ġfill": 7982,
      "nect": 7983,
      "sts": 7984,
      "orter": 7985,
      "osal": 7986,
      "Ġplate": 7987,
      "ypes": 7988,
      "Ġì¡°ì§ģ": 7989,
      "bran": 7990,
      "idden": 7991,
      "Ġroutine": 7992,
      "Ġsell": 7993,
      "ansion": 7994,
      "rot": 7995,
      "ĠKh": 7996,
      "Ġexperiments": 7997,
      "ê³¼ìĿĺ": 7998,
      "ĠìĿ´ìļ©íķł": 7999,
      "Ġstick": 8000,
      "Ġimproving": 8001,
      "ĠTHE": 8002,
      "Ġadequ": 8003,
      "Ġnewsp": 8004,
      "Ġstruggle": 8005,
      "icide": 8006,
      "orrow": 8007,
      "ĠìĹħëį°ìĿ´íĬ¸": 8008,
      "Ġinjuries": 8009,
      "Ġ1997": 8010,
      "ua": 8011,
      "Ġ185": 8012,
      "eper": 8013,
      "Ġinner": 8014,
      "OL": 8015,
      "kins": 8016,
      "zen": 8017,
      "Ġelectronic": 8018,
      "ocracy": 8019,
      "ìķĦìĽĥ": 8020,
      "Ġassistance": 8021,
      "Ġdiverse": 8022,
      "Ġsky": 8023,
      "Ġfailed": 8024,
      "Ġanswers": 8025,
      "Ġmountain": 8026,
      "Ġaf": 8027,
      "ĠMa": 8028,
      "agers": 8029,
      "Ġmanaged": 8030,
      "ĠìĤ´ìķĦ": 8031,
      "ioxide": 8032,
      "Ġminim": 8033,
      "Ġengage": 8034,
      "Ã¶": 8035,
      "Ġpref": 8036,
      "Ġsurvive": 8037,
      "Ġaudience": 8038,
      "Ġplays": 8039,
      "ĠThose": 8040,
      "ìłľê°Ģ": 8041,
      "burg": 8042,
      "abits": 8043,
      "ĠìĨĶ": 8044,
      "Ġì§ĢëĤĺ": 8045,
      "Ġdecline": 8046,
      "Ġinsects": 8047,
      "Ġaqu": 8048,
      "ĠLong": 8049,
      "ì£Ħ": 8050,
      "ĠAustralian": 8051,
      "reed": 8052,
      "Ġprem": 8053,
      "Ġdistrict": 8054,
      "organ": 8055,
      "Ġsuitable": 8056,
      "Ġchart": 8057,
      "ìĤ¬ì§Ħ": 8058,
      "ĠJoseph": 8059,
      "abric": 8060,
      "Ġbudget": 8061,
      "Ġnurs": 8062,
      "Ġcloud": 8063,
      "íĻĺê²½": 8064,
      "Ġbattery": 8065,
      "under": 8066,
      "ena": 8067,
      "Ġsports": 8068,
      "Ġremote": 8069,
      "Ġë§ĮëĤĺ": 8070,
      "Ġdust": 8071,
      "Ġenvironments": 8072,
      "luding": 8073,
      "Ġíķ´ìķ¼": 8074,
      "ĠâĨ": 8075,
      "IA": 8076,
      "ĠHall": 8077,
      "ĠStreet": 8078,
      "Ġsyndrome": 8079,
      "Ġconsid": 8080,
      "ĠìĽĮ": 8081,
      "Ġhappy": 8082,
      "Ġwildlife": 8083,
      "Ġê°Ģê¹Į": 8084,
      "ëłī": 8085,
      "apping": 8086,
      "ĠGlobal": 8087,
      "sey": 8088,
      "ëħĦìĹĲ": 8089,
      "Ġafford": 8090,
      "Ġcalcium": 8091,
      "rine": 8092,
      "ĠHome": 8093,
      "Ġindeed": 8094,
      "ca": 8095,
      "look": 8096,
      "Ġcars": 8097,
      "ki": 8098,
      "ĠCamb": 8099,
      "iform": 8100,
      "Ġgrav": 8101,
      "Ġfoundation": 8102,
      "anged": 8103,
      "ribed": 8104,
      "ìĶ©": 8105,
      "ctive": 8106,
      "Ġìľ¤": 8107,
      "Ġuniverse": 8108,
      "ĠOnly": 8109,
      "Ġwants": 8110,
      "Ġwave": 8111,
      "Ġê²½ìŁģ": 8112,
      "Ġfixed": 8113,
      "Ġsteel": 8114,
      "word": 8115,
      "Ġìľłëªħ": 8116,
      "Ġparalle": 8117,
      "ëªħìĿ´": 8118,
      "Ġconstitution": 8119,
      "ĠBrown": 8120,
      "ĠFe": 8121,
      "ĠìłĦíĻĶ": 8122,
      "ĠFrancis": 8123,
      "Ġobtain": 8124,
      "Ġamb": 8125,
      "normal": 8126,
      "ë¿Ĳ": 8127,
      "ì§ĢìĹŃ": 8128,
      "87": 8129,
      "tra": 8130,
      "ìĿ¸íĬ¸": 8131,
      "Ġhealthcare": 8132,
      "2014": 8133,
      "Ġvote": 8134,
      "erent": 8135,
      "Ġìĩ¼": 8136,
      "ĠPeter": 8137,
      "Ġships": 8138,
      "Ġtruly": 8139,
      "Not": 8140,
      "Ġfilled": 8141,
      "Ġsentence": 8142,
      "Ġcircumstances": 8143,
      "41": 8144,
      "ĠRome": 8145,
      "ĠYet": 8146,
      "Ġremaining": 8147,
      "TM": 8148,
      "ëĿ¼ìļ´": 8149,
      "Ġtransition": 8150,
      "Ġextended": 8151,
      "ĠìĹ¬ëŁ¬ë¶Ħ": 8152,
      "Ġthor": 8153,
      "íķĺìĭŃìĭľìĺ¤": 8154,
      "ê³Ħë¥¼": 8155,
      "ìī¬": 8156,
      "ĠìĬ¤ë§ĪíĬ¸": 8157,
      "Ġdoubt": 8158,
      "arant": 8159,
      "ìŀ¥ìĿĺ": 8160,
      "Ġreaders": 8161,
      "ì§ĢìĹĲ": 8162,
      "Ġproduces": 8163,
      "Ġëķ": 8164,
      "ìķķ": 8165,
      "ĠItaly": 8166,
      "Ġseeing": 8167,
      "ĠIrish": 8168,
      "Ġsight": 8169,
      "Ġopening": 8170,
      "icians": 8171,
      "Ġbroken": 8172,
      "IG": 8173,
      "ivery": 8174,
      "ħëĭĪëĭ¤": 8175,
      "Ġdin": 8176,
      "íİ´": 8177,
      "ĠAbout": 8178,
      "Ġë¨¼ìłĢ": 8179,
      "Ġdensity": 8180,
      "Ġselection": 8181,
      "ìĬ¤ê°Ģ": 8182,
      "Ġexpressed": 8183,
      "inking": 8184,
      "íĶĦë¡ľ": 8185,
      "Ġëħ¸ëł¥": 8186,
      "but": 8187,
      "ĠMad": 8188,
      "ĠìłĦëŀµ": 8189,
      "Read": 8190,
      "ĠìķĦì£¼": 8191,
      "ĠCamp": 8192,
      "ĠOF": 8193,
      "ĠGal": 8194,
      "Ġorganized": 8195,
      "ĠMag": 8196,
      "ĠëıĪ": 8197,
      "Ġchoices": 8198,
      "ĠëĶ°ëĿ¼ìĦľ": 8199,
      "Ġlibrary": 8200,
      "izer": 8201,
      "body": 8202,
      "Ġgall": 8203,
      "ĠJe": 8204,
      "mm": 8205,
      "itative": 8206,
      "ê·¸ëŀĺ": 8207,
      "Ġ75": 8208,
      "ĠíĮĢ": 8209,
      "ĠAcademy": 8210,
      "Ġhus": 8211,
      "Ġìłľê³µëĲ©ëĭĪëĭ¤": 8212,
      "Ġê°ĢëĬ¥íķ©ëĭĪëĭ¤": 8213,
      "Ġtells": 8214,
      "ĠBur": 8215,
      "Ġagency": 8216,
      "Ġíĺģ": 8217,
      "Ġdecide": 8218,
      "from": 8219,
      "ìĬ¤ëŁ¬": 8220,
      "Ġìķ¡": 8221,
      "Ġë§Įëĵł": 8222,
      "Ġgenerated": 8223,
      "ĠëĤĺìĻĢ": 8224,
      "itter": 8225,
      "ĠCare": 8226,
      "Ġacceler": 8227,
      "ropical": 8228,
      "Ġgluc": 8229,
      "ĠëĽ°": 8230,
      "LA": 8231,
      "level": 8232,
      "Ġcourses": 8233,
      "ĠCult": 8234,
      "Ġdiscipl": 8235,
      "Ġíģ´ë¦Ń": 8236,
      "ìĹĺ": 8237,
      "ĠIN": 8238,
      "ĠìłķíĻķ": 8239,
      "ĠêµĲìĪĺ": 8240,
      "wing": 8241,
      "Ġdaughter": 8242,
      "ĠExt": 8243,
      "Ġyounger": 8244,
      "Ġdesire": 8245,
      "ĠSouthern": 8246,
      "ĠSl": 8247,
      "ĠSpain": 8248,
      "Ġharmful": 8249,
      "2012": 8250,
      "ê°ĲìĿĦ": 8251,
      "ëĨį": 8252,
      "inction": 8253,
      "Ġíķľë²Ī": 8254,
      "Ġê¸´": 8255,
      "ĠAny": 8256,
      "Ġauthorities": 8257,
      "cules": 8258,
      "born": 8259,
      "lder": 8260,
      "Ġdecade": 8261,
      "Ġgreatly": 8262,
      "Ġoptim": 8263,
      "heast": 8264,
      "Ġath": 8265,
      "ĠRad": 8266,
      "ì¹Ń": 8267,
      "American": 8268,
      "ĠAS": 8269,
      "Ġabund": 8270,
      "ĠProfessor": 8271,
      "Ġfossil": 8272,
      "Ġcatch": 8273,
      "ora": 8274,
      "ĠVict": 8275,
      "Ġcircuit": 8276,
      "ĠÂ·": 8277,
      "ĠPan": 8278,
      "ĠìķĦë¦Ħ": 8279,
      "Ġdomin": 8280,
      "Ġimplementation": 8281,
      "ĠAP": 8282,
      "ìķĦìļĶ": 8283,
      "Ġmarked": 8284,
      "Ġfounded": 8285,
      "Ġê¸°ëĬ¥ìĿĦ": 8286,
      "ums": 8287,
      "ĠPub": 8288,
      "Ġsharing": 8289,
      "ĠìħĢíĶĦ": 8290,
      "IR": 8291,
      "Ġunknown": 8292,
      "Ġourselves": 8293,
      "Ġì£¼ìŀ¥": 8294,
      "Ġconsistent": 8295,
      "ĠCancer": 8296,
      "Ġmechanism": 8297,
      "63": 8298,
      "Ġsod": 8299,
      "ĠBr": 8300,
      "Ġmaintenance": 8301,
      "ĠëĶ°ë¥¸": 8302,
      "Ġmanufacturing": 8303,
      "Can": 8304,
      "isters": 8305,
      "Ġbear": 8306,
      "ĠVis": 8307,
      "Ġê¹¨": 8308,
      "ĠReport": 8309,
      "Ġìłľê³µíķĺëĬĶ": 8310,
      "Ġì²´íģ¬ìĿ¸": 8311,
      "Ġstomach": 8312,
      "Ġshut": 8313,
      "Ġlocations": 8314,
      "Ġenable": 8315,
      "Ġflag": 8316,
      "Ġë°ĺëĵľìĭľ": 8317,
      "Ġìļ°ë¦¬ê°Ģ": 8318,
      "ĠìŀĪê²Į": 8319,
      "Ġdoor": 8320,
      "Ġpull": 8321,
      "ëĭ·": 8322,
      "Ġdifficulty": 8323,
      "Ġgal": 8324,
      "Ġuns": 8325,
      "Ġê³µìļ©": 8326,
      "Ġcritic": 8327,
      "ĠSol": 8328,
      "ĠíĶĦëŀĳ": 8329,
      "Ġlaboratory": 8330,
      "Ġsubs": 8331,
      "ĠìľłëŁ½": 8332,
      "Ġleaf": 8333,
      "ĠStat": 8334,
      "Ġë¹Ħë¡¯": 8335,
      "ĠìĨĮíĶĦíĬ¸ìĽ¨ìĸ´": 8336,
      "mary": 8337,
      "Ġwish": 8338,
      "Ġchildhood": 8339,
      "ì¼ĢíĮħ": 8340,
      "Ã³": 8341,
      "ê¸°ê´Ģ": 8342,
      "Ġìļ´ëıĻ": 8343,
      "Ġìĸ´ëĶĶ": 8344,
      "Ġë¯¸ëŀĺ": 8345,
      "Ġzone": 8346,
      "íĽ¼ìĨĲ": 8347,
      "gu": 8348,
      "Ġenemy": 8349,
      "Ġprofessionals": 8350,
      "iration": 8351,
      "ĠThrough": 8352,
      "Ġsignals": 8353,
      "Ġcloser": 8354,
      "Ġjourney": 8355,
      "ĬìĿĢ": 8356,
      "Ġwaves": 8357,
      "Ġìłķìĭł": 8358,
      "ĠìĿ¸íķ´": 8359,
      "Ġê´Ģê´ĳ": 8360,
      "ìĥĿíĻľ": 8361,
      "Ġstudying": 8362,
      "ë°ĶìĿ¼": 8363,
      "Ġindicates": 8364,
      "Bl": 8365,
      "ĠTime": 8366,
      "ìĤ°ìĹħ": 8367,
      "ipping": 8368,
      "ictionary": 8369,
      "ĠParis": 8370,
      "ëªħìĿĦ": 8371,
      "Ġdioxide": 8372,
      "ë³´ëĬĶ": 8373,
      "Ġelectron": 8374,
      "61": 8375,
      "ih": 8376,
      "ogue": 8377,
      "Ġprincip": 8378,
      "inity": 8379,
      "Ġfly": 8380,
      "Ġunp": 8381,
      "ëĭĺìĿ´": 8382,
      "Ġsupplies": 8383,
      "Ġstanding": 8384,
      "ĠSecurity": 8385,
      "Ġderived": 8386,
      "icago": 8387,
      "Ġtea": 8388,
      "Ġattend": 8389,
      "elled": 8390,
      "Ġì°¸ê³ł": 8391,
      "Ġdental": 8392,
      "ì§ĢìĿĺ": 8393,
      "Ġmos": 8394,
      "ëĭ¤ìļ´": 8395,
      "ints": 8396,
      "Ġlimits": 8397,
      "Stud": 8398,
      "Ġdestroyed": 8399,
      "called": 8400,
      "Ġsolve": 8401,
      "Ġfewer": 8402,
      "hand": 8403,
      "Ġax": 8404,
      "utch": 8405,
      "Ġscript": 8406,
      "ĠDesign": 8407,
      "ĠCommittee": 8408,
      "Ġdescription": 8409,
      "ëĵ¤ìĹĲ": 8410,
      "Ġpermanent": 8411,
      "Ġfasc": 8412,
      "Ġunable": 8413,
      "ëĭĿ": 8414,
      "ĠìľĦíķĺìĹ¬": 8415,
      "Ġboost": 8416,
      "Ġpowers": 8417,
      "erals": 8418,
      "ëª¬": 8419,
      "opyright": 8420,
      "wo": 8421,
      "ĠëªħìĺĪíĽ¼ìĨĲ": 8422,
      "Since": 8423,
      "Ġ1960": 8424,
      "ìłĦìĿĦ": 8425,
      "ĠìĤ´íİ´": 8426,
      "Ġgone": 8427,
      "ìłĿ": 8428,
      "ĠìĻĦë²½": 8429,
      "Ġneck": 8430,
      "Ġcultiv": 8431,
      "Ġforests": 8432,
      "ĠEmpire": 8433,
      "aser": 8434,
      "Ġì£¼ìĨĮ": 8435,
      "Ġcarefully": 8436,
      "ĠNorthern": 8437,
      "ì¶ĺ": 8438,
      "Ġinteraction": 8439,
      "ctor": 8440,
      "Ġopposite": 8441,
      "Ġthousand": 8442,
      "Ġshift": 8443,
      "ëłµ": 8444,
      "Ġphotograph": 8445,
      "ĠStudy": 8446,
      "Ġinstitution": 8447,
      "ait": 8448,
      "Ġê±": 8449,
      "Ġëĭ¤ìĿĮê³¼": 8450,
      "Ġê¸°ìĸµ": 8451,
      "ĠëĲĺê³ł": 8452,
      "antly": 8453,
      "Ġconcrete": 8454,
      "Ġindex": 8455,
      "Ġ..": 8456,
      "ìĿ´ë¥¼": 8457,
      "Ġìĭ¤íĸī": 8458,
      "íĽĪ": 8459,
      "Ġsurve": 8460,
      "Ġreader": 8461,
      "Ġbeneficial": 8462,
      "Ġwalking": 8463,
      "ĠCy": 8464,
      "ĠCap": 8465,
      "Ġclust": 8466,
      "Ġë§Įì¡±": 8467,
      "Ġalgorith": 8468,
      "Ġlots": 8469,
      "ìĽł": 8470,
      "Ġê¸°ë°ĺ": 8471,
      "ĠìĿ´ìĹĲ": 8472,
      "Ġrhy": 8473,
      "Ġconsumers": 8474,
      "Ġrepresented": 8475,
      "gent": 8476,
      "ìĿ¸ìĿĢ": 8477,
      "Ġintervention": 8478,
      "Ġë¶Ļ": 8479,
      "Ġresponses": 8480,
      "Ġimmediate": 8481,
      "ĠEth": 8482,
      "Ġpurchase": 8483,
      "ĠViet": 8484,
      "Ġhandle": 8485,
      "phone": 8486,
      "Ġsuccessfully": 8487,
      "Ġreplaced": 8488,
      "Ġë¶Īë²ķìłģ": 8489,
      "ĠIll": 8490,
      "Ġê·¸ëħĢ": 8491,
      "Ġcorn": 8492,
      "Ġë¬¸ìłľê°Ģ": 8493,
      "Ġcolleagues": 8494,
      "Ġvessels": 8495,
      "Ġvs": 8496,
      "cher": 8497,
      "ìĸ´ê°Ģ": 8498,
      "Ġacids": 8499,
      "Ġflav": 8500,
      "',": 8501,
      "ëĲĲ": 8502,
      "ifications": 8503,
      "Ġëĭ¤ìļ´": 8504,
      "Ġserver": 8505,
      "ĠìĹħë¬´": 8506,
      "Ġstroke": 8507,
      "Ġcos": 8508,
      "ĠíķĺëĤĺìĿĺ": 8509,
      "Ġëª©íĳľ": 8510,
      "Ġarrived": 8511,
      "rd": 8512,
      "ìĬĪ": 8513,
      "Ġê³µëıĻ": 8514,
      "ë¨¹": 8515,
      "Ġìĺģíĸ¥ìĿĦ": 8516,
      "Ġtaste": 8517,
      "throp": 8518,
      "Ġskill": 8519,
      "Ġknows": 8520,
      "Ġcultures": 8521,
      "ĠëĦ¤íĬ¸ìĽĮíģ¬": 8522,
      "ĠValley": 8523,
      "ĠKorea": 8524,
      "ĠMill": 8525,
      "ĠRob": 8526,
      "ĠParty": 8527,
      "Ġamaz": 8528,
      "ë©ĶìĿ¼": 8529,
      "then": 8530,
      "Ġcholesterol": 8531,
      "cycl": 8532,
      "ĠIII": 8533,
      "iability": 8534,
      "kes": 8535,
      "Ġvariable": 8536,
      "Ġroof": 8537,
      "ê¼": 8538,
      "ìĤ¬íķŃ": 8539,
      "Ġcomposition": 8540,
      "Ġreserv": 8541,
      "uter": 8542,
      "ĠCat": 8543,
      "umes": 8544,
      "Ġaccum": 8545,
      "ìħľ": 8546,
      "sue": 8547,
      "Ġ400": 8548,
      "Ġstands": 8549,
      "ĠìłĦìĹĲ": 8550,
      "Ġcoffee": 8551,
      "Ġsupports": 8552,
      "Ġarchitecture": 8553,
      "lets": 8554,
      "Ġshot": 8555,
      "ĠíĺĦìĭ¤": 8556,
      "ĠAdminist": 8557,
      "Â®": 8558,
      "ĠPenn": 8559,
      "Ġnine": 8560,
      "Ø§": 8561,
      "Ġtraum": 8562,
      "Ġraw": 8563,
      "Ġë°ľê²¬ìĭľ": 8564,
      "fortunately": 8565,
      "Ġmarried": 8566,
      "ë°°íı¬ëĬĶ": 8567,
      "Ġfalse": 8568,
      "oned": 8569,
      "OM": 8570,
      "zil": 8571,
      "Ġemotions": 8572,
      "Ġë¶ĦìŁģìļĶìĨĮ": 8573,
      "ìĿĺë¥¼": 8574,
      "ë¡ľëĵľ": 8575,
      "Ġlisten": 8576,
      "íķĺëıĦë¡Ŀ": 8577,
      "Ġcomments": 8578,
      "Ġpra": 8579,
      "top": 8580,
      "2013": 8581,
      "ì¹´ëĵľ": 8582,
      "etime": 8583,
      "ĠFace": 8584,
      "Pe": 8585,
      "fish": 8586,
      "Ġhousing": 8587,
      "Ġlifestyle": 8588,
      "comm": 8589,
      "pan": 8590,
      "Ġcustomers": 8591,
      "Ġsequence": 8592,
      "Ġcryst": 8593,
      "ester": 8594,
      "aped": 8595,
      "Ġcolour": 8596,
      "stein": 8597,
      "Ġê°Ļëĭ¤": 8598,
      "Ġfighting": 8599,
      "Ġsucceed": 8600,
      "ocy": 8601,
      "Ġ65": 8602,
      "Ġjoin": 8603,
      "Ġâħ": 8604,
      "ëŁŃ": 8605,
      "ëł¤ê³ł": 8606,
      "Ġunus": 8607,
      "ĠíĮĶ": 8608,
      "ìłĢê°Ģ": 8609,
      "ĠClin": 8610,
      "pet": 8611,
      "Ġchosen": 8612,
      "ê°ĦìĿĺ": 8613,
      "Ġcomparison": 8614,
      "Ġcarb": 8615,
      "Ġsupporting": 8616,
      "Ġnob": 8617,
      "usiness": 8618,
      "íĸĪê³ł": 8619,
      "Ġearthqu": 8620,
      "Ġsoul": 8621,
      "Ġvulnerable": 8622,
      "Ġrank": 8623,
      "Ġpersist": 8624,
      "Ġnecessarily": 8625,
      "ëł¸ëĭ¤": 8626,
      "ìķĦìĦľ": 8627,
      "Ġmulti": 8628,
      "ĠRichard": 8629,
      "Ġrequest": 8630,
      "Let": 8631,
      "ĠDisease": 8632,
      "Ġterritory": 8633,
      "Ġpron": 8634,
      "ĠëĲĺìĹĪ": 8635,
      "Ġmixed": 8636,
      "ĠEnd": 8637,
      "ìłķìĿ´": 8638,
      "Ġíķĺë£¨": 8639,
      "riting": 8640,
      "ë§ĮìĽĲ": 8641,
      "ashion": 8642,
      "Ġmice": 8643,
      "cture": 8644,
      "Ġ150": 8645,
      "ä¸": 8646,
      "ĠRoyal": 8647,
      "Ġê°Ģì§Ħ": 8648,
      "ĠìĿ¼ìĿ´": 8649,
      "ë²¨": 8650,
      "Ġissued": 8651,
      "Ġemployment": 8652,
      "Ġdedicated": 8653,
      "SS": 8654,
      "abul": 8655,
      "Ġìĭ¤ìĭľê°Ħ": 8656,
      "Ġturns": 8657,
      "Le": 8658,
      "ìķĦìĿ´": 8659,
      "Ġremark": 8660,
      "Ġbiggest": 8661,
      "ĠëĪĦêµ¬": 8662,
      "ĠBoard": 8663,
      "%,": 8664,
      "quit": 8665,
      "Ġì£¼ë¬¸": 8666,
      "Ġjoined": 8667,
      "Ġconventional": 8668,
      "ĠAI": 8669,
      "Ġë¬¸ìĦľ": 8670,
      "Ġmagnetic": 8671,
      "Ġrising": 8672,
      "Ġultimately": 8673,
      "Ġunderlying": 8674,
      "ëĬĶëį°ìļĶ": 8675,
      "ugh": 8676,
      "Ġfiber": 8677,
      "Ġdefe": 8678,
      "Ġ1995": 8679,
      "Ġmild": 8680,
      "ìĿ¸ëĭ¤": 8681,
      "Ġhighlight": 8682,
      "Ġê²½ìļ°ìĹĲëĬĶ": 8683,
      "Ġìĺ¬ëĿ¼": 8684,
      "Ġbehaviors": 8685,
      "Ġoccasion": 8686,
      "Ġsupposed": 8687,
      "ĠAdd": 8688,
      "Ġë°°ìļ°": 8689,
      "ëī´ìĬ¤": 8690,
      "ĠNatural": 8691,
      "Ġends": 8692,
      "ĠìĪĺíĸī": 8693,
      "Ġìļ¸": 8694,
      "Ġfunds": 8695,
      "HD": 8696,
      "struction": 8697,
      "ĠBank": 8698,
      "uts": 8699,
      "84": 8700,
      "stract": 8701,
      "irty": 8702,
      "roduction": 8703,
      "Int": 8704,
      "ĠWhe": 8705,
      "Ġì£¼ë³Ģ": 8706,
      "íı¬ì¸ł": 8707,
      "ë§İìĿĢ": 8708,
      "Ġìĺµìħĺ": 8709,
      "Ġê°ķì¡°": 8710,
      "Ġkit": 8711,
      "ĠìĿ¸ìłķ": 8712,
      "Ġborder": 8713,
      "ĠìĽĢ": 8714,
      "how": 8715,
      "hop": 8716,
      "UT": 8717,
      "Ġresolution": 8718,
      "Ġìĥ¤": 8719,
      "gans": 8720,
      "ĠDig": 8721,
      "ribe": 8722,
      "ĠSciences": 8723,
      "Ġê³µìľł": 8724,
      "Ġì¢ħë¥ĺ": 8725,
      "orous": 8726,
      "Ġrelax": 8727,
      "Ġphilosophy": 8728,
      "Ġfeeding": 8729,
      "81": 8730,
      "ployment": 8731,
      "ĠRevolution": 8732,
      "62": 8733,
      "âĺ": 8734,
      "Ġ1996": 8735,
      "Ġeastern": 8736,
      "Ġadministr": 8737,
      "Ġhabits": 8738,
      "ìĸ´ëĤľ": 8739,
      "Ġhoriz": 8740,
      "zed": 8741,
      "Ġnerve": 8742,
      "ĠItalian": 8743,
      "aud": 8744,
      "Ġpsychological": 8745,
      "Ġalle": 8746,
      "Ġê·¸ë¦¼": 8747,
      "Ġbutter": 8748,
      "Ġpercentage": 8749,
      "ë¶Ģë¥¼": 8750,
      "Ġdrawing": 8751,
      "Ġregulations": 8752,
      "Ġmolecules": 8753,
      "íķĺìĿĺ": 8754,
      "peror": 8755,
      "Ġfirstname": 8756,
      "ediatric": 8757,
      "Ġcommunicate": 8758,
      "Ġê³¼íķĻ": 8759,
      "Ġinstruments": 8760,
      "Ġusage": 8761,
      "Ġcounty": 8762,
      "ë°©ë²ķ": 8763,
      "Ġpreval": 8764,
      "Ġblocks": 8765,
      "Ġacknow": 8766,
      "Ġwitness": 8767,
      "Ġshop": 8768,
      "Ġcutting": 8769,
      "Ġwilling": 8770,
      "Ġattached": 8771,
      "Ġguarant": 8772,
      "ë¦½ìĸ´ëĵľ": 8773,
      "ĠëĮĢë¹Ħ": 8774,
      "ĠìĭľëĮĢ": 8775,
      "Ġwhereas": 8776,
      "Ġhydrogen": 8777,
      "Ġê³łëł¤": 8778,
      "ë¦½ìĸ´ëĵľë°ĶìĿ´": 8779,
      "Ġìķ±": 8780,
      "Ġë¯¼ì£¼": 8781,
      "ups": 8782,
      "Ġcats": 8783,
      "Ġbreathing": 8784,
      "ĠFamily": 8785,
      "bour": 8786,
      "Ġbot": 8787,
      "icious": 8788,
      "Ġlies": 8789,
      "ĠWood": 8790,
      "Ġtransportation": 8791,
      "Ġequivalent": 8792,
      "ĠÐ": 8793,
      "ĠëĤĺìĺ¤": 8794,
      "Ġstring": 8795,
      "Ġê°ĲìĤ¬": 8796,
      "Ġvoc": 8797,
      "Ġratio": 8798,
      "Ġcart": 8799,
      "Ġbrand": 8800,
      "ì²´ìĿĺ": 8801,
      "Ġcapture": 8802,
      "Ġregist": 8803,
      "Ġfrequent": 8804,
      "ìħ¨ìĬµëĭĪëĭ¤": 8805,
      "ìľ¤": 8806,
      "ìĿ¼ì¹ĺ": 8807,
      "Ġì¤ĳë³µ": 8808,
      "Ġstable": 8809,
      "ì¹ł": 8810,
      "Ġyield": 8811,
      "Ġcentre": 8812,
      "Ġcrim": 8813,
      "such": 8814,
      "Ġì¢Į": 8815,
      "Ġelectro": 8816,
      "Ġê¾¸": 8817,
      "Ġexplo": 8818,
      "Ġê·¼ì²ĺ": 8819,
      "Ġmac": 8820,
      "Ġprove": 8821,
      "Ġwriter": 8822,
      "onia": 8823,
      "ĠTimes": 8824,
      "igned": 8825,
      "Ġë³´ìĦ¸ìļĶ": 8826,
      "ĠExper": 8827,
      "riers": 8828,
      "ìŀĲë¡ľ": 8829,
      "ĠìĬ¬": 8830,
      "Ġexists": 8831,
      "ĠHoly": 8832,
      "Ġtall": 8833,
      "Ġhem": 8834,
      "Ġtrained": 8835,
      "Ġresulted": 8836,
      "Ġobservations": 8837,
      "xts": 8838,
      "Ġspok": 8839,
      "Ġmanif": 8840,
      "Ġê²°êµŃ": 8841,
      "Ġreactions": 8842,
      ")|": 8843,
      "ala": 8844,
      "ĠMS": 8845,
      "ìĨĮëħĦ": 8846,
      "Ġethnic": 8847,
      "ĠíķĺìĹ¬": 8848,
      "ella": 8849,
      "ĠOh": 8850,
      "Ġmode": 8851,
      "Ġvoltage": 8852,
      "Ġìķŀìľ¼ë¡ľ": 8853,
      "Ġdebate": 8854,
      "ĠKeep": 8855,
      "Ġì°©": 8856,
      "Ġgrew": 8857,
      "stone": 8858,
      "ĠForm": 8859,
      "Ġwhatever": 8860,
      "Ġê·¸ëłĩê²Į": 8861,
      "Ġê²°ìłľ": 8862,
      "Ġplayers": 8863,
      "Ġnearby": 8864,
      "Ġmechanisms": 8865,
      "rovers": 8866,
      "while": 8867,
      "Ġgap": 8868,
      "Ġsmoke": 8869,
      "ĠPy": 8870,
      "íĮĲë§¤": 8871,
      "irt": 8872,
      "Ġì§ĢëıĦ": 8873,
      "2010": 8874,
      "bur": 8875,
      "Ġdownload": 8876,
      "ìºł": 8877,
      "hav": 8878,
      "Ġê³Ħìķ½": 8879,
      "rat": 8880,
      "Ġaer": 8881,
      "esis": 8882,
      "Ġteen": 8883,
      "Ġprompt": 8884,
      "Ġì§Īë¬¸": 8885,
      "Ġê°ķíĻĶ": 8886,
      "Ġinhib": 8887,
      "Ġepid": 8888,
      "ĠStep": 8889,
      "earchers": 8890,
      "ê°ĻìĿĢ": 8891,
      "Ġcards": 8892,
      "utrition": 8893,
      "Ġë°Ľê³ł": 8894,
      "Ġdelivery": 8895,
      "Ġê³µê²©": 8896,
      "ĠGeorg": 8897,
      "Ġfabric": 8898,
      "Ġthy": 8899,
      "Ġtrials": 8900,
      "ìĿ´íģ¬": 8901,
      "ĠDet": 8902,
      "Ġelection": 8903,
      "ìĻĦëıĻë¬¼": 8904,
      "ĠìķĦë²Ħ": 8905,
      "Ġì¡°ìĤ¬": 8906,
      "Ġconnections": 8907,
      "ĠWik": 8908,
      "ëĮĢíķĻ": 8909,
      "ìŀĦìĿĦ": 8910,
      "Ġveter": 8911,
      "Ġevaluation": 8912,
      "Ġcontained": 8913,
      "Ġparticipate": 8914,
      "ĠAgricult": 8915,
      "Ġkidney": 8916,
      "UN": 8917,
      "Ġhero": 8918,
      "Ġdistur": 8919,
      "ĠServices": 8920,
      "83": 8921,
      "Ġpool": 8922,
      "ĠFree": 8923,
      "Ġorganisms": 8924,
      "Ġnegot": 8925,
      "omer": 8926,
      "ĠìłĦë§Ŀ": 8927,
      "ĠIndians": 8928,
      "Ġtwenty": 8929,
      "First": 8930,
      "ìĿ´ë²Ī": 8931,
      "ìĬ¤ì½Ķ": 8932,
      "Ġdomain": 8933,
      "Ġholds": 8934,
      "een": 8935,
      "Ġpolitics": 8936,
      "71": 8937,
      "Ġcompounds": 8938,
      "etics": 8939,
      "Ġarrange": 8940,
      "Ġdemonstrate": 8941,
      "Ġexplanation": 8942,
      "ë®¤": 8943,
      "ano": 8944,
      "ìĦłìĿĦ": 8945,
      "Rec": 8946,
      "ighter": 8947,
      "ìłľíĴĪ": 8948,
      "Ġprev": 8949,
      "Ġpup": 8950,
      "ults": 8951,
      "??": 8952,
      "car": 8953,
      "eers": 8954,
      "Ġpresentation": 8955,
      "Ġfunctional": 8956,
      "Ġë¸Įëŀľëĵľ": 8957,
      "ĠMichael": 8958,
      "uh": 8959,
      "Ġmatters": 8960,
      "Ġíľ´ê°Ģ": 8961,
      "ëª»": 8962,
      "Ġìĥģëĭ¹": 8963,
      "Ġinstructions": 8964,
      "Ġstreet": 8965,
      "ourage": 8966,
      "Ġë¹Į": 8967,
      "eenth": 8968,
      "Ġì¿ł": 8969,
      "Ġíį¼": 8970,
      "Ġíķ´ìĻ¸": 8971,
      "Ġë¹Ħì¦ĪëĭĪìĬ¤": 8972,
      "73": 8973,
      "Ġbread": 8974,
      "abled": 8975,
      "ĠGard": 8976,
      "Ġë§Īì§Ģë§ī": 8977,
      "ìĦ¼íĦ°ë¥¼": 8978,
      "ĠIran": 8979,
      "Ġìķķ": 8980,
      "ĠìłĢìŀ¥": 8981,
      "Ġdemonstrated": 8982,
      "rite": 8983,
      "Ġbio": 8984,
      "Ġnone": 8985,
      "ether": 8986,
      "Figure": 8987,
      "Ġforth": 8988,
      "Ġchrom": 8989,
      "Ġhypothes": 8990,
      "isdom": 8991,
      "Ġmand": 8992,
      "ì§ĢëĤľ": 8993,
      "ĠDen": 8994,
      "ĠChicago": 8995,
      "Ġconfidence": 8996,
      "Ġahead": 8997,
      "isk": 8998,
      "Ġê°Ģìŀħ": 8999,
      "Ġartificial": 9000,
      "ãħłãħł": 9001,
      "ĠìłĦíĨµ": 9002,
      "ìļ´ëıĻ": 9003,
      "Ġasthma": 9004,
      "Ġdiscrimination": 9005,
      "ìŀĪëĭ¤": 9006,
      "ìĭ±": 9007,
      "ĠEss": 9008,
      "ĠìĿĺê²¬": 9009,
      "Ġmachines": 9010,
      "ê¸°ê°Ħ": 9011,
      "ĠìķĦëĭĪëĭ¤": 9012,
      "Ġregul": 9013,
      "ìłģìĿ´": 9014,
      "Ġeveryday": 9015,
      "Ġcontamin": 9016,
      "ìŀ¥ìĹĲ": 9017,
      "ditional": 9018,
      "ĠëŁ¬": 9019,
      "Ġimprovement": 9020,
      "CP": 9021,
      "rey": 9022,
      "irds": 9023,
      "Ġë¶Ģëª¨": 9024,
      "ĠìĤ¬ìļ©íķĺëĬĶ": 9025,
      "ĠClimate": 9026,
      "ĠCarolina": 9027,
      "ì²Ļ": 9028,
      "72": 9029,
      "¢°": 9030,
      "ĠHaw": 9031,
      "Ġfeedback": 9032,
      "aine": 9033,
      "asty": 9034,
      "Ġpartner": 9035,
      "Ġholid": 9036,
      "Ġreven": 9037,
      "ĠëĬĶ": 9038,
      "ë§ĮìĿĺ": 9039,
      "Ġlegs": 9040,
      "ë³µì§Ģ": 9041,
      "erior": 9042,
      "Ġrecept": 9043,
      "ìĹ¬íĸī": 9044,
      "Ġhun": 9045,
      "Ġcrow": 9046,
      "hesis": 9047,
      "Ġìłľìĭľ": 9048,
      "Ġnoise": 9049,
      "gs": 9050,
      "Ġbridge": 9051,
      "ĠëĤ´ëł¤": 9052,
      "arsh": 9053,
      "Ġwasn": 9054,
      "Ġrice": 9055,
      "ĠNative": 9056,
      "Ġrelation": 9057,
      "ĠColor": 9058,
      "Ġrecognition": 9059,
      "ĠíĪ¬ìŀĲ": 9060,
      "Ġë´ī": 9061,
      "urrent": 9062,
      "Ġglucose": 9063,
      "Ġorient": 9064,
      "Ġestimate": 9065,
      "Ġemployed": 9066,
      "Ġdiagnosed": 9067,
      "ìľ¼ë¡ľìĦľ": 9068,
      "orses": 9069,
      "Ġdefine": 9070,
      "Ġspaces": 9071,
      "ìłķì±ħ": 9072,
      "Med": 9073,
      "Ġë¬¸ìłľë¥¼": 9074,
      "itely": 9075,
      "Ġruns": 9076,
      "Ġexamine": 9077,
      ".[": 9078,
      "Qu": 9079,
      "ĠNetwork": 9080,
      "59": 9081,
      "CE": 9082,
      "itivity": 9083,
      "íĺ¹": 9084,
      "Ġearn": 9085,
      "Ġparallel": 9086,
      "Ġmembran": 9087,
      "ented": 9088,
      "ìĿ¼ìĿĦ": 9089,
      "ĠìĬ¤íĮĮ": 9090,
      "inating": 9091,
      "itamin": 9092,
      "Ġlayers": 9093,
      "ìĦ¼": 9094,
      "Ġshad": 9095,
      "ĠOcean": 9096,
      "ìĺ¤ë¥ĺ": 9097,
      "Ġmicrob": 9098,
      "fl": 9099,
      "Ġobesity": 9100,
      "ê·¸ë¦¬ê³ł": 9101,
      "ĠFrank": 9102,
      "ê³łê°Ŀ": 9103,
      "ì¦Į": 9104,
      "onal": 9105,
      "íķ´ë³´": 9106,
      "ãĢį": 9107,
      "ureau": 9108,
      "Ġrow": 9109,
      "ëĵłì§Ģ": 9110,
      "Ġìĺ¬íķ´": 9111,
      "Ġestimates": 9112,
      "Ġentry": 9113,
      "ë¢°": 9114,
      "ulty": 9115,
      "Ġuniversity": 9116,
      "teen": 9117,
      "Ġcup": 9118,
      "Ġneur": 9119,
      "Ġaccident": 9120,
      "scale": 9121,
      "Ġfu": 9122,
      "Ġgenerations": 9123,
      "Ġinteractions": 9124,
      "Ġaward": 9125,
      "ittle": 9126,
      "Ġaccessible": 9127,
      "Ġsacr": 9128,
      "idity": 9129,
      "Ġongoing": 9130,
      "Ġzero": 9131,
      "Ġbeliefs": 9132,
      "ê³¤": 9133,
      "ĠMer": 9134,
      "espread": 9135,
      "Ġconclusion": 9136,
      "Ġìķ¼ìĻ¸": 9137,
      "2011": 9138,
      "Ġdelay": 9139,
      "Ġvolcan": 9140,
      "Ġcrime": 9141,
      "ìĩ": 9142,
      "ĠSing": 9143,
      "Ġtrip": 9144,
      "Ġfract": 9145,
      "ĠID": 9146,
      "ëª°": 9147,
      "Ġì°į": 9148,
      "êµ¬ë¥¼": 9149,
      "ĠíĿĶ": 9150,
      "Ġflo": 9151,
      "Ġinsulin": 9152,
      "Ġpregnant": 9153,
      "Ġsmoking": 9154,
      "cons": 9155,
      "hered": 9156,
      "tering": 9157,
      "ishment": 9158,
      "Ġindependence": 9159,
      "Ġended": 9160,
      "Ġcommitted": 9161,
      "asters": 9162,
      "ĠEarly": 9163,
      "Ġì¶©ë¶Ħ": 9164,
      "Ġintellectual": 9165,
      "Ġsections": 9166,
      "Ġbond": 9167,
      "ìłĲìĿ´": 9168,
      "Ġpositions": 9169,
      "Ġmaintaining": 9170,
      "Ġagreed": 9171,
      "Ġcriminal": 9172,
      "Ġlegislation": 9173,
      "Ġscan": 9174,
      "74": 9175,
      "ĩĮ": 9176,
      "Ġparticipation": 9177,
      "Ġmanip": 9178,
      "ìĻĶëĭ¤": 9179,
      "Ġmedic": 9180,
      "weight": 9181,
      "RA": 9182,
      "ìĿ¸íĦ°ëĦ·": 9183,
      "everal": 9184,
      "Ġë¶ĪìĿ¼ì¹ĺ": 9185,
      "Lear": 9186,
      "Ġ;": 9187,
      "ĠAst": 9188,
      "using": 9189,
      "Ġexercises": 9190,
      "Ġbrings": 9191,
      "Ġcompetition": 9192,
      "gov": 9193,
      "ìĺ¥": 9194,
      "Ġsole": 9195,
      "Ġë¬´ìĦł": 9196,
      "raining": 9197,
      "orph": 9198,
      "aked": 9199,
      "êµ°ìļĶ": 9200,
      "ĠAM": 9201,
      "Ġfever": 9202,
      "inson": 9203,
      "ĠGuide": 9204,
      "Of": 9205,
      "Ġforget": 9206,
      "ritis": 9207,
      "Ġdebt": 9208,
      "Ġmeters": 9209,
      "ë¹ł": 9210,
      "ĠíĶĮëłĪìĿ´": 9211,
      "illa": 9212,
      "ĠDiff": 9213,
      "ĠRom": 9214,
      "iah": 9215,
      "ĠZeal": 9216,
      "Ġburning": 9217,
      "Ġislands": 9218,
      "ĠScott": 9219,
      "Ġpassage": 9220,
      "azine": 9221,
      "Ġdollars": 9222,
      "Ġille": 9223,
      "Ġëĵ£": 9224,
      "Ġë¹¨": 9225,
      "Ġdanger": 9226,
      "ĠìŀĶ": 9227,
      "Ġneither": 9228,
      "ĠAtlantic": 9229,
      "ocation": 9230,
      "Ġped": 9231,
      "Ġvictims": 9232,
      "ìľĦìĽĲíļĮ": 9233,
      "Ġíĭ°": 9234,
      "VID": 9235,
      "ë§Įíģ¼": 9236,
      "ĠBig": 9237,
      "ĠEqu": 9238,
      "Ġobjective": 9239,
      "ìľ¼ë¡ľëĬĶ": 9240,
      "ĠìĽĢì§ģ": 9241,
      "ĠAccess": 9242,
      "Ġê²½ìĺģ": 9243,
      "Ġexpansion": 9244,
      "Ġindustries": 9245,
      "Ġholding": 9246,
      "ĠëıħìĿ¼": 9247,
      "Your": 9248,
      "lines": 9249,
      "Ġtons": 9250,
      "Ġinvolving": 9251,
      "Ġdrawn": 9252,
      "earing": 9253,
      "Ġê°ģì¢ħ": 9254,
      "Ġfold": 9255,
      "Ġgram": 9256,
      "ifts": 9257,
      "ĠPop": 9258,
      "Ġ36": 9259,
      "Ġê³µíķŃ": 9260,
      "ĠCoast": 9261,
      "Ġgreenhouse": 9262,
      "ĠKingdom": 9263,
      "Ġmoisture": 9264,
      "ĠSet": 9265,
      "ìļ°ë¦¬": 9266,
      "Ġentered": 9267,
      "Ġprogramming": 9268,
      "Ġoperate": 9269,
      "ĠEastern": 9270,
      "rial": 9271,
      "Ġpapers": 9272,
      "Ġmood": 9273,
      "ĠAge": 9274,
      "Ġring": 9275,
      "Ġrivers": 9276,
      "Ġë³´ìŀ¥": 9277,
      "ë¬¼ìĿ´": 9278,
      "Ġsheet": 9279,
      "Ġphoto": 9280,
      "ĠCast": 9281,
      "eless": 9282,
      "dule": 9283,
      "Ġmold": 9284,
      "ê°ľë°ľ": 9285,
      "Ġrealize": 9286,
      "Ġblow": 9287,
      "Ġchick": 9288,
      "alls": 9289,
      "Ġtissues": 9290,
      "Ġcoastal": 9291,
      "Ġloved": 9292,
      "ĠFacebook": 9293,
      "Ġtexts": 9294,
      "Ġoblig": 9295,
      "Ġë²Īì§¸": 9296,
      "Ġdeclared": 9297,
      "umps": 9298,
      "Ġru": 9299,
      "Ġìĭ¸": 9300,
      "ĠìłĦìŁģ": 9301,
      "ìĪĺìĿĺ": 9302,
      "Ġcamera": 9303,
      "rary": 9304,
      "82": 9305,
      "GB": 9306,
      "yles": 9307,
      "Ġarrest": 9308,
      "Ġë§Įíģ¼": 9309,
      "Ġdoi": 9310,
      "Ġthanks": 9311,
      "heimer": 9312,
      "Ġment": 9313,
      "plant": 9314,
      "ëŀ«": 9315,
      "Ġbiod": 9316,
      "itudes": 9317,
      "Ġcm": 9318,
      "Ġscene": 9319,
      "Ġrelief": 9320,
      "ĠAsian": 9321,
      "Ġmatch": 9322,
      "Ġsomewhat": 9323,
      "Ġhistoric": 9324,
      "html": 9325,
      "reated": 9326,
      "Ġdepart": 9327,
      "Ġìļ°ë¦¬ìĿĺ": 9328,
      "she": 9329,
      "Ġê·¸ëĮĢë¡ľ": 9330,
      "ĠìķĬìķĺëĭ¤": 9331,
      "ĠíĿĲ": 9332,
      "Ġintegrated": 9333,
      "Ġcoc": 9334,
      "íķĺëĤĺ": 9335,
      "íķľëĭ¤ëĬĶ": 9336,
      "Ġmissing": 9337,
      "ĠMartin": 9338,
      "Ġlaunched": 9339,
      "ìļĶìĿ¼": 9340,
      "ĠVen": 9341,
      "Ġlegisl": 9342,
      "Ġworry": 9343,
      "Ġdestruction": 9344,
      "CH": 9345,
      "Su": 9346,
      "ao": 9347,
      "Ġë°ĽìĿĢ": 9348,
      "ì½ľ": 9349,
      "cyclop": 9350,
      "ë¦½ìĸ´ëĵľë°ĶìĿ´ìłĢëĬĶ": 9351,
      "ĠìĨ¡": 9352,
      "ĠíĨµíķ©": 9353,
      "Ġëĵ±ìŀ¥": 9354,
      "Ġcalories": 9355,
      "ĠìķĬëĬĶëĭ¤": 9356,
      "ocial": 9357,
      "Ġë§º": 9358,
      "Ġapproved": 9359,
      "ĠíĽĦë³´": 9360,
      "Ġdamaged": 9361,
      "Ġsubstances": 9362,
      "Ġprohib": 9363,
      "ĠUr": 9364,
      "ĠíĶĦë¡ľìłĿ": 9365,
      "Ġconstructed": 9366,
      "Don": 9367,
      "Ġsmooth": 9368,
      "fit": 9369,
      "Ġsail": 9370,
      "Ġswim": 9371,
      "Ġsettings": 9372,
      "Over": 9373,
      "ĠMD": 9374,
      "ĠìĪĺì§ĳ": 9375,
      "Ġassociation": 9376,
      "Ġchallenging": 9377,
      "oples": 9378,
      "ĠìĦ¤ëªħê³¼": 9379,
      "ĠZealand": 9380,
      "Ġpainting": 9381,
      "Ġê°ģê°ģ": 9382,
      "Ġmerely": 9383,
      "Ġê²¬": 9384,
      "ĠVictor": 9385,
      "CA": 9386,
      "Once": 9387,
      "iratory": 9388,
      "íģ¬ìķĦìĽĥ": 9389,
      "tic": 9390,
      "Ġbeings": 9391,
      "Ġdesigns": 9392,
      "Ġ1994": 9393,
      "ersonal": 9394,
      "ĠHy": 9395,
      "ìŀĲëĵ¤ìĿĺ": 9396,
      "Ġcovers": 9397,
      "ĠíļĮìĿĺ": 9398,
      "Ġmaps": 9399,
      "Ġphysics": 9400,
      "Ġê¸Īì§ĢëĲĺìĸ´": 9401,
      "ĠCP": 9402,
      "ĠBab": 9403,
      "ĠìĦ¬": 9404,
      "Ġê°Ģì¹ĺ": 9405,
      "ìĪĺíķľ": 9406,
      "Ġmarkets": 9407,
      "ĠíĶ¼íķ´": 9408,
      "Ġpanel": 9409,
      "ĠSar": 9410,
      "ìłķìĿĺ": 9411,
      "Ġcircle": 9412,
[...]
